const unsigned char model_tflite[] = {28,0,0,0,84,70,76,51,20,0,32,0,28,0,24,0,20,0,16,0,12,0,0,0,8,0,4,0,20,0,0,0,28,0,0,0,144,0,0,0,232,0,0,0,204,2,0,0,220,2,0,0,24,11,0,0,3,0,0,0,1,0,0,0,16,0,0,0,0,0,10,0,16,0,12,0,8,0,4,0,10,0,0,0,12,0,0,0,28,0,0,0,56,0,0,0,15,0,0,0,115,101,114,118,105,110,103,95,100,101,102,97,117,108,116,0,1,0,0,0,4,0,0,0,152,255,255,255,12,0,0,0,4,0,0,0,7,0,0,0,100,101,110,115,101,95,51,0,1,0,0,0,4,0,0,0,194,253,255,255,4,0,0,0,11,0,0,0,100,101,110,115,101,95,105,110,112,117,116,0,2,0,0,0,52,0,0,0,4,0,0,0,220,255,255,255,15,0,0,0,4,0,0,0,19,0,0,0,67,79,78,86,69,82,83,73,79,78,95,77,69,84,65,68,65,84,65,0,8,0,12,0,8,0,4,0,8,0,0,0,14,0,0,0,4,0,0,0,19,0,0,0,109,105,110,95,114,117,110,116,105,109,101,95,118,101,114,115,105,111,110,0,16,0,0,0,224,1,0,0,216,1,0,0,196,1,0,0,164,1,0,0,116,1,0,0,68,1,0,0,36,1,0,0,244,0,0,0,196,0,0,0,172,0,0,0,164,0,0,0,156,0,0,0,148,0,0,0,140,0,0,0,108,0,0,0,4,0,0,0,122,254,255,255,4,0,0,0,88,0,0,0,12,0,0,0,8,0,14,0,8,0,4,0,8,0,0,0,16,0,0,0,40,0,0,0,0,0,6,0,8,0,4,0,6,0,0,0,4,0,0,0,1,0,0,0,235,3,0,0,0,0,10,0,16,0,12,0,8,0,4,0,10,0,0,0,2,0,0,0,2,0,0,0,4,0,0,0,6,0,0,0,50,46,49,51,46,49,0,0,222,254,255,255,4,0,0,0,16,0,0,0,49,46,49,52,46,48,0,0,0,0,0,0,0,0,0,0,100,254,255,255,104,254,255,255,108,254,255,255,112,254,255,255,10,255,255,255,4,0,0,0,8,0,0,0,144,76,225,78,119,80,127,97,30,255,255,255,4,0,0,0,32,0,0,0,0,0,0,0,99,249,255,255,0,0,0,0,125,246,255,255,167,255,255,255,237,240,255,255,32,254,255,255,125,6,0,0,74,255,255,255,4,0,0,0,32,0,0,0,229,195,208,156,4,22,177,174,88,220,18,202,75,8,43,82,145,110,53,23,172,84,6,129,17,13,10,68,110,127,67,216,118,255,255,255,4,0,0,0,16,0,0,0,0,0,0,0,175,6,0,0,0,0,0,0,188,243,255,255,146,255,255,255,4,0,0,0,32,0,0,0,106,112,169,63,103,4,82,38,206,185,11,248,97,171,35,226,200,250,97,52,79,170,210,31,199,127,198,103,86,146,231,81,190,255,255,255,4,0,0,0,32,0,0,0,27,3,0,0,30,3,0,0,0,0,0,0,0,0,0,0,114,1,0,0,77,4,0,0,253,255,255,255,164,246,255,255,234,255,255,255,4,0,0,0,8,0,0,0,126,127,13,70,49,35,36,188,0,0,6,0,8,0,4,0,6,0,0,0,4,0,0,0,4,0,0,0,140,4,0,0,128,255,255,255,132,255,255,255,15,0,0,0,77,76,73,82,32,67,111,110,118,101,114,116,101,100,46,0,1,0,0,0,20,0,0,0,0,0,14,0,24,0,20,0,16,0,12,0,8,0,4,0,14,0,0,0,20,0,0,0,28,0,0,0,36,1,0,0,40,1,0,0,44,1,0,0,4,0,0,0,109,97,105,110,0,0,0,0,4,0,0,0,204,0,0,0,132,0,0,0,60,0,0,0,4,0,0,0,150,255,255,255,20,0,0,0,0,0,0,8,16,0,0,0,20,0,0,0,4,0,4,0,4,0,0,0,1,0,0,0,12,0,0,0,3,0,0,0,11,0,0,0,2,0,0,0,1,0,0,0,202,255,255,255,16,0,0,0,0,0,0,8,16,0,0,0,20,0,0,0,118,255,255,255,0,0,0,1,1,0,0,0,11,0,0,0,3,0,0,0,10,0,0,0,4,0,0,0,3,0,0,0,0,0,14,0,20,0,0,0,16,0,12,0,11,0,4,0,14,0,0,0,16,0,0,0,0,0,0,8,16,0,0,0,20,0,0,0,186,255,255,255,0,0,0,1,1,0,0,0,10,0,0,0,3,0,0,0,9,0,0,0,6,0,0,0,5,0,0,0,0,0,14,0,22,0,0,0,16,0,12,0,11,0,4,0,14,0,0,0,24,0,0,0,0,0,0,8,24,0,0,0,28,0,0,0,0,0,6,0,8,0,7,0,6,0,0,0,0,0,0,1,1,0,0,0,9,0,0,0,3,0,0,0,0,0,0,0,8,0,0,0,7,0,0,0,1,0,0,0,12,0,0,0,1,0,0,0,0,0,0,0,13,0,0,0,88,6,0,0,200,5,0,0,68,5,0,0,200,4,0,0,92,4,0,0,224,3,0,0,116,3,0,0,0,3,0,0,148,2,0,0,232,1,0,0,52,1,0,0,128,0,0,0,4,0,0,0,242,249,255,255,0,0,0,1,24,0,0,0,32,0,0,0,60,0,0,0,13,0,0,0,0,0,0,9,80,0,0,0,2,0,0,0,255,255,255,255,1,0,0,0,220,249,255,255,8,0,0,0,16,0,0,0,1,0,0,0,128,255,255,255,255,255,255,255,1,0,0,0,62,172,126,59,25,0,0,0,83,116,97,116,101,102,117,108,80,97,114,116,105,116,105,111,110,101,100,67,97,108,108,58,48,0,0,0,2,0,0,0,1,0,0,0,1,0,0,0,106,250,255,255,0,0,0,1,24,0,0,0,32,0,0,0,64,0,0,0,12,0,0,0,0,0,0,9,136,0,0,0,2,0,0,0,255,255,255,255,8,0,0,0,84,250,255,255,8,0,0,0,20,0,0,0,1,0,0,0,128,255,255,255,255,255,255,255,0,0,0,0,1,0,0,0,3,112,161,59,76,0,0,0,115,101,113,117,101,110,116,105,97,108,47,100,101,110,115,101,95,50,47,77,97,116,77,117,108,59,115,101,113,117,101,110,116,105,97,108,47,100,101,110,115,101,95,50,47,82,101,108,117,59,115,101,113,117,101,110,116,105,97,108,47,100,101,110,115,101,95,50,47,66,105,97,115,65,100,100,0,0,0,0,2,0,0,0,1,0,0,0,8,0,0,0,26,251,255,255,0,0,0,1,24,0,0,0,32,0,0,0,64,0,0,0,11,0,0,0,0,0,0,9,136,0,0,0,2,0,0,0,255,255,255,255,4,0,0,0,4,251,255,255,8,0,0,0,20,0,0,0,1,0,0,0,128,255,255,255,255,255,255,255,0,0,0,0,1,0,0,0,112,65,147,59,76,0,0,0,115,101,113,117,101,110,116,105,97,108,47,100,101,110,115,101,95,49,47,77,97,116,77,117,108,59,115,101,113,117,101,110,116,105,97,108,47,100,101,110,115,101,95,49,47,82,101,108,117,59,115,101,113,117,101,110,116,105,97,108,47,100,101,110,115,101,95,49,47,66,105,97,115,65,100,100,0,0,0,0,2,0,0,0,1,0,0,0,4,0,0,0,202,251,255,255,0,0,0,1,24,0,0,0,32,0,0,0,64,0,0,0,10,0,0,0,0,0,0,9,128,0,0,0,2,0,0,0,255,255,255,255,8,0,0,0,180,251,255,255,8,0,0,0,20,0,0,0,1,0,0,0,128,255,255,255,255,255,255,255,0,0,0,0,1,0,0,0,92,35,97,59,70,0,0,0,115,101,113,117,101,110,116,105,97,108,47,100,101,110,115,101,47,77,97,116,77,117,108,59,115,101,113,117,101,110,116,105,97,108,47,100,101,110,115,101,47,82,101,108,117,59,115,101,113,117,101,110,116,105,97,108,47,100,101,110,115,101,47,66,105,97,115,65,100,100,0,0,2,0,0,0,1,0,0,0,8,0,0,0,254,252,255,255,0,0,0,1,20,0,0,0,52,0,0,0,9,0,0,0,0,0,0,9,68,0,0,0,76,252,255,255,8,0,0,0,20,0,0,0,1,0,0,0,0,0,0,0,0,0,0,0,0,0,0,0,1,0,0,0,165,108,229,59,23,0,0,0,115,101,113,117,101,110,116,105,97,108,47,100,101,110,115,101,47,77,97,116,77,117,108,0,2,0,0,0,8,0,0,0,1,0,0,0,102,253,255,255,0,0,0,1,20,0,0,0,48,0,0,0,8,0,0,0,0,0,0,2,80,0,0,0,180,252,255,255,8,0,0,0,16,0,0,0,1,0,0,0,0,0,0,0,0,0,0,0,1,0,0,0,251,82,230,55,39,0,0,0,115,101,113,117,101,110,116,105,97,108,47,100,101,110,115,101,47,66,105,97,115,65,100,100,47,82,101,97,100,86,97,114,105,97,98,108,101,79,112,0,1,0,0,0,8,0,0,0,214,253,255,255,0,0,0,1,20,0,0,0,48,0,0,0,7,0,0,0,0,0,0,9,68,0,0,0,36,253,255,255,8,0,0,0,16,0,0,0,1,0,0,0,0,0,0,0,0,0,0,0,1,0,0,0,172,121,181,59,25,0,0,0,115,101,113,117,101,110,116,105,97,108,47,100,101,110,115,101,95,49,47,77,97,116,77,117,108,0,0,0,2,0,0,0,4,0,0,0,8,0,0,0,62,254,255,255,0,0,0,1,20,0,0,0,52,0,0,0,6,0,0,0,0,0,0,2,88,0,0,0,140,253,255,255,8,0,0,0,20,0,0,0,1,0,0,0,0,0,0,0,0,0,0,0,0,0,0,0,1,0,0,0,1,153,159,55,41,0,0,0,115,101,113,117,101,110,116,105,97,108,47,100,101,110,115,101,95,49,47,66,105,97,115,65,100,100,47,82,101,97,100,86,97,114,105,97,98,108,101,79,112,0,0,0,1,0,0,0,4,0,0,0,182,254,255,255,0,0,0,1,20,0,0,0,48,0,0,0,5,0,0,0,0,0,0,9,68,0,0,0,4,254,255,255,8,0,0,0,16,0,0,0,1,0,0,0,0,0,0,0,0,0,0,0,1,0,0,0,108,233,199,59,25,0,0,0,115,101,113,117,101,110,116,105,97,108,47,100,101,110,115,101,95,50,47,77,97,116,77,117,108,0,0,0,2,0,0,0,8,0,0,0,4,0,0,0,30,255,255,255,0,0,0,1,20,0,0,0,52,0,0,0,4,0,0,0,0,0,0,2,88,0,0,0,108,254,255,255,8,0,0,0,20,0,0,0,1,0,0,0,0,0,0,0,0,0,0,0,0,0,0,0,1,0,0,0,69,252,229,55,41,0,0,0,115,101,113,117,101,110,116,105,97,108,47,100,101,110,115,101,95,50,47,66,105,97,115,65,100,100,47,82,101,97,100,86,97,114,105,97,98,108,101,79,112,0,0,0,1,0,0,0,8,0,0,0,150,255,255,255,0,0,0,1,20,0,0,0,48,0,0,0,3,0,0,0,0,0,0,9,68,0,0,0,228,254,255,255,8,0,0,0,16,0,0,0,1,0,0,0,0,0,0,0,0,0,0,0,1,0,0,0,84,10,146,59,25,0,0,0,115,101,113,117,101,110,116,105,97,108,47,100,101,110,115,101,95,51,47,77,97,116,77,117,108,0,0,0,2,0,0,0,1,0,0,0,8,0,0,0,0,0,22,0,28,0,24,0,23,0,16,0,12,0,8,0,0,0,0,0,0,0,7,0,22,0,0,0,0,0,0,1,20,0,0,0,48,0,0,0,2,0,0,0,0,0,0,2,84,0,0,0,100,255,255,255,8,0,0,0,16,0,0,0,1,0,0,0,0,0,0,0,0,0,0,0,1,0,0,0,202,48,184,55,41,0,0,0,115,101,113,117,101,110,116,105,97,108,47,100,101,110,115,101,95,51,47,66,105,97,115,65,100,100,47,82,101,97,100,86,97,114,105,97,98,108,101,79,112,0,0,0,1,0,0,0,1,0,0,0,0,0,22,0,32,0,28,0,27,0,20,0,16,0,12,0,0,0,0,0,8,0,7,0,22,0,0,0,0,0,0,1,24,0,0,0,44,0,0,0,76,0,0,0,1,0,0,0,0,0,0,9,100,0,0,0,2,0,0,0,255,255,255,255,1,0,0,0,12,0,12,0,0,0,0,0,8,0,4,0,12,0,0,0,8,0,0,0,20,0,0,0,1,0,0,0,128,255,255,255,255,255,255,255,0,0,0,0,1,0,0,0,130,128,128,59,29,0,0,0,115,101,114,118,105,110,103,95,100,101,102,97,117,108,116,95,100,101,110,115,101,95,105,110,112,117,116,58,48,0,0,0,2,0,0,0,1,0,0,0,1,0,0,0,1,0,0,0,16,0,0,0,12,0,16,0,15,0,0,0,8,0,4,0,12,0,0,0,9,0,0,0,4,0,0,0,0,0,0,9};
const unsigned int model_tflite_len = 2928;
