#ifndef MODEL_DATA_H
#define MODEL_DATA_H

// Auto-generated TensorFlow Lite model
// Model size: 6160 bytes

const unsigned char g_model_data[] = {
  0x1c,0x00,0x00,0x00,0x54,0x46,0x4c,0x33,0x14,0x00,0x20,0x00,
  0x1c,0x00,0x18,0x00,0x14,0x00,0x10,0x00,0x0c,0x00,0x00,0x00,
  0x08,0x00,0x04,0x00,0x14,0x00,0x00,0x00,0x1c,0x00,0x00,0x00,
  0x90,0x00,0x00,0x00,0xe8,0x00,0x00,0x00,0xd0,0x11,0x00,0x00,
  0xe0,0x11,0x00,0x00,0xac,0x17,0x00,0x00,0x03,0x00,0x00,0x00,
  0x01,0x00,0x00,0x00,0x10,0x00,0x00,0x00,0x00,0x00,0x0a,0x00,
  0x10,0x00,0x0c,0x00,0x08,0x00,0x04,0x00,0x0a,0x00,0x00,0x00,
  0x0c,0x00,0x00,0x00,0x1c,0x00,0x00,0x00,0x38,0x00,0x00,0x00,
  0x0f,0x00,0x00,0x00,0x73,0x65,0x72,0x76,0x69,0x6e,0x67,0x5f,
  0x64,0x65,0x66,0x61,0x75,0x6c,0x74,0x00,0x01,0x00,0x00,0x00,
  0x04,0x00,0x00,0x00,0x98,0xff,0xff,0xff,0x0a,0x00,0x00,0x00,
  0x04,0x00,0x00,0x00,0x07,0x00,0x00,0x00,0x64,0x65,0x6e,0x73,
  0x65,0x5f,0x32,0x00,0x01,0x00,0x00,0x00,0x04,0x00,0x00,0x00,
  0x12,0xee,0xff,0xff,0x04,0x00,0x00,0x00,0x0b,0x00,0x00,0x00,
  0x64,0x65,0x6e,0x73,0x65,0x5f,0x69,0x6e,0x70,0x75,0x74,0x00,
  0x02,0x00,0x00,0x00,0x34,0x00,0x00,0x00,0x04,0x00,0x00,0x00,
  0xdc,0xff,0xff,0xff,0x0d,0x00,0x00,0x00,0x04,0x00,0x00,0x00,
  0x13,0x00,0x00,0x00,0x43,0x4f,0x4e,0x56,0x45,0x52,0x53,0x49,
  0x4f,0x4e,0x5f,0x4d,0x45,0x54,0x41,0x44,0x41,0x54,0x41,0x00,
  0x08,0x00,0x0c,0x00,0x08,0x00,0x04,0x00,0x08,0x00,0x00,0x00,
  0x0c,0x00,0x00,0x00,0x04,0x00,0x00,0x00,0x13,0x00,0x00,0x00,
  0x6d,0x69,0x6e,0x5f,0x72,0x75,0x6e,0x74,0x69,0x6d,0x65,0x5f,
  0x76,0x65,0x72,0x73,0x69,0x6f,0x6e,0x00,0x0e,0x00,0x00,0x00,
  0xe4,0x10,0x00,0x00,0xdc,0x10,0x00,0x00,0x8c,0x10,0x00,0x00,
  0x6c,0x10,0x00,0x00,0xdc,0x0f,0x00,0x00,0xcc,0x09,0x00,0x00,
  0xbc,0x01,0x00,0x00,0xac,0x00,0x00,0x00,0xa4,0x00,0x00,0x00,
  0x9c,0x00,0x00,0x00,0x94,0x00,0x00,0x00,0x8c,0x00,0x00,0x00,
  0x6c,0x00,0x00,0x00,0x04,0x00,0x00,0x00,0xc2,0xee,0xff,0xff,
  0x04,0x00,0x00,0x00,0x58,0x00,0x00,0x00,0x0c,0x00,0x00,0x00,
  0x08,0x00,0x0e,0x00,0x08,0x00,0x04,0x00,0x08,0x00,0x00,0x00,
  0x10,0x00,0x00,0x00,0x28,0x00,0x00,0x00,0x00,0x00,0x06,0x00,
  0x08,0x00,0x04,0x00,0x06,0x00,0x00,0x00,0x04,0x00,0x00,0x00,
  0x01,0x00,0x00,0x00,0xea,0x03,0x00,0x00,0x00,0x00,0x0a,0x00,
  0x10,0x00,0x0c,0x00,0x08,0x00,0x04,0x00,0x0a,0x00,0x00,0x00,
  0x02,0x00,0x00,0x00,0x02,0x00,0x00,0x00,0x04,0x00,0x00,0x00,
  0x06,0x00,0x00,0x00,0x32,0x2e,0x31,0x33,0x2e,0x31,0x00,0x00,
  0x26,0xef,0xff,0xff,0x04,0x00,0x00,0x00,0x10,0x00,0x00,0x00,
  0x31,0x2e,0x35,0x2e,0x30,0x00,0x00,0x00,0x00,0x00,0x00,0x00,
  0x00,0x00,0x00,0x00,0x24,0xea,0xff,0xff,0x28,0xea,0xff,0xff,
  0x2c,0xea,0xff,0xff,0x30,0xea,0xff,0xff,0x52,0xef,0xff,0xff,
  0x04,0x00,0x00,0x00,0x00,0x01,0x00,0x00,0x6e,0x52,0x8f,0xbf,
  0x30,0xa6,0x16,0x3f,0x34,0xfe,0x2e,0x3c,0x7d,0xa3,0x55,0x3f,
  0x20,0x72,0x3d,0x3f,0x9e,0xdb,0x2c,0xbf,0xed,0x63,0x72,0xbf,
  0x98,0x1e,0x3c,0x3f,0x73,0x38,0x63,0xbf,0xc6,0x40,0xcc,0xbe,
  0x0b,0x85,0xbf,0x3e,0xc9,0xb5,0x24,0x3f,0xd0,0x45,0x38,0x3e,
  0x1c,0x9b,0x8e,0xbe,0xb0,0xcf,0x48,0xbf,0xdf,0xbf,0x7a,0x3f,
  0x50,0x99,0x48,0xbf,0x29,0x6c,0x32,0x3f,0x88,0x25,0x1d,0xbf,
  0xc0,0x4e,0x81,0xbf,0x74,0xa4,0x82,0xbf,0xda,0x76,0x8b,0x3f,
  0x14,0x0d,0x6a,0xbe,0xe5,0x06,0x8a,0xbf,0x72,0x71,0x33,0x3f,
  0x11,0xdd,0x15,0xbf,0x54,0x69,0x47,0x3f,0xb2,0xd1,0x34,0xbf,
  0x04,0x1d,0x9e,0xbf,0xc4,0x03,0x29,0x3f,0x89,0x39,0xff,0x3e,
  0x35,0x17,0x6f,0x3f,0x4c,0xe2,0x10,0x3f,0xf2,0x58,0xc0,0xbf,
  0xd4,0xfe,0x35,0xbf,0x67,0xec,0x30,0xbf,0xa0,0xd9,0x82,0xbe,
  0x69,0x74,0x3a,0xbf,0xb3,0x7f,0x2d,0xbe,0xb0,0x53,0x42,0x3f,
  0x62,0x86,0xe9,0x3e,0xd9,0x95,0x4c,0x3f,0xe4,0x9a,0x68,0xbf,
  0x79,0xc9,0xcf,0xbe,0x9d,0x87,0x15,0x3f,0xb8,0x3d,0x90,0x3f,
  0x7b,0xa2,0xdf,0x3e,0xf3,0x53,0x21,0xbf,0xcc,0xe0,0x50,0x3f,
  0x6e,0x12,0xae,0x3e,0x05,0x8d,0x72,0x3f,0x10,0x00,0x3f,0xbf,
  0x22,0x26,0xf3,0xbe,0x18,0x57,0x0b,0xbf,0x68,0x3a,0x36,0x3f,
  0xe1,0xbf,0x90,0xbb,0x2e,0x72,0x6f,0xbf,0x9a,0xb8,0xa8,0xbf,
  0x01,0x10,0x88,0xbf,0x5b,0x5f,0x85,0x3f,0x09,0x4c,0x81,0x3e,
  0x19,0x63,0x2e,0xbf,0x0a,0x17,0xd0,0x3e,0x70,0x5a,0x7b,0xbf,
  0x5e,0xf0,0xff,0xff,0x04,0x00,0x00,0x00,0x00,0x08,0x00,0x00,
  0x4d,0xa2,0x39,0xbf,0xf9,0x71,0xf3,0x3e,0x9a,0x4f,0x16,0x3f,
  0x8a,0x5b,0x44,0x3e,0x92,0x91,0xe4,0x3e,0xb5,0x9d,0x9a,0x3e,
  0x7d,0x10,0x30,0xbf,0x64,0x63,0x71,0xbc,0xab,0xb0,0x4f,0x3d,
  0x04,0x58,0x30,0xbe,0xa9,0x9d,0xa2,0x3e,0x84,0xd8,0x06,0x3f,
  0xd5,0x8c,0xfe,0x3e,0x39,0xda,0x26,0xbf,0x86,0x70,0xb4,0xbe,
  0x06,0xd5,0x62,0xbe,0x90,0xa0,0xc6,0x3c,0xb3,0xeb,0xb7,0xbe,
  0x7f,0x8b,0x51,0x3e,0x51,0x86,0xae,0xbe,0xce,0x81,0x24,0x3f,
  0x05,0x16,0x52,0xbe,0x44,0xd6,0x8e,0x3d,0xd5,0xeb,0xd1,0x3e,
  0x00,0xe2,0xa2,0xbd,0xe0,0xfc,0x19,0x3c,0x88,0xb4,0x3c,0x3e,
  0x6b,0xb1,0x87,0x3e,0x18,0x06,0x89,0xbe,0x59,0x24,0xad,0x3e,
  0xe0,0x2a,0x19,0xbf,0xe7,0x1b,0xcc,0x3d,0xb0,0x3a,0x4e,0x3f,
  0x74,0x13,0x58,0x3f,0x4d,0xb3,0xa1,0x3d,0xb6,0x4b,0x72,0x3e,
  0x03,0xaf,0xc3,0x3e,0x70,0x4d,0xe2,0xbc,0x2b,0x27,0x6e,0x3f,
  0x8b,0x2c,0x18,0x3d,0xf0,0xf4,0x10,0x3f,0x50,0xf6,0x70,0x3d,
  0xec,0xba,0x84,0xbe,0x1f,0x97,0xcf,0xbe,0x33,0x09,0xcc,0xbc,
  0x7a,0x66,0x1b,0x3f,0x22,0x86,0x1c,0x3e,0x8e,0xb7,0xa5,0xbe,
  0xfc,0x4c,0x9b,0xbd,0xd8,0xf2,0x85,0xbe,0xb6,0x1a,0xc2,0xbe,
  0x4d,0xef,0xb6,0xbd,0xea,0x83,0x13,0x3e,0xf4,0x4b,0xff,0xbc,
  0x5a,0x8c,0x3c,0x3e,0xc0,0xea,0x8f,0xbe,0x00,0xb3,0xf5,0xbd,
  0xa2,0xba,0x5e,0x3e,0x42,0x0a,0x18,0xbe,0xed,0x07,0xb0,0xbe,
  0x33,0x67,0x84,0x3d,0x6f,0x8f,0x7c,0xbe,0x03,0xcb,0x7e,0x3f,
  0x7a,0xbb,0x22,0x3e,0x3e,0xe0,0x2c,0xbf,0x55,0x50,0x39,0x3f,
  0xd4,0x87,0x16,0x3e,0x7e,0x69,0x1d,0x3e,0x61,0xbe,0x57,0x3f,
  0xca,0x58,0x5a,0x3e,0x50,0xd7,0x91,0x3e,0x78,0x55,0x20,0xbf,
  0x5e,0xc0,0x67,0x3f,0xe4,0xed,0x97,0xbe,0xd3,0x18,0x16,0xbe,
  0x96,0x3b,0x48,0xbe,0x77,0x3b,0x22,0x3e,0xe0,0x17,0x1b,0xbf,
  0x0e,0xfe,0x97,0xbe,0x06,0x2e,0x33,0x3e,0x43,0xeb,0x8c,0x3e,
  0x96,0xed,0x54,0x3e,0x27,0x23,0x49,0xbe,0x39,0x5d,0x93,0xbf,
  0x21,0x5d,0x02,0x3f,0xa4,0x16,0x02,0xbf,0xcb,0xdb,0x47,0xbe,
  0xe9,0xbb,0x56,0x3e,0x58,0xdc,0x3c,0xbd,0x80,0xc1,0x7e,0x3c,
  0x88,0x03,0x66,0xbf,0x00,0x9f,0x46,0x3c,0x43,0x89,0x66,0xbf,
  0xac,0x44,0xa1,0xbe,0xbd,0x3e,0xf9,0xbc,0x00,0xe0,0x8b,0x3e,
  0x8a,0x34,0xc1,0x3e,0xf6,0x5a,0x63,0xbf,0x77,0x67,0x0c,0xbf,
  0x38,0x99,0xd2,0x3d,0xd3,0x2b,0x40,0xbf,0x58,0x8f,0x20,0xbe,
  0x91,0xd4,0x10,0x3f,0x9b,0x6b,0x8f,0xbe,0x53,0xa4,0xe3,0x3e,
  0xe0,0x7f,0x0b,0xbe,0xfc,0x67,0x90,0xbd,0x66,0xdd,0x3f,0xbf,
  0x9b,0xeb,0x97,0x3e,0x25,0x14,0x43,0x3f,0x80,0x9e,0x34,0xbd,
  0x00,0x3a,0xcf,0xbc,0x32,0x95,0x64,0x3e,0x28,0x2b,0xf0,0xbd,
  0xec,0x51,0x0b,0xbf,0xf9,0x07,0x20,0x3e,0xee,0x65,0x79,0x3e,
  0x29,0xb5,0x13,0x3f,0x78,0xdc,0xa3,0xbe,0x7f,0x76,0x01,0x3e,
  0xcb,0x24,0xb1,0x3e,0x80,0x02,0x71,0xbd,0x8b,0x34,0x0e,0xbf,
  0x28,0x75,0x98,0xbd,0x37,0xd7,0xe6,0xbc,0x37,0xb6,0x9f,0x3e,
  0x64,0xa4,0xbd,0x3e,0x16,0x74,0x00,0x3d,0xcd,0x36,0x7f,0x3e,
  0x2e,0xef,0x09,0xbf,0xe2,0x54,0x03,0xbe,0xae,0x6b,0x17,0x3e,
  0x49,0xea,0x5b,0xbf,0xe0,0x94,0x01,0x3e,0x0f,0xf7,0x0e,0x3f,
  0x94,0xcd,0xfd,0xbd,0xa7,0x45,0x35,0x3f,0x30,0xa0,0xf4,0x3c,
  0x50,0xc4,0x97,0x3c,0x1a,0x3c,0x8e,0xbe,0x5c,0x7b,0xc0,0x3e,
  0xee,0x7c,0x37,0x3f,0x00,0xf8,0x96,0x39,0x28,0xd9,0x4f,0xbd,
  0xc0,0x8f,0xe2,0x3c,0xc0,0xfe,0x78,0xbe,0x13,0x43,0xd4,0xbe,
  0x4a,0x32,0x19,0x3e,0x5d,0x6c,0x99,0x3e,0x27,0x4c,0x62,0x3f,
  0x7d,0xb7,0xa7,0x3e,0xdc,0xcf,0x3f,0x3e,0x4b,0x68,0x5c,0xbe,
  0xec,0xff,0x8f,0x3e,0x2b,0xaf,0xa5,0xbd,0xca,0x94,0x30,0x3e,
  0x5e,0xbe,0x76,0xbd,0x7f,0x10,0xa6,0xbe,0x1c,0xa8,0x7a,0x3e,
  0xd0,0x88,0x82,0x3e,0x73,0x80,0x60,0x3f,0xe1,0x79,0x2a,0x3f,
  0xb5,0xd3,0x36,0x3c,0x65,0x9a,0x88,0x3e,0x4b,0x20,0x78,0x3e,
  0xbf,0xaf,0xaf,0x3e,0x28,0xd1,0x65,0x3e,0x63,0x99,0x6e,0x3e,
  0x52,0xb0,0x3c,0xbf,0xf6,0x92,0x43,0xbe,0x20,0xd9,0x0e,0xbc,
  0x45,0x88,0x0b,0xbf,0x48,0xa6,0x48,0xbf,0x7c,0x82,0xc9,0xbe,
  0xc8,0xf5,0x53,0x3d,0xd0,0x68,0x85,0xbd,0xb8,0xf5,0x2b,0x3d,
  0x7c,0x2c,0x5e,0xbe,0x22,0xc6,0x1a,0x3e,0x62,0xa2,0x1e,0x3d,
  0x09,0x4f,0x62,0xbf,0xc4,0xc6,0xe8,0xbe,0x80,0xc5,0x0d,0x3d,
  0x19,0xb0,0x40,0xbf,0x40,0xb2,0x1a,0x3c,0x40,0x58,0xdb,0x3c,
  0xf3,0xd6,0x56,0x3e,0xb1,0x86,0x87,0x3e,0x6a,0x87,0xfd,0x3e,
  0x29,0xc7,0x95,0x3e,0x3a,0x56,0x26,0x3f,0xfc,0x12,0x70,0xbe,
  0x1e,0x39,0xbb,0xbe,0xa5,0x53,0x90,0x3f,0xa7,0x65,0x07,0x3f,
  0xd7,0xdd,0x90,0x3e,0xbb,0x34,0x5d,0x3f,0x20,0x89,0x12,0x3c,
  0x8a,0x2d,0x0b,0xbf,0x9e,0xd2,0x37,0xbd,0x03,0x02,0x04,0x3e,
  0x80,0xe1,0x93,0xbe,0x59,0xfd,0x9d,0xbe,0x5b,0x8d,0x58,0x3e,
  0xe2,0xab,0xcd,0x3e,0x2f,0xc9,0x05,0xbf,0x78,0xe2,0x44,0xbd,
  0x74,0xfa,0x93,0x3d,0x3b,0x6a,0xa4,0xbe,0x41,0x7c,0xcd,0xbd,
  0xec,0x8f,0x9d,0x3e,0x91,0x49,0x8c,0xbf,0xdd,0x99,0x1f,0x3f,
  0xe1,0x6d,0x62,0xbf,0x22,0x9f,0x2d,0x3e,0x82,0x1b,0xab,0xbd,
  0x42,0x45,0x3c,0x3e,0xba,0x72,0x00,0x3e,0x95,0xf6,0x24,0xbf,
  0xf2,0x27,0x2d,0x3e,0x5a,0x52,0xa3,0xbf,0x20,0x9a,0x73,0xbd,
  0x5e,0x9c,0xa1,0xbe,0x54,0xd2,0x1a,0xbe,0x0b,0x05,0x52,0xbe,
  0x86,0x9b,0x9a,0xbf,0x70,0x56,0x63,0xbe,0x76,0x78,0x1b,0x3e,
  0xc3,0x7d,0x48,0xbf,0x21,0x5c,0x85,0x3e,0x5a,0xe2,0x01,0x3f,
  0xcf,0x3f,0xb5,0x3e,0x37,0x0f,0xa7,0x3e,0xb0,0xd0,0x88,0xbe,
  0x6e,0xd2,0xa4,0xbe,0x9a,0xdf,0x0f,0x3f,0x0c,0x8e,0x44,0x3f,
  0x42,0x28,0x07,0x3f,0x7c,0x72,0x80,0xbe,0x88,0xc7,0x9f,0xbe,
  0xaa,0xd9,0x47,0x3e,0x8e,0xcd,0x08,0xbe,0x2e,0x99,0x88,0x3e,
  0xcc,0xe6,0x0e,0x3c,0xf6,0x2f,0x10,0x3f,0x43,0x7a,0x99,0x3f,
  0xa0,0x63,0xb3,0xbd,0x66,0x31,0x23,0x3f,0xe8,0x5c,0x04,0xbd,
  0xbf,0x5b,0x80,0xbe,0x6a,0x4c,0xfa,0xbd,0xd3,0xe8,0x4c,0xbe,
  0xae,0x70,0x7a,0x3d,0xd6,0x44,0x66,0x3e,0x67,0x66,0x39,0xbe,
  0x5d,0xee,0x7b,0x3d,0xd0,0xc2,0xce,0x3e,0x2d,0x17,0xd0,0xbd,
  0x6b,0xcd,0x5e,0x3e,0xae,0xbd,0x0f,0x3e,0x60,0xb6,0x9c,0x3d,
  0x0e,0xb1,0x72,0x3e,0xeb,0x39,0xca,0xbe,0x29,0xb2,0x75,0x3f,
  0x5c,0x69,0x3d,0xbf,0x8a,0x45,0x2e,0x3e,0x5d,0x30,0x32,0xbe,
  0xe1,0x10,0xa0,0x3e,0x0c,0xd6,0x76,0xbe,0xf3,0xad,0xd3,0xbe,
  0x3f,0x67,0x87,0x3e,0xe4,0x52,0x8f,0xbd,0x4c,0x6d,0xa0,0x3d,
  0x4c,0x45,0x74,0xbe,0x02,0x24,0xfe,0x3e,0xc5,0xb1,0xe6,0x3e,
  0x51,0xa7,0x4f,0xbe,0x5f,0xb2,0xe1,0x3b,0x7e,0x26,0x57,0xbe,
  0x44,0x4a,0xa2,0xbe,0x9e,0xcc,0x0b,0xbe,0x89,0xf9,0x75,0x3e,
  0x75,0xc6,0x3d,0x3f,0x48,0x43,0xb4,0xbe,0x88,0x98,0x32,0x3f,
  0x62,0x40,0xa8,0xbe,0x4c,0xd2,0xfb,0x3e,0x72,0x74,0x04,0x3d,
  0x17,0x37,0x4a,0xbf,0x88,0xb4,0x45,0xbf,0x92,0x4d,0x7d,0xbd,
  0x08,0xc3,0x7a,0x3d,0x2a,0x1e,0x46,0xbe,0x92,0x26,0x05,0x3e,
  0x3e,0xac,0x78,0xbf,0xc9,0xab,0xbd,0x3d,0x89,0x4b,0xf5,0xbe,
  0x60,0x33,0x72,0xbd,0x38,0xc5,0x51,0xbd,0x0b,0xfe,0x11,0x3f,
  0x6c,0x48,0x39,0x3e,0x52,0xca,0x92,0xbe,0x1f,0xb9,0x65,0xbe,
  0xbe,0x45,0x7d,0x3e,0x70,0x7e,0x83,0x3d,0xde,0x4a,0x9c,0xbe,
  0x15,0xb5,0x91,0x3e,0x9b,0xb7,0xe0,0x3e,0xca,0x1a,0x0f,0xbd,
  0x87,0x48,0x54,0x3f,0x84,0x8b,0xa9,0xbe,0x76,0xe3,0x3b,0x3f,
  0x10,0x77,0x62,0xbd,0x22,0x37,0x89,0x3e,0x6d,0x43,0x12,0x3f,
  0x30,0xba,0x98,0x3d,0x67,0x06,0xa3,0x3e,0xe0,0x1e,0x27,0x3d,
  0x10,0x4d,0x69,0xbf,0x15,0x39,0x8e,0xbe,0xeb,0x69,0x4b,0x3f,
  0x4f,0xe3,0xab,0x3e,0x0d,0x74,0xa1,0xbd,0xb2,0xb4,0x6f,0x3e,
  0x02,0xad,0x0e,0xbe,0x16,0xbf,0x93,0xbe,0x30,0x4c,0x80,0x3f,
  0x69,0x87,0x1c,0xbc,0x10,0x1b,0x07,0x3f,0xa0,0xcb,0x07,0x3e,
  0x94,0xd7,0xba,0xbd,0xfc,0x2a,0x4e,0xbf,0x90,0x58,0xd3,0xbe,
  0xb3,0xf0,0x2e,0x3f,0xe4,0x14,0x0e,0x3e,0xc8,0xe9,0xf4,0x3d,
  0xb6,0x75,0x85,0xbe,0xe6,0xe4,0x11,0xbe,0x27,0xd1,0xb4,0xbe,
  0x01,0x4e,0x08,0x3f,0xc2,0xac,0x97,0xbe,0x61,0x8c,0xca,0xbd,
  0x33,0xbf,0x32,0xbe,0x8c,0x28,0xb5,0xbe,0x22,0x93,0x72,0x3e,
  0xc6,0xb9,0x4d,0xbe,0xf6,0x1a,0xa6,0x3e,0x05,0x97,0x9e,0x3e,
  0x31,0xbe,0x08,0x3f,0xd4,0x67,0xfd,0xbd,0xc9,0xda,0x50,0x3f,
  0x9d,0xa1,0x55,0x3e,0xaf,0x28,0xa1,0xbe,0x2b,0xa1,0x2c,0x3f,
  0x4d,0x39,0xc5,0x3d,0x7c,0xd6,0xa1,0x3d,0xa3,0xd3,0x18,0x3f,
  0x9a,0xb4,0xa8,0xbe,0x58,0x79,0x49,0x3f,0xa2,0x62,0x0e,0xbf,
  0x91,0x2a,0x89,0x3f,0x72,0x5c,0x2e,0x3e,0x65,0xc8,0x94,0xbe,
  0x83,0x9d,0x50,0xbe,0xbf,0x2c,0x31,0x3f,0x24,0xea,0xf5,0x3e,
  0xd8,0x2a,0xd6,0x3d,0x28,0x4f,0x5a,0xbe,0xcb,0x62,0x94,0xbe,
  0x01,0xb2,0x8c,0x3e,0x7a,0x99,0x13,0xbf,0x0d,0xde,0x1a,0xbf,
  0xff,0x3d,0x14,0x3f,0xe5,0x50,0x06,0x3e,0xc6,0x71,0x2e,0x3e,
  0x1d,0xf0,0x0f,0x3d,0x8e,0x66,0x3c,0x3e,0x8a,0xfb,0x01,0x3e,
  0x15,0xee,0x36,0xbf,0x0c,0xa3,0xc0,0x3d,0x83,0x66,0x6a,0xbf,
  0x55,0x44,0x8c,0x3e,0x26,0xf6,0x65,0xbe,0x9f,0xda,0x2a,0x3e,
  0xeb,0xf6,0x81,0xbe,0x84,0x1c,0xb4,0xbe,0xcc,0xbf,0x04,0x3e,
  0x15,0x78,0x34,0xbe,0xef,0xb6,0x16,0xbe,0xae,0xb3,0xaf,0xbe,
  0x5b,0xdb,0xcd,0xbe,0xcf,0x9e,0x8f,0x3d,0xef,0x75,0xf5,0x3c,
  0xc2,0x1f,0x34,0xbe,0xd8,0xe7,0xd7,0xbd,0xc3,0x66,0x64,0x3f,
  0x54,0x9b,0x7e,0x3f,0xf9,0x03,0xa1,0x3e,0xf5,0xe2,0xad,0xbe,
  0x60,0x41,0x9e,0xbe,0x6c,0x44,0x96,0x3d,0xd6,0x11,0x65,0x3e,
  0x68,0x80,0xad,0x3e,0xfc,0x5d,0x7c,0x3d,0x67,0x56,0x48,0x3f,
  0x2f,0xab,0x0f,0x3f,0x37,0xa2,0x8f,0xbe,0x18,0x24,0x88,0x3f,
  0x11,0xe5,0xa3,0x3e,0x83,0xdd,0xaf,0x3e,0xbb,0x4c,0x45,0xbe,
  0x6c,0x4d,0xcf,0x3d,0x50,0x46,0xf6,0xbd,0x3a,0xdd,0xee,0xbd,
  0x3c,0x54,0xa7,0xbe,0x24,0x71,0x5e,0xbe,0xe7,0x64,0x23,0x3e,
  0x7a,0xe0,0xb0,0xbe,0x84,0xe1,0x76,0x3d,0xf0,0xc0,0x25,0xbd,
  0x67,0xd9,0x44,0xbe,0x12,0x89,0x8d,0xbe,0xb6,0xe8,0x33,0xbf,
  0xc6,0x6c,0x41,0x3f,0x7d,0x24,0x2f,0xbf,0x58,0xdb,0xdd,0xbd,
  0x26,0xde,0x94,0xbe,0xc5,0x47,0x39,0x3f,0x61,0xa5,0xe6,0x3d,
  0x4f,0x18,0xac,0xbe,0x70,0x03,0x76,0xbd,0x84,0x18,0xac,0x3d,
  0x4e,0xc5,0x5a,0x3e,0x0b,0x48,0xc7,0x3d,0xf1,0x40,0x15,0x3f,
  0x97,0xbf,0x53,0x3f,0x92,0xe5,0x13,0xbe,0x33,0xa7,0x88,0x3e,
  0x18,0xc7,0xc7,0xbd,0xa9,0x38,0xba,0x3e,0xe3,0x78,0x3a,0xbe,
  0x55,0xc6,0xa1,0xbe,0x4a,0xa8,0x10,0x3f,0x08,0x1f,0x9e,0xbd,
  0xdf,0xca,0x2b,0x3f,0xb7,0x8c,0xae,0x3e,0x22,0xbb,0xee,0xbe,
  0x04,0xa3,0x64,0x3e,0x30,0xf2,0x6c,0x3d,0x60,0x4f,0x6c,0x3f,
  0x57,0x62,0x60,0x3f,0xc0,0x35,0x6b,0xbd,0x6e,0x09,0x42,0x3f,
  0x10,0x4a,0xe2,0x3c,0xc1,0x5e,0x49,0xbe,0xdb,0x45,0x64,0x3f,
  0x1a,0x80,0x1f,0xbe,0xb1,0x8f,0x71,0xbe,0xfe,0x3d,0x05,0x3e,
  0xef,0xfb,0x22,0x3f,0xa0,0xda,0x62,0xbe,0xb3,0x13,0xa9,0xbe,
  0xcc,0x56,0x13,0xbe,0xc0,0x7d,0xf4,0x3c,0xda,0x94,0x1f,0x3e,
  0x64,0x44,0x83,0xbe,0xc7,0x0c,0x7a,0x3f,0xde,0xd7,0x71,0x3e,
  0x73,0x24,0x52,0x3e,0x0f,0xd3,0x30,0xbe,0x66,0x0d,0x59,0xbe,
  0x21,0x5b,0xe7,0xbe,0x50,0x5a,0xf1,0x3c,0x42,0xb9,0x81,0x3e,
  0xfc,0xae,0x41,0x3f,0x10,0x45,0xbf,0x3d,0xa1,0x24,0x28,0x3e,
  0x68,0xbe,0x90,0xbe,0xbf,0xd1,0xdc,0x3b,0x38,0x3e,0x12,0xbe,
  0x6c,0xe2,0x37,0x3f,0x3f,0xc5,0x31,0x3d,0x85,0xc8,0x3e,0xbe,
  0x75,0xbd,0x57,0xbe,0x27,0x22,0x5d,0xbe,0x8a,0x85,0x4d,0xbe,
  0xab,0x66,0x85,0x3f,0x84,0xbf,0xc9,0x3d,0xa5,0x1a,0xd1,0x3e,
  0x80,0xa0,0x82,0x3c,0xca,0x83,0x62,0x3e,0x78,0x21,0x54,0xbf,
  0xe9,0x98,0x6e,0xbe,0x6d,0x20,0x08,0x3f,0x16,0x64,0x0a,0x3e,
  0x76,0x5f,0x56,0xbe,0xee,0xa2,0x5c,0x3e,0x5b,0x30,0x3c,0xbd,
  0x45,0xc8,0xf2,0xbe,0x03,0x5a,0xaa,0x3e,0x87,0x3b,0x39,0xbe,
  0x7a,0xc0,0x8d,0x3e,0x19,0x55,0x9c,0x3e,0xf3,0xa6,0x1b,0xbc,
  0x9b,0xc5,0xa2,0x3e,0xd8,0x39,0xaf,0xbd,0x16,0xef,0xbd,0x3a,
  0x00,0x7c,0x98,0x3d,0xef,0x39,0xe1,0x3e,0x08,0xac,0xaf,0x3d,
  0x2e,0xa6,0x86,0x3f,0x72,0x34,0x82,0x3d,0x6a,0xf8,0xff,0xff,
  0x04,0x00,0x00,0x00,0x00,0x06,0x00,0x00,0xe3,0x53,0xfa,0x3e,
  0xe7,0x1d,0x86,0xbc,0x6b,0x66,0x6e,0xbf,0x15,0xff,0x88,0x3e,
  0xf0,0x0e,0x52,0xbe,0x34,0xff,0xba,0xbe,0xf4,0xc3,0xc7,0xbc,
  0x2d,0xd3,0x3a,0x3f,0x6f,0xe1,0xb2,0x3e,0x70,0x45,0x2c,0xbf,
  0xef,0x6b,0xbf,0xbd,0x1c,0xf1,0xfa,0x3e,0x4d,0x1d,0x12,0x3e,
  0xd6,0x8d,0x94,0x3e,0xdb,0x3b,0x7b,0xbf,0xa1,0x48,0x1c,0x3e,
  0x95,0x1c,0x03,0x3e,0x37,0xe9,0x9f,0x3e,0x1c,0x9d,0x49,0x3f,
  0xc9,0xd8,0x1a,0xbf,0x03,0x95,0x00,0xbe,0x50,0xe0,0x07,0xbf,
  0xcd,0xb3,0xf8,0x3e,0x96,0xad,0xd2,0x3e,0x2c,0x8f,0xde,0x3e,
  0x84,0xfa,0x85,0x3e,0x80,0xc4,0x5e,0x3f,0x55,0x0d,0x80,0x3e,
  0x95,0xd4,0x0e,0x3f,0xe5,0x4b,0x05,0x3f,0x48,0x7e,0x2b,0x3f,
  0x44,0x2e,0x31,0xbf,0xe4,0xb8,0x13,0xbe,0xcd,0x16,0x7a,0x3d,
  0x7b,0x9e,0x22,0x3f,0x14,0x79,0x9b,0xbe,0x3c,0x4c,0x8e,0x3d,
  0xb0,0xda,0x7a,0xbd,0x93,0x3b,0xa6,0x3e,0xe8,0x9f,0x90,0xbe,
  0x80,0x5f,0x67,0xbb,0xf6,0x43,0x26,0x3e,0x7d,0x87,0x93,0x3e,
  0x20,0x12,0x7b,0xbc,0x7c,0x84,0xb1,0xbd,0xaf,0xbd,0x57,0xbe,
  0xe4,0x97,0xb8,0xbe,0x48,0x54,0x9b,0xbe,0xa4,0x19,0x8f,0x3e,
  0x36,0x89,0xa7,0xbd,0xbf,0xee,0x88,0xbe,0x64,0xd4,0x2b,0xbe,
  0x02,0x98,0xc4,0x3d,0xa9,0x0a,0x34,0x3f,0xa6,0xb3,0x29,0x3f,
  0x59,0xcc,0x1a,0xbf,0xa6,0x52,0xc9,0xbe,0x66,0xb6,0xcd,0xbe,
  0x8c,0x91,0x2a,0x3f,0x48,0xef,0x02,0x3c,0xb0,0x7c,0x7b,0x3d,
  0xd6,0x13,0x28,0x3e,0x8e,0x33,0x55,0x3e,0xea,0xbd,0x79,0x3e,
  0x9c,0x0d,0xdf,0xbd,0x38,0x18,0xb4,0xbe,0x6a,0x88,0xbc,0xbe,
  0x80,0x08,0x19,0xbd,0x66,0x47,0x8e,0xbe,0xe0,0x81,0x6d,0x3d,
  0x8f,0xf3,0xae,0x3e,0x3c,0x3f,0x1c,0xbe,0xf0,0x70,0xee,0xbd,
  0xaf,0x91,0xfe,0xbe,0xe0,0xb0,0x45,0xbf,0x0f,0x63,0x74,0xbe,
  0x14,0xf7,0xa8,0xbe,0xa8,0x36,0x11,0xbe,0x26,0x4f,0xdb,0x3c,
  0x57,0x46,0x30,0x3f,0xdb,0x27,0x0e,0x3e,0xea,0xcb,0xa0,0xbe,
  0xf9,0x7b,0x39,0x3d,0x73,0xd5,0xda,0x3e,0xbb,0x0f,0x00,0x3f,
  0xfa,0x6b,0x0b,0x3f,0x6e,0x7f,0x41,0x3f,0x67,0x0c,0x34,0x3f,
  0x9e,0x4a,0x57,0x3f,0xfe,0x6f,0x57,0xbe,0xb8,0x7e,0x44,0xbe,
  0x3a,0x45,0xb0,0x3e,0x1c,0x72,0x73,0x3e,0x11,0x54,0x61,0xbd,
  0xda,0xa6,0xaf,0xbe,0x4c,0x99,0x11,0xbf,0xa7,0xa5,0x38,0xbf,
  0x6c,0xc7,0x65,0xbe,0x01,0x4e,0x62,0xbf,0x61,0xad,0x51,0xbf,
  0x13,0x28,0x4b,0xbf,0x02,0x30,0x06,0x3d,0x1c,0xfd,0x9e,0x3d,
  0x97,0x65,0x8a,0xbd,0x00,0x96,0x1d,0x3f,0x6f,0x91,0x76,0x3e,
  0xb6,0x20,0xe2,0x3e,0x06,0xbb,0xff,0x3e,0x6d,0xe0,0xad,0xbe,
  0x78,0xd7,0x42,0xbd,0xfe,0xe2,0x16,0x3e,0x3e,0x79,0x32,0x3e,
  0x7e,0x57,0x12,0x3e,0x60,0xed,0x30,0xbd,0x58,0x8e,0x3a,0x3d,
  0x70,0x77,0x6b,0xbd,0xd2,0x91,0xb8,0xbe,0xde,0xab,0x14,0x3e,
  0xec,0x6b,0xb9,0xbd,0x52,0xd5,0x10,0x3e,0x48,0x65,0x1e,0x3d,
  0x92,0xfb,0x1d,0x3e,0x83,0x3c,0x15,0xbe,0x46,0xc4,0x10,0x3e,
  0xd0,0x5b,0xab,0xbe,0x25,0x88,0xb2,0xbe,0xf0,0xc7,0xaf,0xbe,
  0x60,0x05,0xe8,0x3d,0x9c,0xb7,0xd3,0x3d,0xe8,0x92,0x80,0xbd,
  0x5c,0x71,0x50,0xbe,0x26,0x05,0x0f,0x3e,0xa3,0xba,0x4f,0x3e,
  0xf0,0x41,0x84,0x3e,0xd2,0x8d,0x88,0x3f,0xd8,0x8e,0x2d,0x3e,
  0x89,0xf8,0x05,0x3f,0xa5,0xd2,0x66,0xbe,0xc2,0x8a,0x03,0xbe,
  0x7e,0xb5,0x8d,0xbe,0x14,0xe3,0x99,0xbe,0xb9,0xd9,0x48,0x3f,
  0xa5,0x05,0x80,0x3e,0x60,0x26,0x86,0xbe,0x15,0x47,0x0b,0xbe,
  0x60,0xd1,0x06,0xbf,0x4a,0xef,0x2c,0x3f,0x0a,0x3a,0xcd,0x3d,
  0x03,0x2b,0x66,0xbe,0x39,0x9c,0xd8,0x3d,0x27,0x08,0x80,0x3e,
  0x71,0x41,0x59,0xbe,0xaa,0x24,0x83,0x3e,0x90,0x33,0x04,0x3f,
  0x57,0xc4,0x59,0x3d,0xc1,0x01,0x0b,0xbe,0x96,0x2d,0x2c,0xbf,
  0x67,0x52,0x77,0xbf,0xbc,0x02,0xa2,0xbe,0x9f,0x45,0x5e,0xbf,
  0xb4,0x27,0x80,0xbf,0x91,0x54,0xc9,0xbd,0x9e,0xc7,0x07,0xbe,
  0x5c,0x36,0x4d,0x3f,0x3a,0xbd,0x59,0x3e,0x48,0x16,0x67,0x3e,
  0x19,0x05,0xd7,0x3d,0x87,0x87,0xe6,0x3e,0x62,0x76,0x30,0xbe,
  0x72,0x9d,0x98,0xbe,0x15,0x38,0x95,0xbe,0xa8,0x4a,0x70,0xbd,
  0x3a,0x0e,0x2e,0x3e,0x58,0x30,0x9c,0x3d,0x9e,0x43,0x86,0xbe,
  0x88,0x94,0xe4,0xbd,0xd8,0xd2,0xdc,0xbd,0x19,0x9c,0xaf,0xbe,
  0x08,0x14,0x43,0xbe,0x38,0x15,0x5e,0xbe,0x30,0xc9,0x15,0xbd,
  0x40,0x28,0xc3,0xbd,0xd8,0x0f,0xad,0xbe,0xc6,0xcd,0x9f,0xbe,
  0x50,0x97,0x2b,0x3d,0x98,0xc8,0x2e,0xbe,0x40,0x9e,0x87,0xbe,
  0x80,0x3d,0x33,0x3d,0xe0,0x26,0xb2,0xbe,0xf4,0x92,0x96,0x3d,
  0x51,0x88,0x99,0xbe,0xd0,0x9d,0xd9,0xbd,0xc0,0xb9,0x89,0x3c,
  0xc0,0xdf,0xf8,0x3b,0xa0,0x34,0x33,0x3d,0x50,0xc8,0xc7,0xbc,
  0x3f,0x03,0xa4,0x3e,0x5a,0x43,0xba,0xbe,0x2e,0x21,0x4f,0x3e,
  0x06,0x3a,0x12,0xbe,0x8a,0xba,0x04,0x3e,0xa0,0x61,0x35,0xbc,
  0xe0,0xbd,0xd0,0xbc,0x4a,0x56,0xb4,0xbe,0x53,0x8e,0x5a,0xbd,
  0x18,0x19,0x7a,0xbd,0x4c,0x88,0xa0,0xbe,0x06,0x73,0x70,0x3e,
  0x65,0x25,0x49,0x3e,0x61,0xd7,0x0a,0x3e,0x28,0x86,0x80,0xbe,
  0x8f,0x92,0x02,0xbd,0xcb,0x64,0x8c,0xbe,0x35,0xc3,0x0b,0xbe,
  0xfa,0xac,0x9a,0x3e,0x67,0x4d,0x78,0x3e,0x37,0xdb,0x49,0x3c,
  0xfb,0xb8,0x99,0x3e,0x77,0xeb,0x8f,0x3f,0x3f,0x37,0x24,0x3f,
  0xf3,0x88,0x1f,0x3f,0xea,0x86,0x4d,0xbd,0xcc,0xaa,0xcd,0x3d,
  0x49,0xfa,0x85,0xbe,0xbd,0x5c,0x35,0x3e,0xd3,0xe2,0xf7,0x3e,
  0x88,0xf2,0xd9,0xbe,0x57,0xc0,0x97,0xbc,0xd6,0xc9,0xc9,0x3e,
  0x7c,0x39,0xce,0x3e,0xc3,0x5d,0x8a,0x3e,0xf8,0x68,0xe0,0x3e,
  0x7f,0x52,0x11,0x3f,0x3b,0x61,0x15,0xbf,0xb5,0x59,0xc9,0xbe,
  0xa9,0xfd,0x2c,0x3f,0x36,0x26,0x94,0x3e,0x64,0xc8,0x99,0xbd,
  0x6e,0x9f,0x89,0xbd,0xda,0xb5,0xad,0x3d,0x7a,0xb5,0x11,0xbf,
  0xd6,0xa8,0x37,0xbb,0xfd,0x80,0x31,0xbe,0xbf,0x08,0x97,0xbd,
  0xf2,0x4b,0xcc,0xbd,0xb3,0xd4,0xbe,0x3c,0x86,0x49,0xbc,0x3e,
  0xd2,0xfc,0xa5,0xbe,0x1e,0x4c,0xc2,0xbe,0x33,0x46,0x18,0x3f,
  0xc1,0x86,0x41,0x3f,0xd5,0xd1,0xc8,0x3e,0x86,0x09,0x00,0xbf,
  0x30,0x51,0xfd,0xbe,0x8e,0xd3,0x7e,0x3e,0x45,0x72,0xc4,0xbe,
  0x64,0x77,0x5c,0xbe,0xd8,0x6d,0xab,0xbe,0xe3,0x76,0xbc,0xbe,
  0x0e,0x89,0x40,0x3f,0x77,0xda,0x00,0x3f,0x31,0x8d,0x46,0x3f,
  0x44,0xc9,0xf2,0xbe,0x0f,0x91,0x87,0xbe,0x9a,0xe4,0x0f,0x3e,
  0xe2,0xdf,0x2e,0x3e,0x48,0xf4,0x03,0xbe,0x70,0x0f,0xd8,0x3c,
  0xd8,0xd1,0x43,0xbd,0xb2,0x00,0x6a,0xbe,0x36,0x77,0x83,0xbe,
  0x86,0x0b,0x65,0xbe,0x7a,0xcd,0xa9,0xbe,0xd0,0xc4,0x72,0xbd,
  0x00,0x2c,0xaa,0x3b,0x15,0xd9,0xb3,0xbe,0x46,0xfd,0xb4,0xbe,
  0xad,0x01,0x1a,0xbe,0x19,0x08,0x1f,0x3f,0x39,0x63,0xce,0x3e,
  0x1f,0x6f,0xa7,0x3d,0x54,0x0e,0xe2,0xbe,0xcc,0xd8,0xba,0x3d,
  0x8e,0x0c,0x24,0x3e,0xf0,0xb6,0xc1,0xbd,0xe8,0xd1,0x42,0x3f,
  0x6f,0x53,0x0c,0x3e,0x68,0x99,0x39,0xbe,0x2e,0x82,0x2f,0xbe,
  0xbd,0x47,0x31,0xbe,0x96,0x92,0x66,0xbe,0xc5,0x0a,0x9e,0x3e,
  0x70,0x34,0xca,0xbd,0x20,0xe6,0xec,0x3d,0x10,0xc5,0xb0,0xbd,
  0xbe,0x7e,0x2a,0xbe,0xb0,0xa2,0x03,0x3d,0x0e,0x5a,0x13,0xbe,
  0xa2,0xc3,0x3e,0x3e,0xc8,0x95,0xb9,0xbe,0x6a,0x37,0xaf,0x3e,
  0x9e,0xff,0x50,0x3d,0x55,0x25,0xa1,0x3a,0x23,0x1e,0x84,0x3e,
  0xec,0x8a,0xac,0xbe,0x8b,0x75,0x3b,0xbe,0x72,0xa3,0x7b,0x3e,
  0x94,0x22,0xad,0xbe,0x65,0x7d,0xb9,0x3e,0x8b,0xeb,0xbb,0xbe,
  0xf5,0x5b,0x88,0xbd,0x1e,0xcb,0xa2,0x3d,0x69,0xfc,0xae,0x3e,
  0x6f,0x27,0x1c,0x3f,0xb7,0xdb,0x72,0x3f,0xd5,0x58,0x38,0x3f,
  0xad,0xd1,0x3a,0x3f,0x64,0x0b,0xca,0xbe,0xde,0x49,0x5d,0xbe,
  0x5b,0x7f,0xc1,0x3e,0x78,0x35,0x98,0x3e,0x6f,0x1d,0x5e,0xbe,
  0xed,0x66,0x6c,0xbe,0x5b,0x79,0xe8,0xbe,0x30,0xc7,0xdd,0xbc,
  0xe6,0xcc,0x4b,0xbe,0x00,0x83,0x4a,0xbb,0xb0,0xf0,0x8b,0xbe,
  0x31,0x89,0x88,0x3e,0x20,0x8a,0xa5,0xbc,0x9c,0xd6,0xb8,0xbe,
  0x13,0x79,0x96,0xbe,0x88,0xf8,0x1f,0xbd,0x36,0xf0,0xaf,0xbe,
  0x9e,0x0e,0x26,0x3e,0x40,0x56,0x8f,0x3d,0x18,0xbb,0xe3,0x3e,
  0x4b,0x39,0xbd,0x3e,0xd0,0x4e,0x3c,0x3e,0x1c,0x1e,0xe0,0x3e,
  0xb8,0x45,0x14,0x3f,0x5d,0x93,0xfd,0xbe,0x17,0xf6,0xe1,0xbe,
  0x9f,0x1f,0x2d,0x3f,0x5d,0xa2,0x80,0x3e,0x3f,0xcd,0xf0,0xbe,
  0xbc,0x90,0x0e,0xba,0x65,0x46,0xae,0xbd,0xcc,0x10,0xd1,0xbd,
  0x18,0x45,0x0f,0xbd,0xb9,0xe6,0x86,0xbe,0xa0,0x12,0xfd,0x3d,
  0xdb,0x40,0x91,0xbe,0x7a,0x6d,0x31,0xbe,0x60,0x46,0xad,0xbc,
  0xa0,0xca,0x88,0xbd,0x5e,0x5e,0x4f,0x3e,0xc4,0x1b,0xeb,0xbd,
  0x6a,0xdc,0x6b,0x3e,0x13,0x9a,0x88,0x3e,0x7f,0x31,0x4f,0x3e,
  0xa2,0xb7,0x53,0x3e,0x9d,0xf3,0x7a,0xbf,0x10,0xde,0x39,0x3e,
  0x09,0x82,0x82,0xbe,0x76,0x09,0x65,0xbe,0x81,0x2d,0x10,0xbe,
  0xcb,0x50,0x3e,0x3f,0x29,0xe7,0x93,0x3d,0x00,0xdb,0x12,0xbf,
  0xa2,0x4d,0x21,0x3e,0x55,0x13,0xc2,0x3e,0x25,0xf3,0x86,0xbe,
  0xbb,0xf5,0x8c,0xbe,0x83,0xe7,0x79,0xbe,0xdf,0x00,0x7c,0xbe,
  0x92,0xfe,0xcf,0x3d,0xdb,0xaf,0x5a,0x3e,0x29,0x94,0x2d,0x3e,
  0x46,0x78,0x98,0xbe,0x33,0x8d,0x96,0xbd,0xe5,0xb4,0x94,0x3d,
  0xc5,0x23,0xf4,0x3a,0x56,0xd4,0xbb,0x3d,0x76,0xfe,0xff,0xff,
  0x04,0x00,0x00,0x00,0x80,0x00,0x00,0x00,0x64,0x7a,0x69,0x3e,
  0x60,0xe3,0x96,0x3e,0xaa,0x61,0x44,0xbe,0x00,0x00,0x00,0x00,
  0x1f,0xe8,0xee,0x3d,0x00,0x00,0x00,0x00,0x6b,0x4e,0x87,0x3e,
  0x3b,0xeb,0x83,0xbe,0x49,0xaf,0xb1,0x3e,0x00,0x00,0x00,0x00,
  0x00,0x00,0x00,0x00,0xfd,0xcc,0x59,0xbe,0x79,0x62,0x4e,0x3d,
  0xd1,0x76,0x62,0x3e,0x00,0x00,0x00,0x00,0x00,0x00,0x00,0x00,
  0x00,0x00,0x00,0x00,0x7a,0x52,0xdf,0xbb,0x5d,0x59,0x7e,0xbe,
  0xe5,0x00,0xa5,0xbd,0x78,0x9d,0x2d,0x3e,0xd3,0xfa,0x80,0x3d,
  0x00,0x00,0x00,0x00,0x30,0x68,0x08,0xbe,0x00,0x00,0x00,0x00,
  0xba,0xd9,0xb2,0xbb,0xe6,0x55,0x2f,0xbe,0x00,0x00,0x00,0x00,
  0x97,0x6e,0x9a,0x3d,0x00,0x00,0x00,0x00,0x2d,0x18,0x80,0x3e,
  0xbf,0x4a,0x29,0xbd,0x02,0xff,0xff,0xff,0x04,0x00,0x00,0x00,
  0x10,0x00,0x00,0x00,0xb9,0x48,0x3f,0xbe,0x25,0xe5,0x76,0xbd,
  0x11,0x1e,0x2b,0xbe,0x42,0x8a,0xa2,0x3e,0x1e,0xff,0xff,0xff,
  0x04,0x00,0x00,0x00,0x40,0x00,0x00,0x00,0x91,0x26,0xb4,0x3d,
  0xab,0x5b,0xcd,0x3e,0x1b,0xdd,0xba,0x3e,0x75,0x12,0x86,0x3d,
  0x10,0x45,0x0e,0x3c,0x53,0x4e,0x82,0x3d,0xf4,0xa7,0x9f,0x3e,
  0x12,0xbe,0x00,0x3e,0x84,0x29,0x48,0x3c,0xde,0xee,0x6b,0xbe,
  0x77,0xe9,0x0f,0x3e,0x4e,0xe6,0xdd,0x3e,0x2a,0xe5,0x5b,0x3e,
  0x2c,0x4c,0x5a,0xbe,0xc2,0x19,0x67,0x3e,0x0f,0x63,0xb3,0x3d,
  0x4c,0xfa,0xff,0xff,0x50,0xfa,0xff,0xff,0x0f,0x00,0x00,0x00,
  0x4d,0x4c,0x49,0x52,0x20,0x43,0x6f,0x6e,0x76,0x65,0x72,0x74,
  0x65,0x64,0x2e,0x00,0x01,0x00,0x00,0x00,0x14,0x00,0x00,0x00,
  0x00,0x00,0x0e,0x00,0x18,0x00,0x14,0x00,0x10,0x00,0x0c,0x00,
  0x08,0x00,0x04,0x00,0x0e,0x00,0x00,0x00,0x14,0x00,0x00,0x00,
  0x1c,0x00,0x00,0x00,0x34,0x01,0x00,0x00,0x38,0x01,0x00,0x00,
  0x3c,0x01,0x00,0x00,0x04,0x00,0x00,0x00,0x6d,0x61,0x69,0x6e,
  0x00,0x00,0x00,0x00,0x04,0x00,0x00,0x00,0xdc,0x00,0x00,0x00,
  0x94,0x00,0x00,0x00,0x50,0x00,0x00,0x00,0x14,0x00,0x00,0x00,
  0x00,0x00,0x0e,0x00,0x1a,0x00,0x14,0x00,0x10,0x00,0x0c,0x00,
  0x0b,0x00,0x04,0x00,0x0e,0x00,0x00,0x00,0x1c,0x00,0x00,0x00,
  0x00,0x00,0x00,0x09,0x1c,0x00,0x00,0x00,0x20,0x00,0x00,0x00,
  0x01,0x00,0x00,0x00,0x00,0x00,0x06,0x00,0x08,0x00,0x04,0x00,
  0x06,0x00,0x00,0x00,0x00,0x00,0x80,0x3f,0x01,0x00,0x00,0x00,
  0x0a,0x00,0x00,0x00,0x01,0x00,0x00,0x00,0x09,0x00,0x00,0x00,
  0xce,0xff,0xff,0xff,0x10,0x00,0x00,0x00,0x00,0x00,0x00,0x08,
  0x0c,0x00,0x00,0x00,0x10,0x00,0x00,0x00,0x14,0xfb,0xff,0xff,
  0x01,0x00,0x00,0x00,0x09,0x00,0x00,0x00,0x03,0x00,0x00,0x00,
  0x08,0x00,0x00,0x00,0x06,0x00,0x00,0x00,0x02,0x00,0x00,0x00,
  0x00,0x00,0x0e,0x00,0x14,0x00,0x00,0x00,0x10,0x00,0x0c,0x00,
  0x0b,0x00,0x04,0x00,0x0e,0x00,0x00,0x00,0x10,0x00,0x00,0x00,
  0x00,0x00,0x00,0x08,0x10,0x00,0x00,0x00,0x14,0x00,0x00,0x00,
  0xba,0xff,0xff,0xff,0x00,0x00,0x00,0x01,0x01,0x00,0x00,0x00,
  0x08,0x00,0x00,0x00,0x03,0x00,0x00,0x00,0x07,0x00,0x00,0x00,
  0x05,0x00,0x00,0x00,0x01,0x00,0x00,0x00,0x00,0x00,0x0e,0x00,
  0x16,0x00,0x00,0x00,0x10,0x00,0x0c,0x00,0x0b,0x00,0x04,0x00,
  0x0e,0x00,0x00,0x00,0x18,0x00,0x00,0x00,0x00,0x00,0x00,0x08,
  0x18,0x00,0x00,0x00,0x1c,0x00,0x00,0x00,0x00,0x00,0x06,0x00,
  0x08,0x00,0x07,0x00,0x06,0x00,0x00,0x00,0x00,0x00,0x00,0x01,
  0x01,0x00,0x00,0x00,0x07,0x00,0x00,0x00,0x03,0x00,0x00,0x00,
  0x00,0x00,0x00,0x00,0x04,0x00,0x00,0x00,0x03,0x00,0x00,0x00,
  0x01,0x00,0x00,0x00,0x0a,0x00,0x00,0x00,0x01,0x00,0x00,0x00,
  0x00,0x00,0x00,0x00,0x0b,0x00,0x00,0x00,0x04,0x04,0x00,0x00,
  0x94,0x03,0x00,0x00,0x24,0x03,0x00,0x00,0xd0,0x02,0x00,0x00,
  0x88,0x02,0x00,0x00,0x3c,0x02,0x00,0x00,0xf0,0x01,0x00,0x00,
  0x68,0x01,0x00,0x00,0xd8,0x00,0x00,0x00,0x60,0x00,0x00,0x00,
  0x04,0x00,0x00,0x00,0x3e,0xfc,0xff,0xff,0x00,0x00,0x00,0x01,
  0x14,0x00,0x00,0x00,0x1c,0x00,0x00,0x00,0x1c,0x00,0x00,0x00,
  0x0b,0x00,0x00,0x00,0x34,0x00,0x00,0x00,0x02,0x00,0x00,0x00,
  0xff,0xff,0xff,0xff,0x04,0x00,0x00,0x00,0x28,0xfc,0xff,0xff,
  0x19,0x00,0x00,0x00,0x53,0x74,0x61,0x74,0x65,0x66,0x75,0x6c,
  0x50,0x61,0x72,0x74,0x69,0x74,0x69,0x6f,0x6e,0x65,0x64,0x43,
  0x61,0x6c,0x6c,0x3a,0x30,0x00,0x00,0x00,0x02,0x00,0x00,0x00,
  0x01,0x00,0x00,0x00,0x04,0x00,0x00,0x00,0x96,0xfc,0xff,0xff,
  0x00,0x00,0x00,0x01,0x14,0x00,0x00,0x00,0x1c,0x00,0x00,0x00,
  0x1c,0x00,0x00,0x00,0x0a,0x00,0x00,0x00,0x50,0x00,0x00,0x00,
  0x02,0x00,0x00,0x00,0xff,0xff,0xff,0xff,0x04,0x00,0x00,0x00,
  0x80,0xfc,0xff,0xff,0x34,0x00,0x00,0x00,0x73,0x65,0x71,0x75,
  0x65,0x6e,0x74,0x69,0x61,0x6c,0x2f,0x64,0x65,0x6e,0x73,0x65,
  0x5f,0x32,0x2f,0x4d,0x61,0x74,0x4d,0x75,0x6c,0x3b,0x73,0x65,
  0x71,0x75,0x65,0x6e,0x74,0x69,0x61,0x6c,0x2f,0x64,0x65,0x6e,
  0x73,0x65,0x5f,0x32,0x2f,0x42,0x69,0x61,0x73,0x41,0x64,0x64,
  0x00,0x00,0x00,0x00,0x02,0x00,0x00,0x00,0x01,0x00,0x00,0x00,
  0x04,0x00,0x00,0x00,0x0a,0xfd,0xff,0xff,0x00,0x00,0x00,0x01,
  0x14,0x00,0x00,0x00,0x1c,0x00,0x00,0x00,0x1c,0x00,0x00,0x00,
  0x09,0x00,0x00,0x00,0x68,0x00,0x00,0x00,0x02,0x00,0x00,0x00,
  0xff,0xff,0xff,0xff,0x10,0x00,0x00,0x00,0xf4,0xfc,0xff,0xff,
  0x4c,0x00,0x00,0x00,0x73,0x65,0x71,0x75,0x65,0x6e,0x74,0x69,
  0x61,0x6c,0x2f,0x64,0x65,0x6e,0x73,0x65,0x5f,0x31,0x2f,0x4d,
  0x61,0x74,0x4d,0x75,0x6c,0x3b,0x73,0x65,0x71,0x75,0x65,0x6e,
  0x74,0x69,0x61,0x6c,0x2f,0x64,0x65,0x6e,0x73,0x65,0x5f,0x31,
  0x2f,0x52,0x65,0x6c,0x75,0x3b,0x73,0x65,0x71,0x75,0x65,0x6e,
  0x74,0x69,0x61,0x6c,0x2f,0x64,0x65,0x6e,0x73,0x65,0x5f,0x31,
  0x2f,0x42,0x69,0x61,0x73,0x41,0x64,0x64,0x00,0x00,0x00,0x00,
  0x02,0x00,0x00,0x00,0x01,0x00,0x00,0x00,0x10,0x00,0x00,0x00,
  0x96,0xfd,0xff,0xff,0x00,0x00,0x00,0x01,0x14,0x00,0x00,0x00,
  0x1c,0x00,0x00,0x00,0x1c,0x00,0x00,0x00,0x08,0x00,0x00,0x00,
  0x60,0x00,0x00,0x00,0x02,0x00,0x00,0x00,0xff,0xff,0xff,0xff,
  0x20,0x00,0x00,0x00,0x80,0xfd,0xff,0xff,0x46,0x00,0x00,0x00,
  0x73,0x65,0x71,0x75,0x65,0x6e,0x74,0x69,0x61,0x6c,0x2f,0x64,
  0x65,0x6e,0x73,0x65,0x2f,0x4d,0x61,0x74,0x4d,0x75,0x6c,0x3b,
  0x73,0x65,0x71,0x75,0x65,0x6e,0x74,0x69,0x61,0x6c,0x2f,0x64,
  0x65,0x6e,0x73,0x65,0x2f,0x52,0x65,0x6c,0x75,0x3b,0x73,0x65,
  0x71,0x75,0x65,0x6e,0x74,0x69,0x61,0x6c,0x2f,0x64,0x65,0x6e,
  0x73,0x65,0x2f,0x42,0x69,0x61,0x73,0x41,0x64,0x64,0x00,0x00,
  0x02,0x00,0x00,0x00,0x01,0x00,0x00,0x00,0x20,0x00,0x00,0x00,
  0x86,0xfe,0xff,0xff,0x00,0x00,0x00,0x01,0x10,0x00,0x00,0x00,
  0x10,0x00,0x00,0x00,0x07,0x00,0x00,0x00,0x28,0x00,0x00,0x00,
  0xf4,0xfd,0xff,0xff,0x19,0x00,0x00,0x00,0x73,0x65,0x71,0x75,
  0x65,0x6e,0x74,0x69,0x61,0x6c,0x2f,0x64,0x65,0x6e,0x73,0x65,
  0x5f,0x32,0x2f,0x4d,0x61,0x74,0x4d,0x75,0x6c,0x00,0x00,0x00,
  0x02,0x00,0x00,0x00,0x04,0x00,0x00,0x00,0x10,0x00,0x00,0x00,
  0xce,0xfe,0xff,0xff,0x00,0x00,0x00,0x01,0x10,0x00,0x00,0x00,
  0x10,0x00,0x00,0x00,0x06,0x00,0x00,0x00,0x28,0x00,0x00,0x00,
  0x3c,0xfe,0xff,0xff,0x19,0x00,0x00,0x00,0x73,0x65,0x71,0x75,
  0x65,0x6e,0x74,0x69,0x61,0x6c,0x2f,0x64,0x65,0x6e,0x73,0x65,
  0x5f,0x31,0x2f,0x4d,0x61,0x74,0x4d,0x75,0x6c,0x00,0x00,0x00,
  0x02,0x00,0x00,0x00,0x10,0x00,0x00,0x00,0x20,0x00,0x00,0x00,
  0x16,0xff,0xff,0xff,0x00,0x00,0x00,0x01,0x10,0x00,0x00,0x00,
  0x10,0x00,0x00,0x00,0x05,0x00,0x00,0x00,0x24,0x00,0x00,0x00,
  0x84,0xfe,0xff,0xff,0x17,0x00,0x00,0x00,0x73,0x65,0x71,0x75,
  0x65,0x6e,0x74,0x69,0x61,0x6c,0x2f,0x64,0x65,0x6e,0x73,0x65,
  0x2f,0x4d,0x61,0x74,0x4d,0x75,0x6c,0x00,0x02,0x00,0x00,0x00,
  0x20,0x00,0x00,0x00,0x0c,0x00,0x00,0x00,0x5a,0xff,0xff,0xff,
  0x00,0x00,0x00,0x01,0x10,0x00,0x00,0x00,0x10,0x00,0x00,0x00,
  0x04,0x00,0x00,0x00,0x34,0x00,0x00,0x00,0xc8,0xfe,0xff,0xff,
  0x27,0x00,0x00,0x00,0x73,0x65,0x71,0x75,0x65,0x6e,0x74,0x69,
  0x61,0x6c,0x2f,0x64,0x65,0x6e,0x73,0x65,0x2f,0x42,0x69,0x61,
  0x73,0x41,0x64,0x64,0x2f,0x52,0x65,0x61,0x64,0x56,0x61,0x72,
  0x69,0x61,0x62,0x6c,0x65,0x4f,0x70,0x00,0x01,0x00,0x00,0x00,
  0x20,0x00,0x00,0x00,0xaa,0xff,0xff,0xff,0x00,0x00,0x00,0x01,
  0x10,0x00,0x00,0x00,0x10,0x00,0x00,0x00,0x03,0x00,0x00,0x00,
  0x38,0x00,0x00,0x00,0x18,0xff,0xff,0xff,0x29,0x00,0x00,0x00,
  0x73,0x65,0x71,0x75,0x65,0x6e,0x74,0x69,0x61,0x6c,0x2f,0x64,
  0x65,0x6e,0x73,0x65,0x5f,0x32,0x2f,0x42,0x69,0x61,0x73,0x41,
  0x64,0x64,0x2f,0x52,0x65,0x61,0x64,0x56,0x61,0x72,0x69,0x61,
  0x62,0x6c,0x65,0x4f,0x70,0x00,0x00,0x00,0x01,0x00,0x00,0x00,
  0x04,0x00,0x00,0x00,0x00,0x00,0x16,0x00,0x18,0x00,0x14,0x00,
  0x00,0x00,0x10,0x00,0x0c,0x00,0x08,0x00,0x00,0x00,0x00,0x00,
  0x00,0x00,0x07,0x00,0x16,0x00,0x00,0x00,0x00,0x00,0x00,0x01,
  0x10,0x00,0x00,0x00,0x10,0x00,0x00,0x00,0x02,0x00,0x00,0x00,
  0x38,0x00,0x00,0x00,0x84,0xff,0xff,0xff,0x29,0x00,0x00,0x00,
  0x73,0x65,0x71,0x75,0x65,0x6e,0x74,0x69,0x61,0x6c,0x2f,0x64,
  0x65,0x6e,0x73,0x65,0x5f,0x31,0x2f,0x42,0x69,0x61,0x73,0x41,
  0x64,0x64,0x2f,0x52,0x65,0x61,0x64,0x56,0x61,0x72,0x69,0x61,
  0x62,0x6c,0x65,0x4f,0x70,0x00,0x00,0x00,0x01,0x00,0x00,0x00,
  0x10,0x00,0x00,0x00,0x00,0x00,0x16,0x00,0x1c,0x00,0x18,0x00,
  0x00,0x00,0x14,0x00,0x10,0x00,0x0c,0x00,0x00,0x00,0x00,0x00,
  0x08,0x00,0x07,0x00,0x16,0x00,0x00,0x00,0x00,0x00,0x00,0x01,
  0x14,0x00,0x00,0x00,0x20,0x00,0x00,0x00,0x20,0x00,0x00,0x00,
  0x01,0x00,0x00,0x00,0x3c,0x00,0x00,0x00,0x02,0x00,0x00,0x00,
  0xff,0xff,0xff,0xff,0x0c,0x00,0x00,0x00,0x04,0x00,0x04,0x00,
  0x04,0x00,0x00,0x00,0x1d,0x00,0x00,0x00,0x73,0x65,0x72,0x76,
  0x69,0x6e,0x67,0x5f,0x64,0x65,0x66,0x61,0x75,0x6c,0x74,0x5f,
  0x64,0x65,0x6e,0x73,0x65,0x5f,0x69,0x6e,0x70,0x75,0x74,0x3a,
  0x30,0x00,0x00,0x00,0x02,0x00,0x00,0x00,0x01,0x00,0x00,0x00,
  0x0c,0x00,0x00,0x00,0x02,0x00,0x00,0x00,0x20,0x00,0x00,0x00,
  0x04,0x00,0x00,0x00,0xf4,0xff,0xff,0xff,0x19,0x00,0x00,0x00,
  0x00,0x00,0x00,0x19,0x0c,0x00,0x0c,0x00,0x0b,0x00,0x00,0x00,
  0x00,0x00,0x04,0x00,0x0c,0x00,0x00,0x00,0x09,0x00,0x00,0x00,
  0x00,0x00,0x00,0x09
};

const int g_model_data_len = 6160;

#endif  // MODEL_DATA_H
