#include "model.h"
unsigned char motor_fault_model_quantized[]  = {
  0x1c, 0x00, 0x00, 0x00, 0x54, 0x46, 0x4c, 0x33, 0x14, 0x00, 0x20, 0x00,
  0x1c, 0x00, 0x18, 0x00, 0x14, 0x00, 0x10, 0x00, 0x0c, 0x00, 0x00, 0x00,
  0x08, 0x00, 0x04, 0x00, 0x14, 0x00, 0x00, 0x00, 0x1c, 0x00, 0x00, 0x00,
  0x8c, 0x00, 0x00, 0x00, 0xe4, 0x00, 0x00, 0x00, 0x68, 0x06, 0x00, 0x00,
  0x78, 0x06, 0x00, 0x00, 0xd4, 0x0d, 0x00, 0x00, 0x03, 0x00, 0x00, 0x00,
  0x01, 0x00, 0x00, 0x00, 0x10, 0x00, 0x00, 0x00, 0x00, 0x00, 0x0a, 0x00,
  0x10, 0x00, 0x0c, 0x00, 0x08, 0x00, 0x04, 0x00, 0x0a, 0x00, 0x00, 0x00,
  0x0c, 0x00, 0x00, 0x00, 0x1c, 0x00, 0x00, 0x00, 0x38, 0x00, 0x00, 0x00,
  0x0f, 0x00, 0x00, 0x00, 0x73, 0x65, 0x72, 0x76, 0x69, 0x6e, 0x67, 0x5f,
  0x64, 0x65, 0x66, 0x61, 0x75, 0x6c, 0x74, 0x00, 0x01, 0x00, 0x00, 0x00,
  0x04, 0x00, 0x00, 0x00, 0x9c, 0xff, 0xff, 0xff, 0x0a, 0x00, 0x00, 0x00,
  0x04, 0x00, 0x00, 0x00, 0x07, 0x00, 0x00, 0x00, 0x64, 0x65, 0x6e, 0x73,
  0x65, 0x5f, 0x38, 0x00, 0x01, 0x00, 0x00, 0x00, 0x04, 0x00, 0x00, 0x00,
  0x7a, 0xf9, 0xff, 0xff, 0x04, 0x00, 0x00, 0x00, 0x07, 0x00, 0x00, 0x00,
  0x69, 0x6e, 0x70, 0x75, 0x74, 0x5f, 0x32, 0x00, 0x02, 0x00, 0x00, 0x00,
  0x34, 0x00, 0x00, 0x00, 0x04, 0x00, 0x00, 0x00, 0xdc, 0xff, 0xff, 0xff,
  0x0d, 0x00, 0x00, 0x00, 0x04, 0x00, 0x00, 0x00, 0x13, 0x00, 0x00, 0x00,
  0x43, 0x4f, 0x4e, 0x56, 0x45, 0x52, 0x53, 0x49, 0x4f, 0x4e, 0x5f, 0x4d,
  0x45, 0x54, 0x41, 0x44, 0x41, 0x54, 0x41, 0x00, 0x08, 0x00, 0x0c, 0x00,
  0x08, 0x00, 0x04, 0x00, 0x08, 0x00, 0x00, 0x00, 0x0c, 0x00, 0x00, 0x00,
  0x04, 0x00, 0x00, 0x00, 0x13, 0x00, 0x00, 0x00, 0x6d, 0x69, 0x6e, 0x5f,
  0x72, 0x75, 0x6e, 0x74, 0x69, 0x6d, 0x65, 0x5f, 0x76, 0x65, 0x72, 0x73,
  0x69, 0x6f, 0x6e, 0x00, 0x0e, 0x00, 0x00, 0x00, 0x80, 0x05, 0x00, 0x00,
  0x78, 0x05, 0x00, 0x00, 0x4c, 0x05, 0x00, 0x00, 0xcc, 0x04, 0x00, 0x00,
  0x7c, 0x04, 0x00, 0x00, 0x6c, 0x02, 0x00, 0x00, 0xdc, 0x01, 0x00, 0x00,
  0xac, 0x00, 0x00, 0x00, 0xa4, 0x00, 0x00, 0x00, 0x9c, 0x00, 0x00, 0x00,
  0x94, 0x00, 0x00, 0x00, 0x8c, 0x00, 0x00, 0x00, 0x6c, 0x00, 0x00, 0x00,
  0x04, 0x00, 0x00, 0x00, 0x26, 0xfa, 0xff, 0xff, 0x04, 0x00, 0x00, 0x00,
  0x58, 0x00, 0x00, 0x00, 0x0c, 0x00, 0x00, 0x00, 0x08, 0x00, 0x0e, 0x00,
  0x08, 0x00, 0x04, 0x00, 0x08, 0x00, 0x00, 0x00, 0x10, 0x00, 0x00, 0x00,
  0x28, 0x00, 0x00, 0x00, 0x00, 0x00, 0x06, 0x00, 0x08, 0x00, 0x04, 0x00,
  0x06, 0x00, 0x00, 0x00, 0x04, 0x00, 0x00, 0x00, 0x01, 0x00, 0x00, 0x00,
  0xeb, 0x03, 0x00, 0x00, 0x00, 0x00, 0x0a, 0x00, 0x10, 0x00, 0x0c, 0x00,
  0x08, 0x00, 0x04, 0x00, 0x0a, 0x00, 0x00, 0x00, 0x02, 0x00, 0x00, 0x00,
  0x02, 0x00, 0x00, 0x00, 0x04, 0x00, 0x00, 0x00, 0x06, 0x00, 0x00, 0x00,
  0x32, 0x2e, 0x31, 0x33, 0x2e, 0x31, 0x00, 0x00, 0x8a, 0xfa, 0xff, 0xff,
  0x04, 0x00, 0x00, 0x00, 0x10, 0x00, 0x00, 0x00, 0x31, 0x2e, 0x31, 0x34,
  0x2e, 0x30, 0x00, 0x00, 0x00, 0x00, 0x00, 0x00, 0x00, 0x00, 0x00, 0x00,
  0x74, 0xfa, 0xff, 0xff, 0x78, 0xfa, 0xff, 0xff, 0x7c, 0xfa, 0xff, 0xff,
  0x80, 0xfa, 0xff, 0xff, 0xb6, 0xfa, 0xff, 0xff, 0x04, 0x00, 0x00, 0x00,
  0x20, 0x01, 0x00, 0x00, 0xd1, 0xfa, 0x0d, 0x10, 0x0e, 0x0c, 0xe2, 0xc8,
  0x11, 0x63, 0xdb, 0xf0, 0x02, 0xe8, 0x09, 0xf7, 0x17, 0x0c, 0xeb, 0x0d,
  0xd5, 0x25, 0x0f, 0x15, 0xe4, 0x03, 0xb6, 0xbc, 0x2d, 0x10, 0xfa, 0x42,
  0xed, 0xed, 0xfe, 0xf1, 0x0d, 0x11, 0x34, 0x0b, 0x00, 0x0e, 0x40, 0x4c,
  0x04, 0xa0, 0xce, 0xf6, 0xf8, 0xfa, 0xee, 0x24, 0x08, 0x1e, 0xcf, 0x0a,
  0x11, 0xfe, 0x0b, 0xfe, 0xfd, 0xe8, 0x2a, 0x12, 0x0b, 0x30, 0x0f, 0x25,
  0x00, 0x70, 0xf9, 0x25, 0xe8, 0xed, 0x07, 0xfe, 0xfd, 0xf8, 0xad, 0xeb,
  0xc6, 0xfa, 0xf3, 0x01, 0xfd, 0x05, 0xf8, 0xa4, 0x0f, 0x24, 0x15, 0x24,
  0xeb, 0xfc, 0xd4, 0xe0, 0x5f, 0xe2, 0x1c, 0xdf, 0x01, 0x06, 0x01, 0x09,
  0xfb, 0xad, 0xd3, 0x8a, 0x41, 0x08, 0xb3, 0xcd, 0x03, 0x0d, 0x06, 0x11,
  0x0f, 0x08, 0x14, 0x42, 0x36, 0x0e, 0xc5, 0x04, 0x0f, 0xcf, 0xd6, 0xf4,
  0xff, 0xfd, 0xca, 0xde, 0x0e, 0xfd, 0xdd, 0x10, 0xf1, 0x3c, 0xe9, 0xc1,
  0x35, 0xea, 0xf9, 0xd7, 0x2a, 0xf4, 0x03, 0xf9, 0xfa, 0x06, 0xce, 0x53,
  0x2b, 0x22, 0x1e, 0x11, 0xce, 0x3d, 0x08, 0xd9, 0x17, 0xda, 0x52, 0x07,
  0x03, 0x07, 0x0d, 0xda, 0x10, 0xcf, 0xfb, 0xba, 0x06, 0x12, 0x2d, 0x06,
  0x04, 0x43, 0xe6, 0x08, 0x08, 0xcd, 0x48, 0xea, 0xf5, 0xe5, 0x4b, 0xf5,
  0xf3, 0xea, 0xe3, 0xe0, 0x07, 0x04, 0x2a, 0x4e, 0x0c, 0xe3, 0x15, 0x29,
  0x1a, 0x09, 0x0c, 0x0e, 0x55, 0x43, 0x16, 0x19, 0xe6, 0xff, 0x0c, 0xfa,
  0xf9, 0xbd, 0x14, 0x4f, 0x08, 0xf9, 0x07, 0x07, 0x01, 0xfa, 0xd0, 0x1c,
  0x2b, 0xec, 0x2f, 0xfd, 0x16, 0xf9, 0x1b, 0xd4, 0xeb, 0xb6, 0x5e, 0xed,
  0x07, 0x16, 0x08, 0xfb, 0xcd, 0x2d, 0x04, 0x7f, 0xca, 0xdf, 0x0c, 0xef,
  0xeb, 0xf0, 0x03, 0xf0, 0xda, 0x01, 0xfc, 0x02, 0xf3, 0x19, 0x70, 0xea,
  0x09, 0x31, 0x99, 0xd8, 0x18, 0x20, 0xfd, 0x1b, 0x19, 0x01, 0x02, 0x41,
  0x66, 0x05, 0x11, 0x16, 0x00, 0x14, 0x0a, 0xee, 0x02, 0xf8, 0x07, 0x05,
  0x05, 0x55, 0xd3, 0x43, 0xe2, 0xfb, 0xff, 0xff, 0x04, 0x00, 0x00, 0x00,
  0x80, 0x00, 0x00, 0x00, 0xb6, 0x03, 0x00, 0x00, 0x37, 0xff, 0xff, 0xff,
  0xa2, 0xf8, 0xff, 0xff, 0x30, 0xfb, 0xff, 0xff, 0x31, 0xf7, 0xff, 0xff,
  0x66, 0xfe, 0xff, 0xff, 0x3b, 0x03, 0x00, 0x00, 0xc7, 0xfe, 0xff, 0xff,
  0x5f, 0x02, 0x00, 0x00, 0xd0, 0x04, 0x00, 0x00, 0x6a, 0xfb, 0xff, 0xff,
  0xd6, 0x00, 0x00, 0x00, 0xcc, 0xfd, 0xff, 0xff, 0xc9, 0xfe, 0xff, 0xff,
  0x42, 0xf7, 0xff, 0xff, 0x2d, 0xfa, 0xff, 0xff, 0xf2, 0xfd, 0xff, 0xff,
  0xdc, 0xfd, 0xff, 0xff, 0xb2, 0xfd, 0xff, 0xff, 0xfa, 0xfa, 0xff, 0xff,
  0xd4, 0xfb, 0xff, 0xff, 0xf1, 0xfc, 0xff, 0xff, 0x53, 0xf5, 0xff, 0xff,
  0x82, 0x02, 0x00, 0x00, 0x9b, 0x05, 0x00, 0x00, 0x93, 0xf9, 0xff, 0xff,
  0x3c, 0xff, 0xff, 0xff, 0x4d, 0xfd, 0xff, 0xff, 0xce, 0xfb, 0xff, 0xff,
  0x3e, 0xfc, 0xff, 0xff, 0xb1, 0x00, 0x00, 0x00, 0x8a, 0x03, 0x00, 0x00,
  0x6e, 0xfc, 0xff, 0xff, 0x04, 0x00, 0x00, 0x00, 0x00, 0x02, 0x00, 0x00,
  0x14, 0xda, 0xe3, 0xff, 0xde, 0x2c, 0x38, 0x1c, 0x09, 0x1a, 0xf2, 0xf4,
  0xe9, 0xe5, 0xdb, 0xcd, 0xe1, 0xd2, 0xf2, 0xeb, 0xe4, 0xdc, 0xf2, 0x0f,
  0xf4, 0xf4, 0xc5, 0xaf, 0x1e, 0xda, 0xec, 0x33, 0x33, 0xdd, 0xf9, 0x06,
  0x10, 0xff, 0x1c, 0x0e, 0x0f, 0x0a, 0xd4, 0x03, 0xe0, 0xfd, 0xf1, 0xf0,
  0x00, 0x04, 0xc4, 0xd2, 0xc1, 0xf8, 0x0b, 0x11, 0x2b, 0xeb, 0xf5, 0xf3,
  0xcb, 0xcc, 0x01, 0xfd, 0x15, 0x17, 0x4d, 0x18, 0x11, 0x19, 0x00, 0xe3,
  0x0e, 0x05, 0xe8, 0x20, 0xf6, 0x33, 0x30, 0x20, 0xe5, 0x45, 0xf0, 0xe4,
  0x03, 0x13, 0x0b, 0xe9, 0xea, 0x4f, 0x23, 0x04, 0xed, 0x10, 0x11, 0xc1,
  0xfe, 0x48, 0x15, 0x51, 0xc9, 0x1a, 0xff, 0xef, 0x05, 0x00, 0x19, 0xfb,
  0x54, 0x13, 0x3d, 0x47, 0xf0, 0x1e, 0x3e, 0x13, 0x16, 0x00, 0xd2, 0x03,
  0x02, 0xf4, 0x21, 0x7f, 0x07, 0x4c, 0xd5, 0xf1, 0x24, 0xc7, 0x28, 0x12,
  0xf2, 0x49, 0x1e, 0xfb, 0x1b, 0xfc, 0x20, 0x2f, 0xd6, 0xf5, 0x0f, 0xf4,
  0xd9, 0xea, 0x0c, 0x1b, 0x24, 0x24, 0xf9, 0x01, 0x03, 0x22, 0xc6, 0xe2,
  0xf4, 0xe4, 0x0f, 0x27, 0xb6, 0x13, 0xcd, 0xd9, 0x54, 0xdd, 0x0e, 0x3d,
  0xbc, 0xec, 0x22, 0xcd, 0xce, 0x25, 0xeb, 0xcb, 0x19, 0x1b, 0x12, 0x16,
  0x29, 0x19, 0x3c, 0x01, 0x00, 0xae, 0x06, 0xed, 0x28, 0xde, 0x35, 0x16,
  0x14, 0xb7, 0xce, 0xc6, 0xd3, 0x1e, 0x13, 0xb8, 0x14, 0x02, 0xd8, 0x0a,
  0xd5, 0xc8, 0xdd, 0xc7, 0x0a, 0xa3, 0xeb, 0xc7, 0xb8, 0xac, 0xee, 0x05,
  0x14, 0xe0, 0xbf, 0xbd, 0xcc, 0xd0, 0xca, 0x0c, 0x07, 0xfb, 0xfd, 0xf3,
  0x05, 0xe5, 0x11, 0x09, 0x04, 0x3c, 0xe4, 0xfe, 0xf5, 0xfc, 0xf1, 0xee,
  0x55, 0x02, 0xcd, 0xd1, 0xd6, 0xe3, 0xfb, 0x4d, 0x41, 0xf6, 0x0d, 0xeb,
  0xdf, 0xf6, 0xf4, 0x07, 0xfb, 0x21, 0xb9, 0xfc, 0xea, 0x11, 0x2f, 0x1c,
  0xd8, 0x01, 0x37, 0xd9, 0x20, 0xf6, 0xd4, 0xeb, 0xdf, 0xf9, 0x1e, 0x31,
  0x26, 0x09, 0xea, 0x18, 0x1b, 0xdc, 0xf8, 0xe9, 0x53, 0x16, 0xff, 0x54,
  0x1d, 0xf7, 0x33, 0x40, 0xfc, 0x16, 0xfe, 0x11, 0x02, 0xec, 0x2f, 0x08,
  0x2d, 0x0f, 0x0d, 0x02, 0xd6, 0x04, 0x2f, 0x62, 0x57, 0x2f, 0xfe, 0xeb,
  0xe8, 0x1b, 0xf5, 0x19, 0x5f, 0x11, 0x02, 0x10, 0x13, 0x3d, 0xbd, 0xe0,
  0xec, 0x1e, 0x13, 0x01, 0xcc, 0xf7, 0xfe, 0xaf, 0x32, 0xf2, 0xf7, 0x01,
  0x31, 0x1f, 0xf9, 0xf9, 0xf1, 0x05, 0xf4, 0x2f, 0x29, 0xe1, 0x38, 0x12,
  0x00, 0x35, 0x04, 0x00, 0x01, 0xf9, 0x41, 0x07, 0xf0, 0xf1, 0x02, 0xb1,
  0x47, 0x44, 0xd8, 0x35, 0x14, 0x07, 0xfd, 0x3e, 0x07, 0x02, 0x15, 0xfd,
  0xe6, 0x13, 0xcf, 0x2b, 0x22, 0x38, 0x0a, 0x0f, 0xc7, 0x05, 0xf1, 0xd4,
  0x0c, 0xf8, 0x4b, 0x4a, 0x0d, 0x17, 0x14, 0x15, 0x12, 0x01, 0xf0, 0x07,
  0x0f, 0x36, 0x44, 0x17, 0xf0, 0x47, 0x01, 0x20, 0x22, 0x33, 0xe5, 0xf5,
  0xfd, 0x22, 0xfc, 0x05, 0xe3, 0x29, 0x3a, 0xef, 0x1c, 0xfe, 0xf8, 0x41,
  0xa5, 0x28, 0x12, 0xfe, 0xe4, 0xea, 0x04, 0xe7, 0x34, 0xe2, 0x2f, 0x10,
  0xf0, 0x15, 0xd0, 0x19, 0x09, 0x1f, 0xd7, 0xee, 0xe5, 0xe7, 0xf6, 0xf6,
  0x1b, 0x32, 0x0a, 0x13, 0xaa, 0x28, 0xf3, 0xdc, 0x2f, 0xcb, 0xe3, 0x20,
  0x05, 0x18, 0xfa, 0xe8, 0x06, 0x0c, 0xeb, 0xf2, 0x4f, 0xff, 0x01, 0x14,
  0x0c, 0x1d, 0x35, 0x0f, 0x25, 0xdb, 0x2e, 0x03, 0x24, 0xe6, 0x10, 0xfe,
  0x03, 0x1a, 0xf7, 0xfc, 0x25, 0x16, 0x25, 0x5c, 0x09, 0xfc, 0x27, 0x08,
  0xe5, 0x23, 0x16, 0x0c, 0x00, 0x20, 0x0c, 0x0a, 0x46, 0x50, 0x63, 0xf0,
  0xf1, 0x10, 0x1b, 0xf3, 0x4b, 0x06, 0x70, 0x13, 0x7a, 0xfe, 0xff, 0xff,
  0x04, 0x00, 0x00, 0x00, 0x40, 0x00, 0x00, 0x00, 0x36, 0x0b, 0x00, 0x00,
  0xff, 0x11, 0x00, 0x00, 0xb2, 0xf6, 0xff, 0xff, 0xf1, 0xfb, 0xff, 0xff,
  0x09, 0x0d, 0x00, 0x00, 0x60, 0xff, 0xff, 0xff, 0x98, 0x09, 0x00, 0x00,
  0x3d, 0x14, 0x00, 0x00, 0xe7, 0x02, 0x00, 0x00, 0xec, 0xfb, 0xff, 0xff,
  0xc9, 0x06, 0x00, 0x00, 0x4f, 0x05, 0x00, 0x00, 0x19, 0xf7, 0xff, 0xff,
  0x10, 0xfb, 0xff, 0xff, 0xcd, 0xfd, 0xff, 0xff, 0xc5, 0xf4, 0xff, 0xff,
  0xc6, 0xfe, 0xff, 0xff, 0x04, 0x00, 0x00, 0x00, 0x70, 0x00, 0x00, 0x00,
  0x40, 0x2f, 0xe7, 0x8b, 0x1b, 0x9c, 0x53, 0x3e, 0x09, 0xcb, 0xf5, 0x1a,
  0xb7, 0xd8, 0xdc, 0x8d, 0xf6, 0x18, 0x32, 0x0a, 0x08, 0xae, 0xe9, 0x22,
  0xbd, 0x0d, 0xcf, 0x1e, 0x34, 0xf8, 0xce, 0xee, 0xd2, 0xfa, 0xea, 0x19,
  0xb6, 0xb4, 0xa7, 0x3f, 0x02, 0xa1, 0x1c, 0x29, 0xcd, 0xed, 0x26, 0xac,
  0x1c, 0xe3, 0xf3, 0x0f, 0xfe, 0xfa, 0xcc, 0xfe, 0x2c, 0x21, 0x10, 0xd0,
  0x1b, 0x3d, 0xfa, 0x25, 0xd0, 0xd1, 0x3e, 0x1b, 0x08, 0xcb, 0xf1, 0xba,
  0xc1, 0x1c, 0xe4, 0x23, 0x40, 0x0b, 0xea, 0x1d, 0xa1, 0x0e, 0x21, 0xc3,
  0x81, 0x14, 0xc4, 0x2d, 0xe0, 0xc8, 0x07, 0xcd, 0x25, 0xcb, 0x38, 0x2f,
  0x00, 0xa5, 0xe3, 0xb6, 0xfe, 0x18, 0xa8, 0x98, 0x34, 0x2a, 0x91, 0xb2,
  0x0d, 0xe5, 0x2e, 0x35, 0x42, 0xff, 0xff, 0xff, 0x04, 0x00, 0x00, 0x00,
  0x1c, 0x00, 0x00, 0x00, 0x71, 0x03, 0x00, 0x00, 0x77, 0x02, 0x00, 0x00,
  0x85, 0x01, 0x00, 0x00, 0x95, 0xff, 0xff, 0xff, 0x2f, 0xfb, 0xff, 0xff,
  0x42, 0xfc, 0xff, 0xff, 0x5d, 0xfc, 0xff, 0xff, 0x38, 0xff, 0xff, 0xff,
  0x3c, 0xff, 0xff, 0xff, 0x0f, 0x00, 0x00, 0x00, 0x4d, 0x4c, 0x49, 0x52,
  0x20, 0x43, 0x6f, 0x6e, 0x76, 0x65, 0x72, 0x74, 0x65, 0x64, 0x2e, 0x00,
  0x01, 0x00, 0x00, 0x00, 0x14, 0x00, 0x00, 0x00, 0x00, 0x00, 0x0e, 0x00,
  0x18, 0x00, 0x14, 0x00, 0x10, 0x00, 0x0c, 0x00, 0x08, 0x00, 0x04, 0x00,
  0x0e, 0x00, 0x00, 0x00, 0x14, 0x00, 0x00, 0x00, 0x1c, 0x00, 0x00, 0x00,
  0x38, 0x01, 0x00, 0x00, 0x3c, 0x01, 0x00, 0x00, 0x40, 0x01, 0x00, 0x00,
  0x04, 0x00, 0x00, 0x00, 0x6d, 0x61, 0x69, 0x6e, 0x00, 0x00, 0x00, 0x00,
  0x04, 0x00, 0x00, 0x00, 0xe0, 0x00, 0x00, 0x00, 0x98, 0x00, 0x00, 0x00,
  0x50, 0x00, 0x00, 0x00, 0x14, 0x00, 0x00, 0x00, 0x00, 0x00, 0x0e, 0x00,
  0x1a, 0x00, 0x14, 0x00, 0x10, 0x00, 0x0c, 0x00, 0x0b, 0x00, 0x04, 0x00,
  0x0e, 0x00, 0x00, 0x00, 0x1c, 0x00, 0x00, 0x00, 0x00, 0x00, 0x00, 0x09,
  0x1c, 0x00, 0x00, 0x00, 0x20, 0x00, 0x00, 0x00, 0x01, 0x00, 0x00, 0x00,
  0x00, 0x00, 0x06, 0x00, 0x08, 0x00, 0x04, 0x00, 0x06, 0x00, 0x00, 0x00,
  0x00, 0x00, 0x80, 0x3f, 0x01, 0x00, 0x00, 0x00, 0x0a, 0x00, 0x00, 0x00,
  0x01, 0x00, 0x00, 0x00, 0x09, 0x00, 0x00, 0x00, 0xca, 0xff, 0xff, 0xff,
  0x14, 0x00, 0x00, 0x00, 0x00, 0x00, 0x00, 0x08, 0x10, 0x00, 0x00, 0x00,
  0x14, 0x00, 0x00, 0x00, 0x04, 0x00, 0x04, 0x00, 0x04, 0x00, 0x00, 0x00,
  0x01, 0x00, 0x00, 0x00, 0x09, 0x00, 0x00, 0x00, 0x03, 0x00, 0x00, 0x00,
  0x08, 0x00, 0x00, 0x00, 0x02, 0x00, 0x00, 0x00, 0x01, 0x00, 0x00, 0x00,
  0x00, 0x00, 0x0e, 0x00, 0x14, 0x00, 0x00, 0x00, 0x10, 0x00, 0x0c, 0x00,
  0x0b, 0x00, 0x04, 0x00, 0x0e, 0x00, 0x00, 0x00, 0x10, 0x00, 0x00, 0x00,
  0x00, 0x00, 0x00, 0x08, 0x10, 0x00, 0x00, 0x00, 0x14, 0x00, 0x00, 0x00,
  0xba, 0xff, 0xff, 0xff, 0x00, 0x00, 0x00, 0x01, 0x01, 0x00, 0x00, 0x00,
  0x08, 0x00, 0x00, 0x00, 0x03, 0x00, 0x00, 0x00, 0x07, 0x00, 0x00, 0x00,
  0x04, 0x00, 0x00, 0x00, 0x03, 0x00, 0x00, 0x00, 0x00, 0x00, 0x0e, 0x00,
  0x16, 0x00, 0x00, 0x00, 0x10, 0x00, 0x0c, 0x00, 0x0b, 0x00, 0x04, 0x00,
  0x0e, 0x00, 0x00, 0x00, 0x18, 0x00, 0x00, 0x00, 0x00, 0x00, 0x00, 0x08,
  0x18, 0x00, 0x00, 0x00, 0x1c, 0x00, 0x00, 0x00, 0x00, 0x00, 0x06, 0x00,
  0x08, 0x00, 0x07, 0x00, 0x06, 0x00, 0x00, 0x00, 0x00, 0x00, 0x00, 0x01,
  0x01, 0x00, 0x00, 0x00, 0x07, 0x00, 0x00, 0x00, 0x03, 0x00, 0x00, 0x00,
  0x00, 0x00, 0x00, 0x00, 0x06, 0x00, 0x00, 0x00, 0x05, 0x00, 0x00, 0x00,
  0x01, 0x00, 0x00, 0x00, 0x0a, 0x00, 0x00, 0x00, 0x01, 0x00, 0x00, 0x00,
  0x00, 0x00, 0x00, 0x00, 0x0b, 0x00, 0x00, 0x00, 0x68, 0x05, 0x00, 0x00,
  0xd8, 0x04, 0x00, 0x00, 0x54, 0x04, 0x00, 0x00, 0xd8, 0x03, 0x00, 0x00,
  0x6c, 0x03, 0x00, 0x00, 0xf0, 0x02, 0x00, 0x00, 0x84, 0x02, 0x00, 0x00,
  0xd0, 0x01, 0x00, 0x00, 0x1c, 0x01, 0x00, 0x00, 0x80, 0x00, 0x00, 0x00,
  0x04, 0x00, 0x00, 0x00, 0xda, 0xfa, 0xff, 0xff, 0x00, 0x00, 0x00, 0x01,
  0x18, 0x00, 0x00, 0x00, 0x20, 0x00, 0x00, 0x00, 0x3c, 0x00, 0x00, 0x00,
  0x0b, 0x00, 0x00, 0x00, 0x00, 0x00, 0x00, 0x09, 0x50, 0x00, 0x00, 0x00,
  0x02, 0x00, 0x00, 0x00, 0xff, 0xff, 0xff, 0xff, 0x07, 0x00, 0x00, 0x00,
  0xc4, 0xfa, 0xff, 0xff, 0x08, 0x00, 0x00, 0x00, 0x10, 0x00, 0x00, 0x00,
  0x01, 0x00, 0x00, 0x00, 0x80, 0xff, 0xff, 0xff, 0xff, 0xff, 0xff, 0xff,
  0x01, 0x00, 0x00, 0x00, 0x00, 0x00, 0x80, 0x3b, 0x19, 0x00, 0x00, 0x00,
  0x53, 0x74, 0x61, 0x74, 0x65, 0x66, 0x75, 0x6c, 0x50, 0x61, 0x72, 0x74,
  0x69, 0x74, 0x69, 0x6f, 0x6e, 0x65, 0x64, 0x43, 0x61, 0x6c, 0x6c, 0x3a,
  0x30, 0x00, 0x00, 0x00, 0x02, 0x00, 0x00, 0x00, 0x01, 0x00, 0x00, 0x00,
  0x07, 0x00, 0x00, 0x00, 0x52, 0xfb, 0xff, 0xff, 0x00, 0x00, 0x00, 0x01,
  0x18, 0x00, 0x00, 0x00, 0x20, 0x00, 0x00, 0x00, 0x3c, 0x00, 0x00, 0x00,
  0x0a, 0x00, 0x00, 0x00, 0x00, 0x00, 0x00, 0x09, 0x70, 0x00, 0x00, 0x00,
  0x02, 0x00, 0x00, 0x00, 0xff, 0xff, 0xff, 0xff, 0x07, 0x00, 0x00, 0x00,
  0x3c, 0xfb, 0xff, 0xff, 0x08, 0x00, 0x00, 0x00, 0x10, 0x00, 0x00, 0x00,
  0x01, 0x00, 0x00, 0x00, 0x1f, 0x00, 0x00, 0x00, 0x00, 0x00, 0x00, 0x00,
  0x01, 0x00, 0x00, 0x00, 0x78, 0xfa, 0x88, 0x3e, 0x38, 0x00, 0x00, 0x00,
  0x73, 0x65, 0x71, 0x75, 0x65, 0x6e, 0x74, 0x69, 0x61, 0x6c, 0x5f, 0x32,
  0x2f, 0x64, 0x65, 0x6e, 0x73, 0x65, 0x5f, 0x38, 0x2f, 0x4d, 0x61, 0x74,
  0x4d, 0x75, 0x6c, 0x3b, 0x73, 0x65, 0x71, 0x75, 0x65, 0x6e, 0x74, 0x69,
  0x61, 0x6c, 0x5f, 0x32, 0x2f, 0x64, 0x65, 0x6e, 0x73, 0x65, 0x5f, 0x38,
  0x2f, 0x42, 0x69, 0x61, 0x73, 0x41, 0x64, 0x64, 0x00, 0x00, 0x00, 0x00,
  0x02, 0x00, 0x00, 0x00, 0x01, 0x00, 0x00, 0x00, 0x07, 0x00, 0x00, 0x00,
  0xea, 0xfb, 0xff, 0xff, 0x00, 0x00, 0x00, 0x01, 0x18, 0x00, 0x00, 0x00,
  0x20, 0x00, 0x00, 0x00, 0x3c, 0x00, 0x00, 0x00, 0x09, 0x00, 0x00, 0x00,
  0x00, 0x00, 0x00, 0x09, 0x88, 0x00, 0x00, 0x00, 0x02, 0x00, 0x00, 0x00,
  0xff, 0xff, 0xff, 0xff, 0x10, 0x00, 0x00, 0x00, 0xd4, 0xfb, 0xff, 0xff,
  0x08, 0x00, 0x00, 0x00, 0x10, 0x00, 0x00, 0x00, 0x01, 0x00, 0x00, 0x00,
  0x80, 0xff, 0xff, 0xff, 0xff, 0xff, 0xff, 0xff, 0x01, 0x00, 0x00, 0x00,
  0x91, 0xaa, 0x82, 0x3d, 0x52, 0x00, 0x00, 0x00, 0x73, 0x65, 0x71, 0x75,
  0x65, 0x6e, 0x74, 0x69, 0x61, 0x6c, 0x5f, 0x32, 0x2f, 0x64, 0x65, 0x6e,
  0x73, 0x65, 0x5f, 0x37, 0x2f, 0x4d, 0x61, 0x74, 0x4d, 0x75, 0x6c, 0x3b,
  0x73, 0x65, 0x71, 0x75, 0x65, 0x6e, 0x74, 0x69, 0x61, 0x6c, 0x5f, 0x32,
  0x2f, 0x64, 0x65, 0x6e, 0x73, 0x65, 0x5f, 0x37, 0x2f, 0x52, 0x65, 0x6c,
  0x75, 0x3b, 0x73, 0x65, 0x71, 0x75, 0x65, 0x6e, 0x74, 0x69, 0x61, 0x6c,
  0x5f, 0x32, 0x2f, 0x64, 0x65, 0x6e, 0x73, 0x65, 0x5f, 0x37, 0x2f, 0x42,
  0x69, 0x61, 0x73, 0x41, 0x64, 0x64, 0x00, 0x00, 0x02, 0x00, 0x00, 0x00,
  0x01, 0x00, 0x00, 0x00, 0x10, 0x00, 0x00, 0x00, 0x9a, 0xfc, 0xff, 0xff,
  0x00, 0x00, 0x00, 0x01, 0x18, 0x00, 0x00, 0x00, 0x20, 0x00, 0x00, 0x00,
  0x3c, 0x00, 0x00, 0x00, 0x08, 0x00, 0x00, 0x00, 0x00, 0x00, 0x00, 0x09,
  0x88, 0x00, 0x00, 0x00, 0x02, 0x00, 0x00, 0x00, 0xff, 0xff, 0xff, 0xff,
  0x20, 0x00, 0x00, 0x00, 0x84, 0xfc, 0xff, 0xff, 0x08, 0x00, 0x00, 0x00,
  0x10, 0x00, 0x00, 0x00, 0x01, 0x00, 0x00, 0x00, 0x80, 0xff, 0xff, 0xff,
  0xff, 0xff, 0xff, 0xff, 0x01, 0x00, 0x00, 0x00, 0x1b, 0x22, 0x9d, 0x3c,
  0x52, 0x00, 0x00, 0x00, 0x73, 0x65, 0x71, 0x75, 0x65, 0x6e, 0x74, 0x69,
  0x61, 0x6c, 0x5f, 0x32, 0x2f, 0x64, 0x65, 0x6e, 0x73, 0x65, 0x5f, 0x36,
  0x2f, 0x4d, 0x61, 0x74, 0x4d, 0x75, 0x6c, 0x3b, 0x73, 0x65, 0x71, 0x75,
  0x65, 0x6e, 0x74, 0x69, 0x61, 0x6c, 0x5f, 0x32, 0x2f, 0x64, 0x65, 0x6e,
  0x73, 0x65, 0x5f, 0x36, 0x2f, 0x52, 0x65, 0x6c, 0x75, 0x3b, 0x73, 0x65,
  0x71, 0x75, 0x65, 0x6e, 0x74, 0x69, 0x61, 0x6c, 0x5f, 0x32, 0x2f, 0x64,
  0x65, 0x6e, 0x73, 0x65, 0x5f, 0x36, 0x2f, 0x42, 0x69, 0x61, 0x73, 0x41,
  0x64, 0x64, 0x00, 0x00, 0x02, 0x00, 0x00, 0x00, 0x01, 0x00, 0x00, 0x00,
  0x20, 0x00, 0x00, 0x00, 0xd6, 0xfd, 0xff, 0xff, 0x00, 0x00, 0x00, 0x01,
  0x14, 0x00, 0x00, 0x00, 0x30, 0x00, 0x00, 0x00, 0x07, 0x00, 0x00, 0x00,
  0x00, 0x00, 0x00, 0x09, 0x44, 0x00, 0x00, 0x00, 0x24, 0xfd, 0xff, 0xff,
  0x08, 0x00, 0x00, 0x00, 0x10, 0x00, 0x00, 0x00, 0x01, 0x00, 0x00, 0x00,
  0x00, 0x00, 0x00, 0x00, 0x00, 0x00, 0x00, 0x00, 0x01, 0x00, 0x00, 0x00,
  0x8d, 0xd0, 0x10, 0x3c, 0x1b, 0x00, 0x00, 0x00, 0x73, 0x65, 0x71, 0x75,
  0x65, 0x6e, 0x74, 0x69, 0x61, 0x6c, 0x5f, 0x32, 0x2f, 0x64, 0x65, 0x6e,
  0x73, 0x65, 0x5f, 0x36, 0x2f, 0x4d, 0x61, 0x74, 0x4d, 0x75, 0x6c, 0x00,
  0x02, 0x00, 0x00, 0x00, 0x20, 0x00, 0x00, 0x00, 0x09, 0x00, 0x00, 0x00,
  0x3e, 0xfe, 0xff, 0xff, 0x00, 0x00, 0x00, 0x01, 0x14, 0x00, 0x00, 0x00,
  0x34, 0x00, 0x00, 0x00, 0x06, 0x00, 0x00, 0x00, 0x00, 0x00, 0x00, 0x02,
  0x58, 0x00, 0x00, 0x00, 0x8c, 0xfd, 0xff, 0xff, 0x08, 0x00, 0x00, 0x00,
  0x14, 0x00, 0x00, 0x00, 0x01, 0x00, 0x00, 0x00, 0x00, 0x00, 0x00, 0x00,
  0x00, 0x00, 0x00, 0x00, 0x00, 0x00, 0x00, 0x00, 0x01, 0x00, 0x00, 0x00,
  0xda, 0x7b, 0x8a, 0x39, 0x2b, 0x00, 0x00, 0x00, 0x73, 0x65, 0x71, 0x75,
  0x65, 0x6e, 0x74, 0x69, 0x61, 0x6c, 0x5f, 0x32, 0x2f, 0x64, 0x65, 0x6e,
  0x73, 0x65, 0x5f, 0x36, 0x2f, 0x42, 0x69, 0x61, 0x73, 0x41, 0x64, 0x64,
  0x2f, 0x52, 0x65, 0x61, 0x64, 0x56, 0x61, 0x72, 0x69, 0x61, 0x62, 0x6c,
  0x65, 0x4f, 0x70, 0x00, 0x01, 0x00, 0x00, 0x00, 0x20, 0x00, 0x00, 0x00,
  0xb6, 0xfe, 0xff, 0xff, 0x00, 0x00, 0x00, 0x01, 0x14, 0x00, 0x00, 0x00,
  0x30, 0x00, 0x00, 0x00, 0x05, 0x00, 0x00, 0x00, 0x00, 0x00, 0x00, 0x09,
  0x44, 0x00, 0x00, 0x00, 0x04, 0xfe, 0xff, 0xff, 0x08, 0x00, 0x00, 0x00,
  0x10, 0x00, 0x00, 0x00, 0x01, 0x00, 0x00, 0x00, 0x00, 0x00, 0x00, 0x00,
  0x00, 0x00, 0x00, 0x00, 0x01, 0x00, 0x00, 0x00, 0x95, 0x74, 0x1b, 0x3c,
  0x1b, 0x00, 0x00, 0x00, 0x73, 0x65, 0x71, 0x75, 0x65, 0x6e, 0x74, 0x69,
  0x61, 0x6c, 0x5f, 0x32, 0x2f, 0x64, 0x65, 0x6e, 0x73, 0x65, 0x5f, 0x37,
  0x2f, 0x4d, 0x61, 0x74, 0x4d, 0x75, 0x6c, 0x00, 0x02, 0x00, 0x00, 0x00,
  0x10, 0x00, 0x00, 0x00, 0x20, 0x00, 0x00, 0x00, 0x1e, 0xff, 0xff, 0xff,
  0x00, 0x00, 0x00, 0x01, 0x14, 0x00, 0x00, 0x00, 0x34, 0x00, 0x00, 0x00,
  0x04, 0x00, 0x00, 0x00, 0x00, 0x00, 0x00, 0x02, 0x58, 0x00, 0x00, 0x00,
  0x6c, 0xfe, 0xff, 0xff, 0x08, 0x00, 0x00, 0x00, 0x14, 0x00, 0x00, 0x00,
  0x01, 0x00, 0x00, 0x00, 0x00, 0x00, 0x00, 0x00, 0x00, 0x00, 0x00, 0x00,
  0x00, 0x00, 0x00, 0x00, 0x01, 0x00, 0x00, 0x00, 0x6b, 0xd6, 0x3e, 0x39,
  0x2b, 0x00, 0x00, 0x00, 0x73, 0x65, 0x71, 0x75, 0x65, 0x6e, 0x74, 0x69,
  0x61, 0x6c, 0x5f, 0x32, 0x2f, 0x64, 0x65, 0x6e, 0x73, 0x65, 0x5f, 0x37,
  0x2f, 0x42, 0x69, 0x61, 0x73, 0x41, 0x64, 0x64, 0x2f, 0x52, 0x65, 0x61,
  0x64, 0x56, 0x61, 0x72, 0x69, 0x61, 0x62, 0x6c, 0x65, 0x4f, 0x70, 0x00,
  0x01, 0x00, 0x00, 0x00, 0x10, 0x00, 0x00, 0x00, 0x96, 0xff, 0xff, 0xff,
  0x00, 0x00, 0x00, 0x01, 0x14, 0x00, 0x00, 0x00, 0x30, 0x00, 0x00, 0x00,
  0x03, 0x00, 0x00, 0x00, 0x00, 0x00, 0x00, 0x09, 0x44, 0x00, 0x00, 0x00,
  0xe4, 0xfe, 0xff, 0xff, 0x08, 0x00, 0x00, 0x00, 0x10, 0x00, 0x00, 0x00,
  0x01, 0x00, 0x00, 0x00, 0x00, 0x00, 0x00, 0x00, 0x00, 0x00, 0x00, 0x00,
  0x01, 0x00, 0x00, 0x00, 0x66, 0xaa, 0x3d, 0x3c, 0x1b, 0x00, 0x00, 0x00,
  0x73, 0x65, 0x71, 0x75, 0x65, 0x6e, 0x74, 0x69, 0x61, 0x6c, 0x5f, 0x32,
  0x2f, 0x64, 0x65, 0x6e, 0x73, 0x65, 0x5f, 0x38, 0x2f, 0x4d, 0x61, 0x74,
  0x4d, 0x75, 0x6c, 0x00, 0x02, 0x00, 0x00, 0x00, 0x07, 0x00, 0x00, 0x00,
  0x10, 0x00, 0x00, 0x00, 0x00, 0x00, 0x16, 0x00, 0x1c, 0x00, 0x18, 0x00,
  0x17, 0x00, 0x10, 0x00, 0x0c, 0x00, 0x08, 0x00, 0x00, 0x00, 0x00, 0x00,
  0x00, 0x00, 0x07, 0x00, 0x16, 0x00, 0x00, 0x00, 0x00, 0x00, 0x00, 0x01,
  0x14, 0x00, 0x00, 0x00, 0x30, 0x00, 0x00, 0x00, 0x02, 0x00, 0x00, 0x00,
  0x00, 0x00, 0x00, 0x02, 0x54, 0x00, 0x00, 0x00, 0x64, 0xff, 0xff, 0xff,
  0x08, 0x00, 0x00, 0x00, 0x10, 0x00, 0x00, 0x00, 0x01, 0x00, 0x00, 0x00,
  0x00, 0x00, 0x00, 0x00, 0x00, 0x00, 0x00, 0x00, 0x01, 0x00, 0x00, 0x00,
  0xcd, 0x9d, 0x41, 0x3a, 0x2b, 0x00, 0x00, 0x00, 0x73, 0x65, 0x71, 0x75,
  0x65, 0x6e, 0x74, 0x69, 0x61, 0x6c, 0x5f, 0x32, 0x2f, 0x64, 0x65, 0x6e,
  0x73, 0x65, 0x5f, 0x38, 0x2f, 0x42, 0x69, 0x61, 0x73, 0x41, 0x64, 0x64,
  0x2f, 0x52, 0x65, 0x61, 0x64, 0x56, 0x61, 0x72, 0x69, 0x61, 0x62, 0x6c,
  0x65, 0x4f, 0x70, 0x00, 0x01, 0x00, 0x00, 0x00, 0x07, 0x00, 0x00, 0x00,
  0x00, 0x00, 0x16, 0x00, 0x20, 0x00, 0x1c, 0x00, 0x1b, 0x00, 0x14, 0x00,
  0x10, 0x00, 0x0c, 0x00, 0x00, 0x00, 0x00, 0x00, 0x08, 0x00, 0x07, 0x00,
  0x16, 0x00, 0x00, 0x00, 0x00, 0x00, 0x00, 0x01, 0x18, 0x00, 0x00, 0x00,
  0x2c, 0x00, 0x00, 0x00, 0x4c, 0x00, 0x00, 0x00, 0x01, 0x00, 0x00, 0x00,
  0x00, 0x00, 0x00, 0x09, 0x60, 0x00, 0x00, 0x00, 0x02, 0x00, 0x00, 0x00,
  0xff, 0xff, 0xff, 0xff, 0x09, 0x00, 0x00, 0x00, 0x0c, 0x00, 0x0c, 0x00,
  0x00, 0x00, 0x00, 0x00, 0x08, 0x00, 0x04, 0x00, 0x0c, 0x00, 0x00, 0x00,
  0x08, 0x00, 0x00, 0x00, 0x14, 0x00, 0x00, 0x00, 0x01, 0x00, 0x00, 0x00,
  0xfc, 0xff, 0xff, 0xff, 0xff, 0xff, 0xff, 0xff, 0x00, 0x00, 0x00, 0x00,
  0x01, 0x00, 0x00, 0x00, 0xf7, 0xce, 0xf4, 0x3c, 0x19, 0x00, 0x00, 0x00,
  0x73, 0x65, 0x72, 0x76, 0x69, 0x6e, 0x67, 0x5f, 0x64, 0x65, 0x66, 0x61,
  0x75, 0x6c, 0x74, 0x5f, 0x69, 0x6e, 0x70, 0x75, 0x74, 0x5f, 0x32, 0x3a,
  0x30, 0x00, 0x00, 0x00, 0x02, 0x00, 0x00, 0x00, 0x01, 0x00, 0x00, 0x00,
  0x09, 0x00, 0x00, 0x00, 0x02, 0x00, 0x00, 0x00, 0x24, 0x00, 0x00, 0x00,
  0x04, 0x00, 0x00, 0x00, 0xf0, 0xff, 0xff, 0xff, 0x19, 0x00, 0x00, 0x00,
  0x02, 0x00, 0x00, 0x00, 0x00, 0x00, 0x00, 0x19, 0x0c, 0x00, 0x10, 0x00,
  0x0f, 0x00, 0x00, 0x00, 0x08, 0x00, 0x04, 0x00, 0x0c, 0x00, 0x00, 0x00,
  0x09, 0x00, 0x00, 0x00, 0x04, 0x00, 0x00, 0x00, 0x00, 0x00, 0x00, 0x09
};
unsigned int motor_fault_model_quantized_len = 3648;
const char* fault_labels[NUM_CLASSES] = 
    {
    "Normal",
    "Imbalance",
    "Misalignment",
    "Bearing Fault",
    "Mechanical Looseness",
    "Overload",
    "Overheat"
    };
const uint8_t* getfaultmodel()
{
    return motor_fault_model_quantized;
}
const unsigned short int getfaultmodellength()
{
    return motor_fault_model_quantized_len;
}
const char** getfaultlabels()
{
    return fault_labels;
}
const float scaler_mean[9] = {
  0.0599141163,   // ax
  0.0468072370,   // ay
  0.0421709463,   // az
  0.277288616,    // gx
  0.262001281,    // gy
  0.281187325,    // gz
  43.4209505,     // temp
  2.16994154,     // current
  1476.02631      // rpm
};

const float scaler_std[9] = {
  0.12853713,     // ax
  0.1281364,      // ay
  0.12954736,     // az
  1.33143455,     // gx
  1.31496109,     // gy
  1.33515316,     // gz
  6.59782181,     // temp
  0.43492526,     // current
  58.00813606     // rpm
};
const float* getscalermean()
{
    return scaler_mean;
}
const float* getscalerstd()
{
    return scaler_std;
}
