unsigned char model_tflite[] = {
  0x20, 0x00, 0x00, 0x00, 0x54, 0x46, 0x4c, 0x33, 0x00, 0x00, 0x00, 0x00,
  0x14, 0x00, 0x20, 0x00, 0x1c, 0x00, 0x18, 0x00, 0x14, 0x00, 0x10, 0x00,
  0x0c, 0x00, 0x00, 0x00, 0x08, 0x00, 0x04, 0x00, 0x14, 0x00, 0x00, 0x00,
  0x1c, 0x00, 0x00, 0x00, 0x98, 0x00, 0x00, 0x00, 0xf0, 0x00, 0x00, 0x00,
  0xcc, 0x16, 0x00, 0x00, 0xdc, 0x16, 0x00, 0x00, 0x58, 0x24, 0x00, 0x00,
  0x03, 0x00, 0x00, 0x00, 0x01, 0x00, 0x00, 0x00, 0x10, 0x00, 0x00, 0x00,
  0x00, 0x00, 0x0a, 0x00, 0x10, 0x00, 0x0c, 0x00, 0x08, 0x00, 0x04, 0x00,
  0x0a, 0x00, 0x00, 0x00, 0x0c, 0x00, 0x00, 0x00, 0x1c, 0x00, 0x00, 0x00,
  0x3c, 0x00, 0x00, 0x00, 0x0f, 0x00, 0x00, 0x00, 0x73, 0x65, 0x72, 0x76,
  0x69, 0x6e, 0x67, 0x5f, 0x64, 0x65, 0x66, 0x61, 0x75, 0x6c, 0x74, 0x00,
  0x01, 0x00, 0x00, 0x00, 0x04, 0x00, 0x00, 0x00, 0x90, 0xff, 0xff, 0xff,
  0x16, 0x00, 0x00, 0x00, 0x04, 0x00, 0x00, 0x00, 0x09, 0x00, 0x00, 0x00,
  0x72, 0x65, 0x73, 0x68, 0x61, 0x70, 0x65, 0x5f, 0x32, 0x00, 0x00, 0x00,
  0x01, 0x00, 0x00, 0x00, 0x04, 0x00, 0x00, 0x00, 0xf6, 0xe8, 0xff, 0xff,
  0x04, 0x00, 0x00, 0x00, 0x0f, 0x00, 0x00, 0x00, 0x66, 0x6c, 0x61, 0x74,
  0x74, 0x65, 0x6e, 0x5f, 0x32, 0x5f, 0x69, 0x6e, 0x70, 0x75, 0x74, 0x00,
  0x02, 0x00, 0x00, 0x00, 0x34, 0x00, 0x00, 0x00, 0x04, 0x00, 0x00, 0x00,
  0xdc, 0xff, 0xff, 0xff, 0x19, 0x00, 0x00, 0x00, 0x04, 0x00, 0x00, 0x00,
  0x13, 0x00, 0x00, 0x00, 0x43, 0x4f, 0x4e, 0x56, 0x45, 0x52, 0x53, 0x49,
  0x4f, 0x4e, 0x5f, 0x4d, 0x45, 0x54, 0x41, 0x44, 0x41, 0x54, 0x41, 0x00,
  0x08, 0x00, 0x0c, 0x00, 0x08, 0x00, 0x04, 0x00, 0x08, 0x00, 0x00, 0x00,
  0x18, 0x00, 0x00, 0x00, 0x04, 0x00, 0x00, 0x00, 0x13, 0x00, 0x00, 0x00,
  0x6d, 0x69, 0x6e, 0x5f, 0x72, 0x75, 0x6e, 0x74, 0x69, 0x6d, 0x65, 0x5f,
  0x76, 0x65, 0x72, 0x73, 0x69, 0x6f, 0x6e, 0x00, 0x1a, 0x00, 0x00, 0x00,
  0xd8, 0x15, 0x00, 0x00, 0xd0, 0x15, 0x00, 0x00, 0xb8, 0x15, 0x00, 0x00,
  0xa4, 0x15, 0x00, 0x00, 0x90, 0x15, 0x00, 0x00, 0x88, 0x15, 0x00, 0x00,
  0x74, 0x15, 0x00, 0x00, 0x64, 0x14, 0x00, 0x00, 0x54, 0x0c, 0x00, 0x00,
  0xc4, 0x0b, 0x00, 0x00, 0xb4, 0x0a, 0x00, 0x00, 0x84, 0x0a, 0x00, 0x00,
  0x74, 0x09, 0x00, 0x00, 0xe4, 0x08, 0x00, 0x00, 0xd4, 0x00, 0x00, 0x00,
  0xcc, 0x00, 0x00, 0x00, 0xc4, 0x00, 0x00, 0x00, 0xbc, 0x00, 0x00, 0x00,
  0xb4, 0x00, 0x00, 0x00, 0xac, 0x00, 0x00, 0x00, 0xa4, 0x00, 0x00, 0x00,
  0x9c, 0x00, 0x00, 0x00, 0x94, 0x00, 0x00, 0x00, 0x8c, 0x00, 0x00, 0x00,
  0x6c, 0x00, 0x00, 0x00, 0x04, 0x00, 0x00, 0x00, 0xda, 0xe9, 0xff, 0xff,
  0x04, 0x00, 0x00, 0x00, 0x58, 0x00, 0x00, 0x00, 0x0c, 0x00, 0x00, 0x00,
  0x08, 0x00, 0x0e, 0x00, 0x08, 0x00, 0x04, 0x00, 0x08, 0x00, 0x00, 0x00,
  0x10, 0x00, 0x00, 0x00, 0x28, 0x00, 0x00, 0x00, 0x00, 0x00, 0x06, 0x00,
  0x08, 0x00, 0x04, 0x00, 0x06, 0x00, 0x00, 0x00, 0x04, 0x00, 0x00, 0x00,
  0x01, 0x00, 0x00, 0x00, 0xeb, 0x03, 0x00, 0x00, 0x00, 0x00, 0x0a, 0x00,
  0x10, 0x00, 0x0c, 0x00, 0x08, 0x00, 0x04, 0x00, 0x0a, 0x00, 0x00, 0x00,
  0x02, 0x00, 0x00, 0x00, 0x02, 0x00, 0x00, 0x00, 0x04, 0x00, 0x00, 0x00,
  0x06, 0x00, 0x00, 0x00, 0x32, 0x2e, 0x31, 0x33, 0x2e, 0x31, 0x00, 0x00,
  0x3e, 0xea, 0xff, 0xff, 0x04, 0x00, 0x00, 0x00, 0x10, 0x00, 0x00, 0x00,
  0x31, 0x2e, 0x31, 0x34, 0x2e, 0x30, 0x00, 0x00, 0x00, 0x00, 0x00, 0x00,
  0x00, 0x00, 0x00, 0x00, 0x58, 0xde, 0xff, 0xff, 0x5c, 0xde, 0xff, 0xff,
  0x60, 0xde, 0xff, 0xff, 0x64, 0xde, 0xff, 0xff, 0x68, 0xde, 0xff, 0xff,
  0x6c, 0xde, 0xff, 0xff, 0x70, 0xde, 0xff, 0xff, 0x74, 0xde, 0xff, 0xff,
  0x78, 0xde, 0xff, 0xff, 0x7e, 0xea, 0xff, 0xff, 0x04, 0x00, 0x00, 0x00,
  0x00, 0x08, 0x00, 0x00, 0xfd, 0x32, 0xf3, 0x4e, 0x29, 0x2a, 0x26, 0x2e,
  0x3d, 0xef, 0xf3, 0x38, 0x18, 0xe5, 0x09, 0x11, 0x13, 0x15, 0x1d, 0x2a,
  0x12, 0x38, 0xd2, 0x26, 0x40, 0x44, 0x2f, 0x12, 0x23, 0x31, 0x21, 0xfa,
  0xf5, 0x2c, 0x22, 0xf2, 0xf0, 0x25, 0x16, 0xf6, 0x03, 0x3f, 0x11, 0xe7,
  0xdf, 0x2a, 0x4b, 0x4f, 0x09, 0xe4, 0xe8, 0x50, 0xff, 0xf0, 0x0a, 0xb8,
  0xef, 0x1c, 0x22, 0xf5, 0xf5, 0x3b, 0xde, 0xd3, 0x13, 0xfc, 0xce, 0x1a,
  0xcf, 0x20, 0x08, 0x38, 0xc4, 0x1b, 0xc1, 0x3f, 0x2c, 0xde, 0x1e, 0x3a,
  0x0a, 0xc7, 0xdc, 0xd4, 0x13, 0xda, 0xc1, 0xda, 0xe5, 0xc5, 0x2d, 0x30,
  0x04, 0xbf, 0x23, 0xd0, 0x38, 0x02, 0xed, 0xd1, 0x02, 0x2c, 0x38, 0xb7,
  0x05, 0x26, 0xec, 0x20, 0x12, 0xcc, 0xbc, 0x0f, 0x1a, 0xf0, 0xdd, 0xd0,
  0xfd, 0x21, 0xf1, 0xfd, 0xf5, 0x31, 0xce, 0x04, 0x1f, 0x1b, 0xbf, 0x00,
  0x28, 0xf3, 0x59, 0x00, 0xf8, 0x02, 0x11, 0xfa, 0x12, 0x0a, 0x5a, 0x27,
  0xbb, 0xcf, 0xfb, 0x7f, 0xfc, 0xe4, 0xdd, 0xd1, 0x0e, 0x25, 0xce, 0xd3,
  0x13, 0xf5, 0x17, 0x1f, 0xef, 0xee, 0xf7, 0x1f, 0xe7, 0x2d, 0xea, 0xff,
  0x6c, 0x33, 0x06, 0x03, 0xde, 0x13, 0x37, 0x29, 0xfc, 0x0a, 0x43, 0xd5,
  0xfc, 0x27, 0x37, 0xcb, 0x08, 0x12, 0x01, 0xd3, 0xd8, 0xdb, 0x25, 0xdf,
  0x08, 0xf7, 0xd4, 0xab, 0xd6, 0xc3, 0x20, 0xc1, 0x33, 0x17, 0x3b, 0x21,
  0x1d, 0xde, 0x42, 0xc9, 0xd5, 0xf7, 0xf9, 0x02, 0xf5, 0x01, 0xdd, 0xcb,
  0xfc, 0xce, 0x23, 0xf3, 0x1b, 0xd1, 0xc0, 0xc9, 0x0a, 0xcb, 0xce, 0xbc,
  0xc9, 0x35, 0x18, 0xea, 0xf4, 0xbb, 0xd5, 0xbf, 0x2c, 0xda, 0xca, 0xe3,
  0x1e, 0x27, 0x44, 0x3e, 0x14, 0x27, 0x39, 0xdb, 0x21, 0xe4, 0xe9, 0xc5,
  0x1c, 0xf9, 0xff, 0xc4, 0x40, 0xbd, 0xc8, 0x07, 0xda, 0xde, 0x22, 0xe4,
  0xdb, 0x04, 0x19, 0xf4, 0xd1, 0xc7, 0x45, 0x27, 0x4a, 0xf2, 0xe4, 0xef,
  0xfc, 0x0c, 0xf1, 0x4a, 0xde, 0x1c, 0xdd, 0x1d, 0x47, 0xdd, 0xb8, 0x20,
  0x03, 0xda, 0x39, 0x3d, 0xde, 0x1a, 0x1f, 0xff, 0xd8, 0x0b, 0x25, 0x0e,
  0xdf, 0x04, 0x18, 0x2f, 0xfc, 0x0b, 0xbd, 0x2a, 0xf5, 0xd1, 0x27, 0xd3,
  0x28, 0xf8, 0x20, 0x08, 0x64, 0x22, 0xf2, 0xf2, 0xea, 0x0d, 0x2c, 0xfa,
  0xd9, 0x3e, 0x02, 0xe7, 0xe4, 0xbb, 0x40, 0xf8, 0x32, 0xf6, 0x1d, 0x29,
  0xe9, 0x0c, 0xff, 0xe8, 0xbd, 0x06, 0xd3, 0x09, 0x36, 0x3b, 0xfd, 0xd1,
  0x34, 0xb8, 0xde, 0x2a, 0xbb, 0xd5, 0xc9, 0xc1, 0xf4, 0x23, 0xc3, 0x30,
  0x03, 0x16, 0xe8, 0xf7, 0xe7, 0x1d, 0xcd, 0xec, 0xf8, 0xf5, 0xc2, 0xe3,
  0x22, 0xe8, 0xe2, 0xcc, 0xff, 0x15, 0x3e, 0x10, 0x0b, 0x22, 0xb9, 0x3c,
  0xed, 0xc8, 0x35, 0x3e, 0x3a, 0x1b, 0xda, 0x1d, 0xd5, 0xe8, 0x41, 0xf0,
  0xd3, 0xfa, 0xcd, 0xea, 0xea, 0xe5, 0x03, 0x27, 0x38, 0xc8, 0xdc, 0x36,
  0x35, 0x43, 0x27, 0x30, 0x05, 0x35, 0xed, 0xed, 0xbd, 0xe1, 0xf1, 0xfc,
  0x25, 0x00, 0xf7, 0x26, 0xee, 0xdf, 0xf3, 0x14, 0x1a, 0x29, 0x2a, 0xf1,
  0x1e, 0xf1, 0xdc, 0x31, 0x03, 0x18, 0xd2, 0x3d, 0xc7, 0xf4, 0x36, 0xe4,
  0x37, 0x16, 0xfc, 0x07, 0x19, 0x1e, 0x21, 0xbb, 0xdc, 0xd9, 0xbe, 0x16,
  0xf9, 0xe1, 0xd2, 0xd8, 0xcd, 0x1b, 0xeb, 0xe4, 0x23, 0xe3, 0x11, 0x09,
  0xfb, 0x28, 0x11, 0xe9, 0xc5, 0xe7, 0xc5, 0x17, 0xcc, 0x3d, 0x10, 0xdf,
  0x3b, 0xd3, 0x1a, 0x28, 0xfe, 0x2a, 0xf7, 0xe9, 0xcd, 0x05, 0xf7, 0xfb,
  0xf9, 0x2e, 0xef, 0x22, 0xc2, 0x3c, 0xd9, 0xe9, 0xcc, 0x08, 0xea, 0xe3,
  0xbb, 0xe1, 0xf0, 0x15, 0x2b, 0x3f, 0xf9, 0xc3, 0x20, 0x17, 0x2f, 0x22,
  0x33, 0x1f, 0xfa, 0x0e, 0xdb, 0xd0, 0x4d, 0x20, 0x58, 0xd4, 0xdc, 0xd4,
  0x06, 0x35, 0xdd, 0xd2, 0x17, 0xe7, 0xee, 0xc5, 0x2c, 0x00, 0x32, 0x44,
  0xe1, 0xe3, 0x20, 0xc9, 0xd5, 0x16, 0x2d, 0x38, 0x13, 0x28, 0x17, 0xe6,
  0x16, 0x21, 0xe1, 0x38, 0xca, 0xf7, 0xc1, 0xc9, 0xf2, 0x25, 0x25, 0xe5,
  0x17, 0x3a, 0x35, 0x2c, 0x26, 0xd5, 0xd2, 0xee, 0x1c, 0x07, 0x00, 0x0f,
  0x42, 0x33, 0xc2, 0x03, 0xd5, 0x0e, 0xc5, 0x4b, 0x18, 0xef, 0x1d, 0xde,
  0x03, 0x09, 0x10, 0xc7, 0xcb, 0xe3, 0x0f, 0x14, 0xd4, 0x43, 0x3a, 0xfb,
  0xfb, 0x1f, 0xeb, 0xbc, 0xf1, 0x2b, 0xcc, 0xc3, 0x37, 0x21, 0xfb, 0x28,
  0xdf, 0xc6, 0xca, 0xe7, 0x10, 0x3c, 0x1b, 0xdd, 0xcd, 0x22, 0x2a, 0xf3,
  0x42, 0xfc, 0x1f, 0x24, 0x3c, 0x20, 0x1a, 0x0b, 0x2d, 0x01, 0xf9, 0x44,
  0x1f, 0x1a, 0x27, 0xc0, 0xee, 0xec, 0x12, 0x39, 0x27, 0xf3, 0x28, 0xb9,
  0xfa, 0xf5, 0x29, 0xe5, 0xd7, 0xe8, 0x2f, 0x31, 0x1a, 0x43, 0x28, 0xf6,
  0x30, 0xd8, 0xc0, 0x1d, 0x26, 0x16, 0x4d, 0x22, 0x37, 0xc8, 0xfd, 0x4c,
  0xcb, 0x19, 0x1c, 0xf6, 0xf1, 0x1c, 0xe1, 0x15, 0x35, 0xcb, 0x01, 0xfb,
  0x15, 0xde, 0x37, 0x12, 0xd8, 0xb5, 0x19, 0xcc, 0x38, 0x0d, 0xe7, 0x0a,
  0x07, 0x2d, 0x1e, 0xed, 0x22, 0xd6, 0x3f, 0x46, 0x31, 0xfd, 0x35, 0x2b,
  0x1a, 0x2f, 0x03, 0xe3, 0xaf, 0x24, 0xe1, 0xf3, 0x15, 0x2e, 0xee, 0xf9,
  0xc2, 0x73, 0xda, 0x11, 0xeb, 0x54, 0x5b, 0xfd, 0xeb, 0xed, 0x3d, 0xcc,
  0xf0, 0x3d, 0xdf, 0x20, 0xb5, 0xec, 0xf6, 0xf7, 0x46, 0xa5, 0xda, 0x26,
  0xce, 0x2a, 0xfd, 0x2a, 0x07, 0x0a, 0xcb, 0x19, 0x3b, 0x01, 0xd8, 0xd1,
  0x26, 0x42, 0xf8, 0x21, 0xcc, 0x3a, 0x6c, 0x11, 0x03, 0x37, 0xc5, 0x1c,
  0xff, 0x31, 0xe7, 0xfa, 0x3d, 0x0d, 0xf9, 0x34, 0x22, 0xf3, 0xfc, 0xfd,
  0xe0, 0x18, 0xe3, 0x1a, 0x29, 0xdb, 0xfd, 0xea, 0x3c, 0xfc, 0xbc, 0xe2,
  0x11, 0xec, 0x18, 0x2d, 0x33, 0x08, 0x3c, 0x13, 0xe3, 0x2a, 0x1b, 0xef,
  0x63, 0x07, 0x47, 0xd5, 0xef, 0xe3, 0x12, 0x39, 0xd1, 0x41, 0xe4, 0xfb,
  0xf7, 0xc9, 0x02, 0xe9, 0x19, 0xe8, 0xff, 0x31, 0xf9, 0xdf, 0x4a, 0x18,
  0xe5, 0x1d, 0x55, 0x3a, 0x3c, 0x2e, 0x32, 0xe9, 0x14, 0xc3, 0xd9, 0xf2,
  0x19, 0x3b, 0x23, 0x2b, 0x3b, 0xe5, 0xeb, 0x30, 0xbd, 0xc0, 0x2b, 0xe5,
  0xbf, 0xc4, 0xdc, 0xef, 0xfb, 0x21, 0xbe, 0xe0, 0x29, 0x13, 0x2a, 0x32,
  0xc4, 0x1d, 0x09, 0xf2, 0x04, 0xf9, 0xec, 0x0b, 0xc8, 0xe2, 0x10, 0xbf,
  0x40, 0x30, 0xf3, 0xbe, 0xd7, 0xcc, 0xc8, 0xfe, 0xd9, 0x33, 0x2f, 0xd3,
  0xdb, 0xec, 0xf3, 0xce, 0x09, 0x2f, 0xcf, 0xd8, 0xe7, 0x2c, 0x11, 0xce,
  0xcf, 0x16, 0xe1, 0x43, 0xdf, 0xf1, 0xe4, 0x51, 0x28, 0x26, 0xee, 0x36,
  0xbf, 0x07, 0x02, 0x02, 0x06, 0xfa, 0xfd, 0xfa, 0xe7, 0x35, 0x06, 0x3c,
  0xc4, 0x27, 0x07, 0xd3, 0xf8, 0xcb, 0x13, 0x28, 0xea, 0x25, 0x1b, 0x3a,
  0xfc, 0x11, 0x0d, 0x00, 0x04, 0x0e, 0xe2, 0x19, 0x42, 0x23, 0xd2, 0xe2,
  0xe7, 0x2c, 0xcd, 0x09, 0xce, 0x31, 0xd7, 0x1b, 0x47, 0x43, 0xc0, 0x3a,
  0xe5, 0x02, 0x25, 0x03, 0x01, 0xe4, 0xa1, 0xeb, 0xf1, 0x12, 0x23, 0xeb,
  0xc7, 0xfa, 0xfb, 0xec, 0xe5, 0x0b, 0xe7, 0xd3, 0xd8, 0x1b, 0x29, 0x51,
  0xfb, 0xf1, 0x21, 0x1d, 0xd3, 0x14, 0xf5, 0x30, 0x31, 0xd6, 0x19, 0x26,
  0x0c, 0x49, 0x55, 0x4e, 0x34, 0x30, 0xd2, 0x00, 0x3a, 0xfc, 0xcd, 0xf6,
  0xe8, 0x0f, 0x0a, 0x08, 0x33, 0x2b, 0xe5, 0x9f, 0x09, 0x29, 0xdf, 0xd1,
  0xf3, 0xf8, 0x0e, 0x41, 0x0a, 0x1b, 0x38, 0xcc, 0x06, 0xea, 0xf1, 0x0b,
  0x30, 0xe9, 0xef, 0x1c, 0xdc, 0xf1, 0xfe, 0x01, 0x31, 0x39, 0x14, 0x1f,
  0xcd, 0x34, 0xf4, 0x31, 0x41, 0x07, 0x4b, 0x04, 0xf6, 0x47, 0xd9, 0x2d,
  0xe8, 0x16, 0x09, 0xdc, 0xfd, 0x03, 0x21, 0x49, 0xcc, 0x2d, 0xbf, 0xfd,
  0xef, 0x24, 0x24, 0xca, 0xfa, 0xbf, 0xf3, 0xff, 0xfb, 0x18, 0xdc, 0xed,
  0xec, 0xe1, 0x29, 0xe9, 0xc6, 0x30, 0x07, 0x31, 0x43, 0xd8, 0x12, 0xf9,
  0xea, 0x32, 0xea, 0xf3, 0xd4, 0x01, 0x01, 0x0e, 0x29, 0x08, 0xe5, 0x31,
  0xcb, 0xfa, 0x41, 0x06, 0xc3, 0xea, 0x2f, 0xf9, 0x09, 0xcd, 0xf2, 0x31,
  0xc8, 0x0d, 0x03, 0xe1, 0xdb, 0x0d, 0xfc, 0x03, 0xee, 0xe7, 0xc4, 0x05,
  0x3a, 0xb8, 0xd9, 0xc7, 0xd0, 0xcd, 0xf6, 0x24, 0x15, 0xf3, 0xc7, 0x28,
  0xde, 0x1a, 0xfc, 0x37, 0xe4, 0xba, 0xcc, 0x23, 0x0b, 0xd1, 0x06, 0x23,
  0x1f, 0x3a, 0xc5, 0xfd, 0x32, 0x1e, 0xfb, 0xd6, 0xee, 0xc2, 0xfd, 0xc5,
  0xee, 0xbf, 0xbb, 0x24, 0xdd, 0xc0, 0x1a, 0x19, 0x41, 0xd7, 0x17, 0xcf,
  0x11, 0x21, 0xcf, 0xfe, 0xd7, 0xf7, 0x34, 0xd6, 0xce, 0xf9, 0x34, 0x38,
  0x12, 0xf4, 0x0e, 0x05, 0xd0, 0x18, 0x0f, 0xf9, 0xf8, 0x18, 0x40, 0xfc,
  0x28, 0xbf, 0xce, 0xf6, 0xc5, 0xdc, 0xea, 0x1c, 0xf7, 0x07, 0xd6, 0x2d,
  0xe8, 0x10, 0xd1, 0x2e, 0xd8, 0xcd, 0xe6, 0x27, 0x5a, 0xbe, 0x13, 0xd3,
  0x14, 0xdb, 0xc3, 0x15, 0xf6, 0xf0, 0x2c, 0xfc, 0x20, 0xe9, 0x15, 0x15,
  0x17, 0x20, 0xe7, 0x30, 0xf4, 0xd9, 0x4e, 0x03, 0xfa, 0xe2, 0x4c, 0x0d,
  0x2c, 0x14, 0xa5, 0x23, 0x2f, 0xe7, 0xe6, 0xcc, 0x03, 0x2b, 0x48, 0x3f,
  0xf8, 0xe6, 0xc7, 0x3c, 0x01, 0x12, 0x48, 0xee, 0x03, 0xca, 0xca, 0x37,
  0xcd, 0x37, 0x06, 0x12, 0x09, 0xe5, 0xd6, 0xca, 0x0a, 0x40, 0x36, 0x43,
  0xf5, 0xea, 0x0f, 0x3e, 0x0c, 0x02, 0x0f, 0xe8, 0xd1, 0xee, 0xfc, 0xd8,
  0xe6, 0x11, 0x13, 0x20, 0x12, 0x02, 0x0e, 0xfa, 0x0e, 0xf3, 0xf6, 0x2f,
  0x03, 0x1b, 0xed, 0xf3, 0x18, 0x17, 0x06, 0xc3, 0x35, 0x17, 0x11, 0x1a,
  0x0e, 0x35, 0x03, 0x0a, 0x32, 0x24, 0x38, 0x3a, 0x41, 0x41, 0xd2, 0x09,
  0xe6, 0x47, 0x07, 0x35, 0xfd, 0xbb, 0xd9, 0x35, 0x1a, 0xd5, 0xcd, 0x2b,
  0x1e, 0x02, 0xc0, 0x19, 0x0d, 0xd5, 0xcc, 0xf9, 0x14, 0xfd, 0xbd, 0x1c,
  0x2a, 0xcb, 0xfc, 0x1e, 0x18, 0xf0, 0xd7, 0xe7, 0x3d, 0xbe, 0xbe, 0xd5,
  0x3a, 0x31, 0xc2, 0xdf, 0xfc, 0xeb, 0x1a, 0x1a, 0x44, 0xfc, 0x24, 0x1f,
  0x2c, 0xfb, 0xe8, 0x0e, 0xe4, 0x0b, 0xfd, 0x0b, 0x13, 0xda, 0x01, 0xe0,
  0xcc, 0xef, 0xf8, 0xfa, 0x00, 0xcc, 0x28, 0x19, 0xc9, 0xd5, 0x00, 0xe7,
  0xd4, 0xe1, 0x3e, 0x43, 0xc1, 0xbd, 0xfa, 0x45, 0x2a, 0x1a, 0x36, 0xc3,
  0x0f, 0x33, 0x44, 0xd6, 0xdd, 0xc3, 0x10, 0xd6, 0x1a, 0xbe, 0xcf, 0xfe,
  0xc8, 0xe0, 0x10, 0xc8, 0xeb, 0xee, 0xc1, 0x06, 0x18, 0xf1, 0x16, 0xda,
  0xe4, 0xe2, 0xdb, 0x1e, 0x12, 0x24, 0x13, 0x0e, 0x25, 0xbf, 0x31, 0x3f,
  0x03, 0x00, 0xc4, 0xd0, 0xc0, 0x15, 0xc2, 0x12, 0xd6, 0xe3, 0x22, 0x09,
  0xd8, 0xc5, 0x1e, 0x06, 0x26, 0xfb, 0xc9, 0x3d, 0xdf, 0x38, 0xbd, 0x05,
  0x1d, 0x22, 0xee, 0xe6, 0x0f, 0xfa, 0x25, 0x27, 0x51, 0x2f, 0xdb, 0xc1,
  0x28, 0xe7, 0xf2, 0x24, 0xf3, 0xee, 0x27, 0x2f, 0x2d, 0x31, 0xcf, 0x0c,
  0xed, 0x29, 0x38, 0x1e, 0xfb, 0xb7, 0x06, 0x36, 0xea, 0x39, 0x19, 0x2a,
  0xf5, 0xc8, 0xe8, 0x29, 0x21, 0xf2, 0xd9, 0x01, 0xf1, 0x17, 0xf2, 0x24,
  0x24, 0xe6, 0x43, 0xe9, 0x21, 0xfe, 0x1e, 0x3c, 0x15, 0xfa, 0x10, 0x1f,
  0x14, 0xe4, 0x21, 0xfa, 0x13, 0x0d, 0x35, 0x2e, 0xf2, 0x06, 0x49, 0xfc,
  0x14, 0x08, 0xff, 0x4a, 0x3c, 0x11, 0x1b, 0xea, 0xcb, 0x14, 0x58, 0x0f,
  0xc2, 0xd7, 0x2a, 0xf8, 0xf5, 0x29, 0x27, 0xf2, 0x1d, 0x20, 0x27, 0xd3,
  0x28, 0xcb, 0x23, 0xde, 0x3c, 0x4e, 0x1c, 0xe5, 0xf5, 0x0a, 0xe0, 0xb4,
  0x17, 0xea, 0xa0, 0x15, 0x09, 0x30, 0xf0, 0xf6, 0xdc, 0x31, 0x1a, 0x3d,
  0x2c, 0xeb, 0xb5, 0x10, 0x24, 0x35, 0xfd, 0x0c, 0xed, 0xdb, 0x2d, 0xd0,
  0x17, 0x34, 0xce, 0xe8, 0x17, 0x36, 0xf5, 0x2f, 0xd2, 0xcf, 0xda, 0x24,
  0xbd, 0x38, 0x0b, 0xf8, 0xbc, 0xe5, 0x31, 0x06, 0xfd, 0x37, 0xfc, 0x3b,
  0xbf, 0x31, 0xfe, 0xbf, 0xdc, 0x21, 0xd0, 0x05, 0xf6, 0xca, 0xba, 0xeb,
  0xb9, 0xbd, 0x23, 0x05, 0xc5, 0x2a, 0xe9, 0x02, 0x0e, 0xf5, 0xbc, 0xbd,
  0xfb, 0x38, 0xc6, 0x33, 0x2d, 0xd2, 0x14, 0x1d, 0x05, 0x40, 0x1b, 0x06,
  0x16, 0x0e, 0xf1, 0xe0, 0xd3, 0xfa, 0xdc, 0xe8, 0x1b, 0xe6, 0x34, 0xd1,
  0xbb, 0x1e, 0xe6, 0xe4, 0x40, 0x30, 0xe5, 0x1b, 0xff, 0x28, 0xde, 0xbf,
  0xd0, 0x03, 0x15, 0x09, 0xda, 0x3b, 0xf8, 0xc0, 0xc0, 0xda, 0x02, 0xc9,
  0xc3, 0xed, 0xe9, 0xe5, 0x39, 0xc4, 0xcf, 0x2d, 0x2e, 0xcc, 0xc7, 0xe8,
  0xc4, 0x1e, 0x3a, 0xcb, 0x2c, 0x1b, 0xf9, 0x1c, 0xf8, 0xe3, 0xfe, 0xef,
  0x0f, 0x2d, 0x28, 0x2a, 0xea, 0xf0, 0xdd, 0x0a, 0xfa, 0xf7, 0x22, 0x36,
  0x02, 0xc6, 0xd6, 0xe7, 0xcf, 0x1a, 0xf3, 0x1a, 0xf3, 0x3e, 0xcb, 0xe4,
  0xeb, 0xd9, 0xff, 0xeb, 0xff, 0xd9, 0x07, 0xe0, 0xfb, 0xf0, 0xec, 0xe4,
  0x2c, 0xc7, 0x0a, 0x16, 0x24, 0xe0, 0x26, 0x36, 0x0b, 0x00, 0x40, 0x2b,
  0xfa, 0xe4, 0x0b, 0x35, 0xd4, 0xbd, 0xc0, 0x09, 0x1c, 0xf3, 0x10, 0xd1,
  0x0b, 0x23, 0x14, 0xe6, 0x15, 0xe3, 0x35, 0xca, 0xbe, 0x0a, 0xec, 0xdf,
  0x15, 0xe5, 0x28, 0xd9, 0x37, 0x15, 0xf4, 0xca, 0xe0, 0xe6, 0xf5, 0xe4,
  0xe3, 0xe1, 0x22, 0x18, 0xcb, 0x1f, 0xd9, 0xc5, 0xd0, 0xfb, 0xd5, 0x3b,
  0x13, 0x2d, 0x2a, 0x2d, 0x2a, 0x0c, 0xf0, 0xcb, 0xbb, 0x15, 0x0e, 0x39,
  0xc7, 0xd6, 0xfa, 0xf3, 0x0d, 0x08, 0x0c, 0xd9, 0xfe, 0xd4, 0xf9, 0xdc,
  0x31, 0x39, 0xd2, 0xf9, 0x3d, 0xd3, 0x42, 0xd7, 0x1c, 0xee, 0xd0, 0x37,
  0x29, 0xdb, 0xc3, 0xeb, 0x06, 0xbb, 0xde, 0xde, 0xcd, 0xc5, 0x0c, 0xf2,
  0x1e, 0xeb, 0x0e, 0xda, 0xe9, 0xd5, 0x2e, 0xf3, 0x34, 0xd4, 0x3b, 0xd1,
  0xe4, 0xe2, 0xc8, 0x36, 0xe3, 0xcf, 0x43, 0xbc, 0x37, 0xfa, 0x33, 0xd2,
  0x0e, 0x3c, 0xed, 0xfe, 0x12, 0x21, 0x28, 0xe2, 0x15, 0xfa, 0xfe, 0xda,
  0xc6, 0xf6, 0x33, 0x38, 0xd1, 0x0a, 0x04, 0xbe, 0x43, 0x0c, 0xc9, 0xe6,
  0xcf, 0x32, 0xf8, 0xef, 0xcb, 0x33, 0xd3, 0x1b, 0xf8, 0xef, 0x27, 0x42,
  0xdd, 0x33, 0xd9, 0xf9, 0x02, 0xe1, 0x43, 0xc2, 0x12, 0xfd, 0xef, 0xe4,
  0xc9, 0xc5, 0xca, 0xbc, 0x19, 0x01, 0xbb, 0x1b, 0xc8, 0x18, 0x1e, 0x17,
  0xc7, 0x20, 0xf1, 0x07, 0xd7, 0xfe, 0xd5, 0xfc, 0xf8, 0x15, 0x28, 0x0e,
  0xe0, 0xf7, 0xce, 0x23, 0xbb, 0x16, 0x1a, 0xfd, 0x39, 0xff, 0xcc, 0x05,
  0xc2, 0xfe, 0x44, 0x11, 0xd6, 0xd3, 0xd5, 0x03, 0x2c, 0x27, 0x1f, 0xee,
  0xe6, 0x3a, 0x1c, 0xf3, 0xf8, 0x3a, 0x0d, 0x1a, 0xfe, 0xfa, 0x0b, 0xde,
  0x31, 0xd2, 0x0d, 0xdd, 0xff, 0xe1, 0x2e, 0xee, 0xec, 0xd2, 0xfb, 0xc1,
  0x26, 0x0b, 0x01, 0x38, 0x2e, 0xeb, 0xf9, 0x0c, 0x3c, 0xda, 0x06, 0xfe,
  0x3a, 0xe7, 0x14, 0xd1, 0x0a, 0x1c, 0x2b, 0x47, 0xea, 0x12, 0x30, 0xc9,
  0x26, 0x3b, 0xeb, 0xd0, 0xf8, 0x31, 0x37, 0xb2, 0xdb, 0x1e, 0x2a, 0xe4,
  0x8a, 0xf2, 0xff, 0xff, 0x04, 0x00, 0x00, 0x00, 0x80, 0x00, 0x00, 0x00,
  0xbe, 0xf2, 0xff, 0xff, 0x8b, 0xf9, 0xff, 0xff, 0x38, 0x03, 0x00, 0x00,
  0x00, 0x00, 0x00, 0x00, 0x1c, 0xf9, 0xff, 0xff, 0x4d, 0xfa, 0xff, 0xff,
  0xb0, 0x09, 0x00, 0x00, 0x8d, 0xfd, 0xff, 0xff, 0x26, 0xfb, 0xff, 0xff,
  0x5f, 0xf4, 0xff, 0xff, 0xfa, 0xf2, 0xff, 0xff, 0x9f, 0xdb, 0xff, 0xff,
  0x33, 0xfe, 0xff, 0xff, 0x00, 0x00, 0x00, 0x00, 0x68, 0xf4, 0xff, 0xff,
  0x71, 0x15, 0x00, 0x00, 0x71, 0xf7, 0xff, 0xff, 0x20, 0xfb, 0xff, 0xff,
  0x00, 0x00, 0x00, 0x00, 0x33, 0xf2, 0xff, 0xff, 0xbe, 0xf7, 0xff, 0xff,
  0x00, 0x00, 0x00, 0x00, 0x00, 0x00, 0x00, 0x00, 0x5c, 0xf4, 0xff, 0xff,
  0xfd, 0xfd, 0xff, 0xff, 0x13, 0xfa, 0xff, 0xff, 0xae, 0xfd, 0xff, 0xff,
  0x73, 0xfa, 0xff, 0xff, 0x82, 0x01, 0x00, 0x00, 0x00, 0x00, 0x00, 0x00,
  0x00, 0x00, 0x00, 0x00, 0x71, 0xed, 0xff, 0xff, 0x16, 0xf3, 0xff, 0xff,
  0x04, 0x00, 0x00, 0x00, 0x00, 0x01, 0x00, 0x00, 0xb8, 0x75, 0x20, 0x13,
  0x98, 0xe7, 0xff, 0xc6, 0xc3, 0x25, 0xbb, 0x0b, 0xbf, 0xe1, 0x95, 0x0d,
  0xdd, 0xba, 0xfb, 0x0a, 0x5a, 0xc9, 0xbc, 0xb3, 0x59, 0xda, 0x29, 0x2c,
  0x97, 0x21, 0xdc, 0x56, 0xb4, 0x97, 0x22, 0x6e, 0xd3, 0xe6, 0xad, 0x63,
  0x29, 0xf7, 0x6d, 0x07, 0xb7, 0x55, 0xac, 0xbb, 0x42, 0xb8, 0x2d, 0x03,
  0xbb, 0x44, 0xe5, 0xdd, 0x23, 0x10, 0x9f, 0xb0, 0x8e, 0xc4, 0x16, 0x58,
  0x4a, 0x9c, 0x01, 0x12, 0x21, 0xd3, 0xc0, 0x30, 0xf6, 0x2e, 0x48, 0x26,
  0x22, 0x6b, 0x29, 0xfc, 0x3e, 0x31, 0x94, 0x30, 0x5b, 0xe6, 0xa9, 0x53,
  0x0a, 0x43, 0x25, 0xde, 0x9f, 0xe3, 0xe0, 0x56, 0x45, 0x6b, 0xbd, 0xa2,
  0x05, 0xc8, 0x3d, 0xfb, 0x58, 0x38, 0xdf, 0x3e, 0xd7, 0xde, 0x1c, 0xab,
  0x8b, 0x75, 0xb0, 0x42, 0xc0, 0x50, 0x9f, 0x33, 0xf8, 0xee, 0x31, 0x1c,
  0x46, 0xc7, 0xfb, 0x20, 0xfd, 0xe8, 0x4c, 0xe4, 0xc0, 0xa6, 0xc4, 0xe7,
  0xc7, 0xf7, 0x21, 0xe0, 0xab, 0x1e, 0x3e, 0x00, 0x98, 0x11, 0x25, 0x33,
  0xc7, 0x26, 0x8b, 0x10, 0xa3, 0x49, 0xb5, 0x0e, 0xb4, 0xd5, 0x2f, 0x62,
  0xe6, 0x8b, 0x2b, 0xe3, 0x3d, 0xa0, 0x81, 0x32, 0x63, 0x69, 0xae, 0xad,
  0xf1, 0x1a, 0x20, 0x57, 0x50, 0x47, 0x4e, 0xff, 0x1b, 0xf1, 0xb9, 0xe1,
  0x8a, 0x02, 0x59, 0x17, 0x04, 0xa8, 0x9b, 0xfe, 0x48, 0xa9, 0x59, 0x69,
  0xc5, 0x97, 0xfb, 0x64, 0x31, 0xef, 0x39, 0xed, 0x1a, 0x52, 0x37, 0xde,
  0x87, 0x4a, 0x99, 0xcb, 0x2a, 0x66, 0xf2, 0xfe, 0xbe, 0xfa, 0xea, 0xf7,
  0x19, 0x22, 0x70, 0xca, 0x58, 0x6b, 0xb1, 0x8f, 0x8b, 0xcb, 0xde, 0x01,
  0xfd, 0x3f, 0xdc, 0xec, 0x23, 0x36, 0xf3, 0x4d, 0x23, 0x68, 0x45, 0x6e,
  0x53, 0x55, 0xa5, 0xa3, 0x9f, 0xf4, 0x8e, 0xd6, 0x02, 0xcd, 0x4d, 0x16,
  0x22, 0xf4, 0xff, 0xff, 0x04, 0x00, 0x00, 0x00, 0x20, 0x00, 0x00, 0x00,
  0x52, 0x01, 0x00, 0x00, 0x27, 0xfe, 0xff, 0xff, 0x48, 0xfa, 0xff, 0xff,
  0x2d, 0xfe, 0xff, 0xff, 0x33, 0xfd, 0xff, 0xff, 0x0a, 0xf9, 0xff, 0xff,
  0x73, 0xff, 0xff, 0xff, 0xf9, 0xff, 0xff, 0xff, 0x4e, 0xf4, 0xff, 0xff,
  0x04, 0x00, 0x00, 0x00, 0x00, 0x01, 0x00, 0x00, 0x06, 0xdf, 0x09, 0x27,
  0x23, 0xbb, 0x6c, 0xcf, 0xbc, 0xb1, 0x43, 0x0b, 0xd3, 0x0e, 0xb2, 0x30,
  0x1b, 0x3a, 0xaa, 0xf0, 0x43, 0x62, 0x41, 0x01, 0xf6, 0x21, 0xff, 0x63,
  0x11, 0x31, 0x55, 0x13, 0x06, 0x35, 0xef, 0xb8, 0x31, 0x4a, 0xe5, 0xfc,
  0x05, 0x33, 0xc5, 0xce, 0x09, 0xbd, 0xa8, 0xe4, 0x5f, 0x46, 0x5d, 0xb4,
  0xd9, 0xdb, 0x35, 0x6d, 0xfb, 0xaf, 0x32, 0x5a, 0x55, 0xd8, 0xf2, 0xcb,
  0xed, 0xb5, 0x61, 0xf6, 0xda, 0x49, 0xf9, 0x21, 0xa2, 0x1a, 0x4e, 0xd7,
  0xd2, 0x0d, 0xc9, 0xea, 0x5d, 0x28, 0x20, 0xfb, 0x61, 0x32, 0x2d, 0xfd,
  0xc2, 0x0b, 0x38, 0xe8, 0x1b, 0xad, 0xe1, 0x82, 0xe1, 0x2e, 0x9f, 0xd4,
  0x4c, 0xfc, 0x39, 0xa7, 0xa7, 0xd5, 0xc5, 0xb0, 0x1e, 0xa5, 0xe7, 0xb7,
  0xf9, 0xfa, 0xa0, 0xf0, 0xc1, 0x9f, 0x2c, 0x0e, 0x2e, 0x06, 0x03, 0x81,
  0x15, 0xc2, 0x00, 0x2e, 0xe6, 0x15, 0x48, 0xab, 0xc4, 0x1b, 0x58, 0x10,
  0x12, 0xba, 0xea, 0x48, 0xa5, 0x0d, 0xb7, 0x20, 0x2c, 0x14, 0x34, 0xe8,
  0xe0, 0xe4, 0x14, 0xc7, 0xcd, 0x32, 0x11, 0x26, 0xd5, 0x10, 0xf1, 0x71,
  0xc6, 0xc3, 0x1d, 0x42, 0x37, 0x17, 0xad, 0xaa, 0x1a, 0xac, 0x01, 0xdc,
  0xd5, 0x2b, 0x45, 0xfa, 0x12, 0x3a, 0xa9, 0x11, 0x30, 0xb8, 0x29, 0x07,
  0x0a, 0x0d, 0x42, 0x41, 0x9d, 0x0d, 0xdc, 0x4b, 0x55, 0x5f, 0xeb, 0x22,
  0xf2, 0x2e, 0x49, 0xf8, 0x45, 0x18, 0x57, 0xf7, 0x04, 0xc3, 0x01, 0xdb,
  0x05, 0x05, 0xb1, 0x0e, 0xd6, 0xa1, 0x12, 0xcf, 0xeb, 0xe7, 0xe2, 0xd4,
  0x29, 0x1f, 0x1d, 0xd3, 0x16, 0xab, 0xa5, 0xcd, 0x0a, 0x39, 0xb5, 0xc2,
  0xc0, 0x1c, 0x10, 0x1b, 0x21, 0xde, 0x17, 0xf7, 0xde, 0x14, 0x66, 0xa8,
  0x19, 0x40, 0x43, 0x15, 0x55, 0xfe, 0xed, 0x4e, 0x4c, 0x36, 0x00, 0x09,
  0x5a, 0xf5, 0xff, 0xff, 0x04, 0x00, 0x00, 0x00, 0x80, 0x00, 0x00, 0x00,
  0x23, 0x07, 0x00, 0x00, 0xf2, 0x02, 0x00, 0x00, 0x00, 0x00, 0x00, 0x00,
  0xd6, 0xf7, 0xff, 0xff, 0xc1, 0xff, 0xff, 0xff, 0x00, 0x00, 0x00, 0x00,
  0x07, 0xfe, 0xff, 0xff, 0xeb, 0x06, 0x00, 0x00, 0x13, 0x03, 0x00, 0x00,
  0x2f, 0xfa, 0xff, 0xff, 0xc9, 0x05, 0x00, 0x00, 0xe7, 0x08, 0x00, 0x00,
  0x00, 0x00, 0x00, 0x00, 0x00, 0x00, 0x00, 0x00, 0x00, 0x00, 0x00, 0x00,
  0xa4, 0xfd, 0xff, 0xff, 0xb2, 0xf7, 0xff, 0xff, 0x22, 0x01, 0x00, 0x00,
  0xc4, 0xf9, 0xff, 0xff, 0x46, 0x03, 0x00, 0x00, 0x3f, 0xfe, 0xff, 0xff,
  0x2d, 0x05, 0x00, 0x00, 0x00, 0x00, 0x00, 0x00, 0x1d, 0xfc, 0xff, 0xff,
  0xe0, 0xfc, 0xff, 0xff, 0x7a, 0x03, 0x00, 0x00, 0x00, 0x00, 0x00, 0x00,
  0x00, 0x00, 0x00, 0x00, 0x00, 0x00, 0x00, 0x00, 0xa1, 0xfe, 0xff, 0xff,
  0xcb, 0x05, 0x00, 0x00, 0x23, 0x00, 0x00, 0x00, 0xe6, 0xf5, 0xff, 0xff,
  0x04, 0x00, 0x00, 0x00, 0x00, 0x08, 0x00, 0x00, 0xda, 0x1d, 0x11, 0x3f,
  0x39, 0x0e, 0xce, 0x10, 0x06, 0x42, 0x16, 0xd9, 0xe9, 0xd0, 0x02, 0xfd,
  0x26, 0xf1, 0xd2, 0xf9, 0x37, 0x1a, 0xd4, 0x09, 0xd0, 0x15, 0x3a, 0xef,
  0x1a, 0x33, 0x43, 0x34, 0x57, 0xef, 0x2f, 0xe6, 0x19, 0xd0, 0x34, 0x3b,
  0xf8, 0xe0, 0x1c, 0x2a, 0x00, 0xc2, 0xc2, 0x2b, 0xea, 0x35, 0xf0, 0xeb,
  0x21, 0x14, 0xcf, 0x46, 0xf5, 0xe6, 0x38, 0x0e, 0x22, 0x42, 0xfb, 0x18,
  0xe4, 0xd6, 0xe5, 0x3c, 0xe5, 0xe8, 0x2f, 0x42, 0x08, 0x17, 0x38, 0x35,
  0xc8, 0xf4, 0x27, 0x05, 0x07, 0x1c, 0x30, 0xd2, 0xf7, 0xb8, 0x09, 0xc9,
  0xf8, 0x42, 0x39, 0xd2, 0x33, 0xd1, 0x0b, 0x12, 0x24, 0x00, 0xef, 0x34,
  0xe1, 0x04, 0x0c, 0xd1, 0x23, 0x21, 0x30, 0xdb, 0x32, 0x20, 0x3f, 0xea,
  0x34, 0x37, 0x18, 0x13, 0x10, 0xf3, 0xd1, 0x20, 0xf1, 0x07, 0xe7, 0xcc,
  0xf9, 0xf4, 0xf9, 0x13, 0x05, 0x30, 0x3a, 0xd1, 0x2f, 0x17, 0xfe, 0xff,
  0x2e, 0xfc, 0x04, 0xf3, 0x30, 0x06, 0x22, 0x49, 0x40, 0xb1, 0xd8, 0x30,
  0xf0, 0x22, 0x3d, 0xfb, 0xbb, 0x12, 0x04, 0x32, 0x25, 0x15, 0x18, 0xf8,
  0x31, 0xf3, 0xee, 0xae, 0x26, 0xf6, 0xea, 0x29, 0xf7, 0xd8, 0x2b, 0x0b,
  0x3b, 0x2b, 0xf6, 0x30, 0x3b, 0xfc, 0x02, 0x36, 0x2b, 0xde, 0x0a, 0x32,
  0xb6, 0x0c, 0xc8, 0x20, 0x19, 0xda, 0x3a, 0x02, 0x3c, 0xe6, 0x03, 0xe4,
  0xed, 0xf4, 0xe8, 0x14, 0xe5, 0x0b, 0xd9, 0x43, 0xcc, 0x0b, 0xee, 0xf6,
  0x21, 0xb2, 0x2d, 0x40, 0x21, 0x22, 0xed, 0x2f, 0x08, 0x10, 0x34, 0xd7,
  0x26, 0x48, 0x19, 0x15, 0x17, 0x20, 0x3d, 0x44, 0x31, 0xe5, 0x1f, 0xcb,
  0xf4, 0xec, 0x30, 0x3f, 0xf3, 0xc8, 0xc4, 0xe7, 0x09, 0xe8, 0xfd, 0x03,
  0x25, 0x13, 0xf6, 0x33, 0xac, 0x3d, 0x18, 0x22, 0x32, 0xe5, 0xed, 0x21,
  0x45, 0x45, 0xc3, 0x4f, 0xce, 0xd8, 0xd2, 0x34, 0x06, 0xe3, 0x42, 0x15,
  0x02, 0x04, 0x0d, 0xd7, 0xf3, 0x18, 0x3d, 0x12, 0x04, 0x38, 0xc9, 0x0f,
  0xf3, 0xef, 0xde, 0xf0, 0xea, 0x2d, 0xfb, 0xd9, 0xf5, 0xdb, 0x2b, 0x0c,
  0x17, 0xf5, 0x09, 0x52, 0x12, 0x28, 0xe6, 0xf9, 0x00, 0xe6, 0x12, 0x01,
  0x31, 0xdc, 0x16, 0xe9, 0x19, 0xc8, 0x36, 0x29, 0x2c, 0xda, 0xd2, 0xe9,
  0xd0, 0x16, 0x23, 0xeb, 0x0c, 0xec, 0x03, 0xd4, 0x26, 0xd1, 0x37, 0x24,
  0x08, 0xf5, 0x2b, 0x1d, 0x29, 0xf2, 0xc0, 0xe3, 0x0a, 0xee, 0x39, 0xe7,
  0x1e, 0xd6, 0x26, 0x0c, 0x0c, 0x06, 0x18, 0x04, 0xf1, 0xea, 0x2f, 0xdc,
  0xfb, 0xed, 0x3d, 0x22, 0xec, 0xc1, 0xf0, 0x03, 0x2f, 0x37, 0x4b, 0x1f,
  0xd2, 0xc5, 0x26, 0xfb, 0x3f, 0x30, 0xf3, 0xe9, 0x39, 0xfe, 0x21, 0xf9,
  0x55, 0xea, 0xf4, 0x34, 0x3a, 0xdb, 0x21, 0xcd, 0xfb, 0x0b, 0xd3, 0xd1,
  0xee, 0x37, 0xfd, 0x30, 0x30, 0x3f, 0xdf, 0x52, 0xd9, 0x32, 0xe4, 0xc0,
  0xe1, 0x5c, 0x00, 0x1e, 0x12, 0x15, 0x2c, 0x11, 0x02, 0x01, 0xc3, 0xcb,
  0xce, 0xef, 0x07, 0xf1, 0xd3, 0x32, 0x33, 0x29, 0xed, 0x0a, 0x0d, 0xd0,
  0x1f, 0x07, 0x16, 0x2f, 0xcf, 0xd5, 0x3e, 0xde, 0xc6, 0x20, 0x0e, 0x1f,
  0x37, 0x22, 0xf5, 0xdd, 0x33, 0x39, 0x02, 0x20, 0xe5, 0x2f, 0x36, 0x40,
  0x4e, 0x29, 0x06, 0xea, 0xe6, 0xc8, 0x44, 0xda, 0x15, 0x33, 0x01, 0xea,
  0x32, 0xd7, 0x35, 0x3a, 0xe7, 0xef, 0x41, 0xf4, 0x1e, 0xe7, 0x22, 0x08,
  0x15, 0xe9, 0x03, 0x2a, 0xe3, 0xef, 0x12, 0x64, 0xf0, 0xd9, 0xf8, 0x0d,
  0x06, 0x09, 0x3c, 0x3d, 0xd8, 0x04, 0x1c, 0x1e, 0x13, 0x3b, 0xe1, 0xd7,
  0x3e, 0xd2, 0x30, 0x03, 0x00, 0x1c, 0xe1, 0xf6, 0x25, 0x41, 0x1b, 0xce,
  0x1c, 0xf1, 0xf4, 0x06, 0x26, 0x00, 0x1c, 0x22, 0xe1, 0xdb, 0xdd, 0x39,
  0x37, 0xe9, 0x15, 0xee, 0x32, 0x02, 0x2f, 0xca, 0xe5, 0xe6, 0xe9, 0x23,
  0xd8, 0x53, 0xca, 0xf4, 0xf2, 0x2e, 0xd7, 0x26, 0x39, 0xdc, 0x31, 0xec,
  0xd9, 0x2e, 0x29, 0xda, 0x29, 0x0f, 0x2e, 0x10, 0xfb, 0xe4, 0xfc, 0x2c,
  0xca, 0xf7, 0xc7, 0x37, 0xe3, 0x17, 0x17, 0x3c, 0x15, 0xd4, 0x2f, 0x26,
  0xf5, 0xe9, 0xfa, 0xd3, 0x0e, 0x2e, 0x2e, 0xf6, 0x01, 0x29, 0xe5, 0xea,
  0x29, 0x1a, 0x13, 0x34, 0x38, 0x20, 0x3f, 0xe0, 0xc4, 0x34, 0xf1, 0xfe,
  0xd9, 0xf5, 0x0a, 0xcf, 0x2d, 0xd9, 0x32, 0x15, 0xe8, 0x11, 0xea, 0xc0,
  0xcc, 0x0b, 0xeb, 0x14, 0x00, 0x0f, 0x0e, 0xd6, 0x04, 0x25, 0x08, 0xff,
  0x24, 0x15, 0xda, 0xdf, 0x1b, 0x2b, 0xcc, 0xde, 0xd4, 0x1c, 0x2b, 0xef,
  0x25, 0x9c, 0x40, 0x1d, 0xee, 0x4e, 0x2a, 0x1c, 0xfd, 0xfb, 0x2e, 0xc9,
  0x3a, 0x36, 0x2e, 0x01, 0x3e, 0xe6, 0x14, 0xf4, 0xf9, 0x23, 0x35, 0x18,
  0xf0, 0xe8, 0x38, 0xf4, 0xff, 0xec, 0x07, 0x1f, 0xf8, 0xfa, 0xdb, 0x07,
  0x1a, 0xd5, 0x3f, 0x2e, 0xd7, 0x2a, 0x2f, 0xcf, 0x32, 0x4c, 0x27, 0x46,
  0x14, 0x1a, 0xf4, 0x17, 0xe4, 0xd7, 0xe6, 0x49, 0xdd, 0xc8, 0xee, 0xf3,
  0x25, 0xee, 0x3a, 0x21, 0xe3, 0x3a, 0x1f, 0xe6, 0xe0, 0x38, 0x02, 0x16,
  0x2c, 0x04, 0xf7, 0xf5, 0xdc, 0x11, 0xc4, 0xec, 0x26, 0x09, 0x1a, 0xfb,
  0x1b, 0x2b, 0x32, 0x1f, 0x2d, 0xda, 0x2c, 0x06, 0xe2, 0xef, 0xd0, 0x49,
  0x3a, 0x09, 0xf3, 0x15, 0x39, 0x21, 0xfa, 0x27, 0x35, 0xe3, 0xfb, 0xbf,
  0xce, 0xea, 0xe3, 0x3f, 0xd6, 0x07, 0x48, 0x3e, 0x26, 0xcf, 0xe4, 0xdc,
  0xe1, 0x24, 0xe2, 0x05, 0x26, 0x2d, 0x43, 0xe8, 0x3f, 0x07, 0x00, 0xe4,
  0x6b, 0xff, 0x02, 0x00, 0x1f, 0xd4, 0x30, 0x04, 0xe1, 0x11, 0xe7, 0x44,
  0x2f, 0x28, 0xe3, 0x11, 0x17, 0x12, 0x00, 0x38, 0xcc, 0x1e, 0x34, 0xd5,
  0x39, 0xd1, 0xeb, 0xf7, 0xed, 0x1c, 0xd9, 0xfe, 0x07, 0x19, 0xc9, 0x23,
  0x07, 0x04, 0x30, 0x03, 0xce, 0x27, 0xe8, 0x22, 0x2d, 0xc5, 0xeb, 0x2c,
  0xe4, 0x3f, 0xcc, 0xec, 0xe9, 0xf7, 0x32, 0xfb, 0x3b, 0x30, 0x41, 0x12,
  0xf6, 0xd8, 0xe6, 0x12, 0xf4, 0x03, 0xf1, 0xc7, 0xdc, 0x43, 0x2f, 0x1b,
  0x3a, 0xd0, 0xff, 0xf2, 0xd0, 0x2d, 0x36, 0xfc, 0x16, 0xcf, 0x1e, 0x2a,
  0x31, 0x40, 0xe0, 0x1f, 0x1e, 0x21, 0x44, 0x31, 0xf7, 0xe4, 0xfc, 0x49,
  0x02, 0xf8, 0x3f, 0x3a, 0x03, 0x41, 0xce, 0x07, 0x03, 0x21, 0x20, 0xe3,
  0x24, 0x15, 0x0c, 0xe7, 0xe6, 0x1d, 0x29, 0x3c, 0x0a, 0xf5, 0x3e, 0x06,
  0x27, 0x12, 0x37, 0xee, 0xda, 0xf4, 0x16, 0x16, 0xe9, 0x20, 0xce, 0xde,
  0xfe, 0xf3, 0x18, 0x0b, 0xed, 0x13, 0x26, 0xe9, 0x06, 0xfb, 0x40, 0x17,
  0x12, 0x13, 0xee, 0xe3, 0xcc, 0x0a, 0x28, 0x1e, 0xe6, 0x37, 0xd9, 0xe8,
  0x0b, 0xe6, 0xe7, 0x30, 0xf4, 0xf3, 0x1c, 0x1e, 0x12, 0x21, 0x42, 0x18,
  0xd9, 0xe3, 0x39, 0xf0, 0xc7, 0xce, 0x23, 0x43, 0x08, 0x0e, 0x4c, 0xee,
  0x01, 0xcf, 0x33, 0x0e, 0xea, 0xfa, 0xf7, 0x15, 0xd5, 0xf5, 0x08, 0x2d,
  0xbc, 0xd8, 0x37, 0xe1, 0xe0, 0xf8, 0x42, 0xee, 0x11, 0xfd, 0xdf, 0x37,
  0x25, 0xee, 0xee, 0x17, 0x31, 0x3d, 0xde, 0x23, 0x01, 0x1d, 0xd8, 0xf1,
  0xfb, 0x2d, 0x33, 0xf5, 0xed, 0x1a, 0xc9, 0xe2, 0x38, 0x38, 0x2f, 0xfa,
  0xce, 0xc8, 0x27, 0xf2, 0x04, 0x25, 0xc7, 0x27, 0x29, 0xc8, 0x0e, 0x2b,
  0x23, 0xe4, 0x38, 0x0d, 0x04, 0x40, 0x3d, 0xe8, 0xea, 0xfc, 0x0e, 0xc9,
  0x34, 0x0f, 0xe8, 0x36, 0x32, 0x04, 0x3c, 0xee, 0xfe, 0xf6, 0xfa, 0x29,
  0xd5, 0xee, 0x03, 0x23, 0xed, 0xdb, 0x1a, 0x15, 0x06, 0x15, 0xd2, 0x3e,
  0xd2, 0x37, 0x10, 0xd9, 0x28, 0xf9, 0xdc, 0x34, 0x0d, 0xe7, 0xcf, 0x35,
  0xf9, 0xf5, 0x07, 0xc7, 0x03, 0x17, 0x1a, 0xd3, 0x46, 0xc0, 0xdb, 0xfe,
  0x37, 0xcb, 0x37, 0x1b, 0xfc, 0x20, 0xc2, 0x1f, 0x1d, 0x1c, 0x0a, 0x11,
  0x0b, 0xff, 0x31, 0x25, 0xc4, 0x0d, 0xe3, 0xf9, 0xda, 0x1d, 0x24, 0xf9,
  0x31, 0x1a, 0x3c, 0xe5, 0x0c, 0x3d, 0xc5, 0xcb, 0x3e, 0xc3, 0x07, 0x13,
  0xfe, 0xf5, 0xf4, 0x10, 0xfe, 0xf7, 0x3e, 0x13, 0xfe, 0x4a, 0xda, 0x01,
  0xea, 0x1e, 0x23, 0xeb, 0x02, 0x3f, 0x0e, 0x3d, 0xcf, 0xd8, 0x48, 0x2d,
  0xeb, 0x10, 0x20, 0xf5, 0x17, 0x1c, 0x25, 0x32, 0xec, 0x25, 0xf8, 0x37,
  0x0f, 0x05, 0xcf, 0xfc, 0x26, 0x29, 0x25, 0xe8, 0xd7, 0xed, 0x2b, 0x28,
  0x81, 0x09, 0xde, 0x25, 0xc7, 0xd1, 0x19, 0xe6, 0x36, 0xf8, 0xca, 0xe1,
  0x1e, 0xc6, 0xd3, 0xd4, 0x3a, 0xe7, 0x49, 0xfa, 0x3e, 0x25, 0x0d, 0x20,
  0x1e, 0x3c, 0x11, 0x01, 0xe3, 0xe0, 0xf2, 0xec, 0x30, 0x4d, 0xd8, 0x09,
  0xed, 0x23, 0x35, 0x27, 0x27, 0xf5, 0x30, 0xd6, 0xc7, 0x0a, 0x27, 0x09,
  0x39, 0x46, 0xd9, 0xd2, 0xda, 0x05, 0x3d, 0x33, 0x0c, 0x08, 0x37, 0x41,
  0xf7, 0x9d, 0xc8, 0xd9, 0x19, 0x23, 0xd2, 0xc7, 0x0c, 0x02, 0xfd, 0x44,
  0x2b, 0x33, 0xcb, 0x3e, 0xd8, 0xe2, 0x26, 0x03, 0x46, 0xcf, 0x2c, 0x4d,
  0xde, 0x3a, 0xda, 0x0d, 0xea, 0xe2, 0x2b, 0x3e, 0xe5, 0x9f, 0x30, 0xd3,
  0xfa, 0x09, 0xc5, 0xf4, 0x3f, 0xfa, 0xd9, 0x1a, 0xfe, 0x1f, 0xe4, 0x28,
  0x28, 0x05, 0x06, 0x14, 0xd9, 0x2c, 0x30, 0xde, 0x40, 0xe8, 0xd9, 0x00,
  0x00, 0xfa, 0xed, 0xf8, 0x31, 0x2a, 0x1a, 0x18, 0xd1, 0x3e, 0xc5, 0x16,
  0xdd, 0x16, 0x1f, 0x2a, 0xd2, 0x4f, 0xe0, 0x0b, 0x1b, 0x0d, 0x45, 0x3c,
  0x1d, 0xe4, 0x0d, 0x02, 0xdd, 0xd4, 0xfc, 0xd4, 0xf1, 0xbf, 0x3f, 0xd2,
  0xe2, 0x03, 0xee, 0xfe, 0xd9, 0xd8, 0x09, 0x21, 0x3b, 0x2f, 0x06, 0x9d,
  0xe9, 0x2c, 0xed, 0x24, 0xcf, 0xf9, 0x3e, 0x09, 0x04, 0xfe, 0xe7, 0x1a,
  0xcc, 0x25, 0x25, 0x0a, 0xd7, 0x32, 0xe2, 0xc6, 0xd9, 0x51, 0xf0, 0x1f,
  0xc0, 0x1c, 0xd2, 0x2b, 0x20, 0x32, 0x2e, 0x2c, 0x14, 0xf7, 0x16, 0xde,
  0x2c, 0x11, 0x33, 0x0b, 0x10, 0xf1, 0x49, 0x2b, 0xe5, 0x25, 0xed, 0x36,
  0x4d, 0x4e, 0xe3, 0x2b, 0x06, 0x09, 0xfa, 0xd2, 0x12, 0x45, 0xdf, 0x35,
  0xc9, 0xd4, 0xd9, 0xb2, 0x04, 0xce, 0x2a, 0x28, 0xcd, 0x40, 0x4a, 0x0c,
  0xec, 0xf5, 0x32, 0x34, 0xc3, 0x3d, 0x06, 0xe2, 0xda, 0x21, 0xe2, 0xfe,
  0xdb, 0xfc, 0x38, 0x14, 0x0b, 0x43, 0x2f, 0x1b, 0x2b, 0xf5, 0x26, 0xd7,
  0xfd, 0xec, 0xc0, 0x09, 0x3f, 0xc1, 0x18, 0x59, 0xf4, 0x18, 0x22, 0x2f,
  0xe8, 0xc6, 0xc6, 0xf1, 0x17, 0x1b, 0xdc, 0x36, 0x06, 0xa0, 0xf1, 0xfe,
  0xd1, 0xde, 0xfe, 0xc3, 0xc7, 0x32, 0x29, 0xd0, 0x1f, 0x23, 0xde, 0x35,
  0xec, 0xfc, 0x3f, 0x42, 0xe5, 0xed, 0xcd, 0xf2, 0x26, 0x06, 0x1c, 0xf9,
  0xea, 0xd5, 0xd5, 0xff, 0x0e, 0x2b, 0x1e, 0x0b, 0x28, 0x21, 0xfe, 0x32,
  0xe0, 0x07, 0x26, 0x0f, 0x0a, 0x14, 0x0f, 0x6c, 0xdf, 0xce, 0x26, 0xdb,
  0x38, 0x18, 0x26, 0xe8, 0xf0, 0x2c, 0xf7, 0xfc, 0x35, 0x1f, 0xd6, 0x32,
  0x03, 0x2d, 0xf9, 0xf5, 0xce, 0xf9, 0xf0, 0xf9, 0xcf, 0x0c, 0xee, 0x2d,
  0x06, 0x45, 0x15, 0x18, 0x0a, 0xf1, 0x17, 0xec, 0xde, 0x12, 0x43, 0x0d,
  0xc8, 0x01, 0xd3, 0xee, 0xd4, 0x25, 0x1d, 0xf7, 0x42, 0xc1, 0xc3, 0x49,
  0x14, 0xf5, 0xd6, 0xf8, 0x34, 0x0e, 0x22, 0xe1, 0xc0, 0x26, 0xc8, 0x4d,
  0xef, 0x0a, 0x39, 0x2d, 0xe6, 0xfc, 0x0a, 0x17, 0x21, 0xfd, 0x32, 0x1f,
  0x1f, 0x30, 0x19, 0x05, 0x1b, 0xf1, 0x30, 0xd2, 0x1b, 0x41, 0xc3, 0xe5,
  0x3d, 0x0b, 0x00, 0x31, 0x34, 0xdf, 0xed, 0xe7, 0x1f, 0xeb, 0x27, 0xe1,
  0x1b, 0xfa, 0xd6, 0xfd, 0xfc, 0x2c, 0x19, 0x4e, 0x3c, 0x07, 0x0e, 0x2b,
  0x49, 0xfb, 0x20, 0xf8, 0xdf, 0x40, 0x1c, 0xf0, 0xd6, 0x01, 0x05, 0x2a,
  0x1e, 0xe5, 0xcd, 0x38, 0x23, 0xc0, 0xd7, 0xfc, 0x30, 0xde, 0xea, 0x34,
  0x1a, 0xcc, 0x10, 0xbd, 0x13, 0x01, 0x01, 0xfa, 0x29, 0xd7, 0x32, 0xff,
  0xc8, 0x52, 0x21, 0x34, 0xe0, 0xfc, 0x36, 0xb2, 0x2b, 0xfb, 0x17, 0x3a,
  0xde, 0x0f, 0x21, 0x45, 0x07, 0xd7, 0x38, 0xf3, 0x10, 0xdd, 0xe9, 0x2a,
  0x22, 0x22, 0x25, 0x3c, 0xec, 0xf8, 0x2b, 0x3e, 0x08, 0xdc, 0x12, 0xd1,
  0x39, 0xda, 0xdf, 0x01, 0x5d, 0x1b, 0x37, 0xe3, 0xf1, 0xc2, 0x1d, 0x28,
  0xff, 0x4d, 0x3a, 0x0e, 0xdb, 0xc4, 0x03, 0x31, 0xef, 0x22, 0xf8, 0x04,
  0xd9, 0xe1, 0xce, 0xf8, 0xc8, 0xef, 0xd2, 0xc9, 0xe6, 0x38, 0xf9, 0xc6,
  0x56, 0x05, 0xd8, 0xc8, 0xcc, 0xc9, 0x1a, 0x14, 0x05, 0x35, 0xfa, 0x0e,
  0x15, 0x10, 0xd1, 0x0c, 0xd8, 0xee, 0x1d, 0x48, 0x4e, 0x29, 0xf2, 0x1b,
  0xef, 0x07, 0xca, 0xdf, 0xc6, 0xfd, 0xf0, 0xfe, 0xdf, 0x01, 0xdd, 0xc9,
  0x03, 0x1c, 0xe7, 0x36, 0x26, 0xe5, 0xff, 0x12, 0xe1, 0xe6, 0xe9, 0xc1,
  0xf1, 0xdd, 0x00, 0x23, 0x59, 0x18, 0x0b, 0xf3, 0x3f, 0x2b, 0x14, 0x0c,
  0x11, 0x47, 0x33, 0xeb, 0x06, 0x2e, 0xe7, 0x17, 0xdd, 0x0e, 0x35, 0x26,
  0x0d, 0x0e, 0xc5, 0x34, 0x1b, 0x01, 0x17, 0xf9, 0xf1, 0x15, 0x3c, 0xe2,
  0x42, 0x0b, 0xeb, 0x1a, 0xe8, 0xcb, 0xd4, 0xda, 0xcd, 0x3c, 0x15, 0xef,
  0x53, 0x24, 0xea, 0x19, 0x29, 0xda, 0xf1, 0x36, 0x0b, 0x22, 0xe6, 0x24,
  0xe5, 0xf3, 0x22, 0xdb, 0x06, 0x21, 0x0e, 0xf9, 0x1e, 0xd4, 0x03, 0xf5,
  0xfa, 0x30, 0xee, 0x22, 0x37, 0x2d, 0xf0, 0x33, 0x2e, 0x44, 0x3f, 0x20,
  0xca, 0xd2, 0x0b, 0xe7, 0x0c, 0x05, 0xee, 0x30, 0x2d, 0x0b, 0xd2, 0xee,
  0xd5, 0xff, 0x30, 0x32, 0x1b, 0xbd, 0x1d, 0x0b, 0x00, 0x25, 0x03, 0xf4,
  0xe1, 0xf6, 0x02, 0xe4, 0x08, 0x09, 0xc1, 0x35, 0xdd, 0x3c, 0xde, 0xeb,
  0x3a, 0x1c, 0x24, 0xcb, 0xe9, 0xd8, 0xc7, 0xce, 0x25, 0xd7, 0x35, 0x1d,
  0xee, 0xed, 0x04, 0xdb, 0xba, 0x33, 0xe3, 0xd7, 0xd2, 0xdc, 0x3a, 0xd2,
  0xf6, 0x08, 0xe1, 0x34, 0x30, 0xfe, 0x33, 0xf5, 0x1b, 0x37, 0xdc, 0x3c,
  0xf0, 0xc9, 0xc3, 0xe1, 0x44, 0xef, 0x07, 0xde, 0x0d, 0x04, 0xcf, 0xd7,
  0x30, 0xd1, 0xca, 0x22, 0x0f, 0x1e, 0x37, 0xd6, 0x26, 0x35, 0xc2, 0xe7,
  0xd1, 0xd8, 0xe7, 0xda, 0x00, 0x48, 0xfa, 0x39, 0xf5, 0x12, 0xe2, 0xc4,
  0x30, 0x11, 0xea, 0x0c, 0xe1, 0x27, 0xf3, 0x26, 0x19, 0x05, 0x02, 0x12,
  0x1e, 0x3f, 0x13, 0x0e, 0x10, 0xe3, 0x37, 0x06, 0xd5, 0x31, 0x2e, 0x2f,
  0x24, 0x2e, 0xd1, 0xcb, 0x35, 0xc3, 0x0b, 0x57, 0x0e, 0xe3, 0xe7, 0x03,
  0x3b, 0x29, 0xfd, 0x26, 0x36, 0x39, 0xca, 0x36, 0xde, 0x3c, 0xcf, 0x45,
  0xda, 0x42, 0x03, 0xd0, 0x22, 0xcd, 0xbd, 0x21, 0xf8, 0x21, 0x30, 0xf7,
  0x0d, 0xdd, 0xd0, 0x34, 0x12, 0x07, 0x2b, 0x11, 0x2b, 0x03, 0x2d, 0x37,
  0xf7, 0x0a, 0xc1, 0x29, 0x36, 0xed, 0x3c, 0x2a, 0xff, 0x15, 0x13, 0x2a,
  0x07, 0x07, 0x16, 0x06, 0x36, 0x2a, 0x37, 0xf4, 0x02, 0xe0, 0x0b, 0x14,
  0x08, 0xd8, 0x14, 0x07, 0x14, 0xc8, 0xe1, 0x2b, 0xcd, 0x0b, 0xdf, 0x03,
  0xc9, 0xd7, 0xd5, 0xbc, 0xf2, 0xfd, 0xff, 0xff, 0x04, 0x00, 0x00, 0x00,
  0x00, 0x01, 0x00, 0x00, 0x29, 0x0f, 0x00, 0x00, 0xaa, 0x15, 0x00, 0x00,
  0x18, 0x0b, 0x00, 0x00, 0xfa, 0x0d, 0x00, 0x00, 0xd5, 0x0a, 0x00, 0x00,
  0xf3, 0x0c, 0x00, 0x00, 0x9d, 0x14, 0x00, 0x00, 0x6e, 0x08, 0x00, 0x00,
  0xd8, 0x10, 0x00, 0x00, 0x36, 0x15, 0x00, 0x00, 0x31, 0xfb, 0xff, 0xff,
  0x79, 0x12, 0x00, 0x00, 0xc8, 0x12, 0x00, 0x00, 0x22, 0x00, 0x00, 0x00,
  0x3e, 0x12, 0x00, 0x00, 0xf1, 0x08, 0x00, 0x00, 0x14, 0x12, 0x00, 0x00,
  0x1c, 0x0b, 0x00, 0x00, 0xed, 0x0c, 0x00, 0x00, 0xc7, 0x0f, 0x00, 0x00,
  0x9b, 0x07, 0x00, 0x00, 0xb0, 0x15, 0x00, 0x00, 0xa4, 0x0f, 0x00, 0x00,
  0x3c, 0x0a, 0x00, 0x00, 0x42, 0x08, 0x00, 0x00, 0x2d, 0x0a, 0x00, 0x00,
  0xf1, 0x0b, 0x00, 0x00, 0x69, 0x12, 0x00, 0x00, 0xbe, 0x08, 0x00, 0x00,
  0x68, 0x12, 0x00, 0x00, 0xc3, 0x00, 0x00, 0x00, 0x92, 0x07, 0x00, 0x00,
  0x83, 0x0d, 0x00, 0x00, 0x8d, 0xf9, 0xff, 0xff, 0x3c, 0x14, 0x00, 0x00,
  0xc3, 0xfd, 0xff, 0xff, 0xc8, 0x0f, 0x00, 0x00, 0xb9, 0x0c, 0x00, 0x00,
  0x6f, 0x0e, 0x00, 0x00, 0x71, 0x06, 0x00, 0x00, 0xe9, 0x0e, 0x00, 0x00,
  0xd7, 0x08, 0x00, 0x00, 0xd5, 0x0f, 0x00, 0x00, 0x41, 0x0d, 0x00, 0x00,
  0x28, 0x10, 0x00, 0x00, 0x35, 0x07, 0x00, 0x00, 0xbc, 0x05, 0x00, 0x00,
  0x93, 0x0f, 0x00, 0x00, 0xbc, 0x05, 0x00, 0x00, 0x9b, 0x0d, 0x00, 0x00,
  0x79, 0x12, 0x00, 0x00, 0x94, 0x0b, 0x00, 0x00, 0x40, 0x18, 0x00, 0x00,
  0xa2, 0x14, 0x00, 0x00, 0x5b, 0x17, 0x00, 0x00, 0xb8, 0x06, 0x00, 0x00,
  0xde, 0x0d, 0x00, 0x00, 0x95, 0x12, 0x00, 0x00, 0x1f, 0x02, 0x00, 0x00,
  0x96, 0x04, 0x00, 0x00, 0xe6, 0x0c, 0x00, 0x00, 0xcf, 0x0b, 0x00, 0x00,
  0xde, 0x07, 0x00, 0x00, 0xe5, 0x07, 0x00, 0x00, 0xfe, 0xfe, 0xff, 0xff,
  0x04, 0x00, 0x00, 0x00, 0x04, 0x00, 0x00, 0x00, 0x00, 0x00, 0x00, 0x00,
  0x0c, 0xf3, 0xff, 0xff, 0x12, 0xff, 0xff, 0xff, 0x04, 0x00, 0x00, 0x00,
  0x04, 0x00, 0x00, 0x00, 0x40, 0x00, 0x00, 0x00, 0x22, 0xff, 0xff, 0xff,
  0x04, 0x00, 0x00, 0x00, 0x04, 0x00, 0x00, 0x00, 0x01, 0x00, 0x00, 0x00,
  0x32, 0xff, 0xff, 0xff, 0x04, 0x00, 0x00, 0x00, 0x08, 0x00, 0x00, 0x00,
  0xff, 0xff, 0xff, 0xff, 0x40, 0x00, 0x00, 0x00, 0x44, 0xf3, 0xff, 0xff,
  0x48, 0xf3, 0xff, 0xff, 0x0f, 0x00, 0x00, 0x00, 0x4d, 0x4c, 0x49, 0x52,
  0x20, 0x43, 0x6f, 0x6e, 0x76, 0x65, 0x72, 0x74, 0x65, 0x64, 0x2e, 0x00,
  0x01, 0x00, 0x00, 0x00, 0x14, 0x00, 0x00, 0x00, 0x00, 0x00, 0x0e, 0x00,
  0x18, 0x00, 0x14, 0x00, 0x10, 0x00, 0x0c, 0x00, 0x08, 0x00, 0x04, 0x00,
  0x0e, 0x00, 0x00, 0x00, 0x14, 0x00, 0x00, 0x00, 0x1c, 0x00, 0x00, 0x00,
  0x4c, 0x02, 0x00, 0x00, 0x50, 0x02, 0x00, 0x00, 0x54, 0x02, 0x00, 0x00,
  0x04, 0x00, 0x00, 0x00, 0x6d, 0x61, 0x69, 0x6e, 0x00, 0x00, 0x00, 0x00,
  0x09, 0x00, 0x00, 0x00, 0x10, 0x02, 0x00, 0x00, 0xc0, 0x01, 0x00, 0x00,
  0x74, 0x01, 0x00, 0x00, 0x28, 0x01, 0x00, 0x00, 0xf0, 0x00, 0x00, 0x00,
  0xbc, 0x00, 0x00, 0x00, 0x6c, 0x00, 0x00, 0x00, 0x28, 0x00, 0x00, 0x00,
  0x04, 0x00, 0x00, 0x00, 0x1e, 0xfe, 0xff, 0xff, 0x08, 0x00, 0x00, 0x00,
  0x0c, 0x00, 0x00, 0x00, 0x01, 0x00, 0x00, 0x00, 0x16, 0x00, 0x00, 0x00,
  0x02, 0x00, 0x00, 0x00, 0x12, 0x00, 0x00, 0x00, 0x15, 0x00, 0x00, 0x00,
  0x8e, 0xfe, 0xff, 0xff, 0x1c, 0x00, 0x00, 0x00, 0x00, 0x00, 0x00, 0x3b,
  0x1c, 0x00, 0x00, 0x00, 0x20, 0x00, 0x00, 0x00, 0x04, 0x00, 0x00, 0x00,
  0x00, 0x00, 0x06, 0x00, 0x08, 0x00, 0x04, 0x00, 0x06, 0x00, 0x00, 0x00,
  0x03, 0x00, 0x00, 0x00, 0x01, 0x00, 0x00, 0x00, 0x15, 0x00, 0x00, 0x00,
  0x03, 0x00, 0x00, 0x00, 0x14, 0x00, 0x00, 0x00, 0x03, 0x00, 0x00, 0x00,
  0x02, 0x00, 0x00, 0x00, 0xce, 0xfe, 0xff, 0xff, 0x24, 0x00, 0x00, 0x00,
  0x00, 0x00, 0x00, 0x20, 0x24, 0x00, 0x00, 0x00, 0x28, 0x00, 0x00, 0x00,
  0x03, 0x00, 0x00, 0x00, 0x00, 0x00, 0x0e, 0x00, 0x08, 0x00, 0x00, 0x00,
  0x00, 0x00, 0x00, 0x00, 0x00, 0x00, 0x04, 0x00, 0x0e, 0x00, 0x00, 0x00,
  0x01, 0x00, 0x00, 0x00, 0x01, 0x00, 0x00, 0x00, 0x14, 0x00, 0x00, 0x00,
  0x04, 0x00, 0x00, 0x00, 0x13, 0x00, 0x00, 0x00, 0x05, 0x00, 0x00, 0x00,
  0x04, 0x00, 0x00, 0x00, 0x04, 0x00, 0x00, 0x00, 0x62, 0xff, 0xff, 0xff,
  0x14, 0x00, 0x00, 0x00, 0x00, 0x00, 0x00, 0x37, 0x14, 0x00, 0x00, 0x00,
  0x18, 0x00, 0x00, 0x00, 0x02, 0x00, 0x00, 0x00, 0x0a, 0xff, 0xff, 0xff,
  0x00, 0x00, 0x00, 0x02, 0x01, 0x00, 0x00, 0x00, 0x13, 0x00, 0x00, 0x00,
  0x01, 0x00, 0x00, 0x00, 0x12, 0x00, 0x00, 0x00, 0x92, 0xff, 0xff, 0xff,
  0x14, 0x00, 0x00, 0x00, 0x00, 0x00, 0x00, 0x08, 0x10, 0x00, 0x00, 0x00,
  0x14, 0x00, 0x00, 0x00, 0x01, 0x00, 0x00, 0x00, 0xb8, 0xf4, 0xff, 0xff,
  0x01, 0x00, 0x00, 0x00, 0x12, 0x00, 0x00, 0x00, 0x03, 0x00, 0x00, 0x00,
  0x11, 0x00, 0x00, 0x00, 0x07, 0x00, 0x00, 0x00, 0x06, 0x00, 0x00, 0x00,
  0xc6, 0xff, 0xff, 0xff, 0x14, 0x00, 0x00, 0x00, 0x00, 0x00, 0x00, 0x08,
  0x14, 0x00, 0x00, 0x00, 0x18, 0x00, 0x00, 0x00, 0x01, 0x00, 0x00, 0x00,
  0x6e, 0xff, 0xff, 0xff, 0x00, 0x00, 0x00, 0x01, 0x01, 0x00, 0x00, 0x00,
  0x11, 0x00, 0x00, 0x00, 0x03, 0x00, 0x00, 0x00, 0x10, 0x00, 0x00, 0x00,
  0x09, 0x00, 0x00, 0x00, 0x08, 0x00, 0x00, 0x00, 0x00, 0x00, 0x0e, 0x00,
  0x18, 0x00, 0x14, 0x00, 0x10, 0x00, 0x0c, 0x00, 0x0b, 0x00, 0x04, 0x00,
  0x0e, 0x00, 0x00, 0x00, 0x14, 0x00, 0x00, 0x00, 0x00, 0x00, 0x00, 0x08,
  0x14, 0x00, 0x00, 0x00, 0x18, 0x00, 0x00, 0x00, 0x01, 0x00, 0x00, 0x00,
  0xb6, 0xff, 0xff, 0xff, 0x00, 0x00, 0x00, 0x01, 0x01, 0x00, 0x00, 0x00,
  0x10, 0x00, 0x00, 0x00, 0x03, 0x00, 0x00, 0x00, 0x0f, 0x00, 0x00, 0x00,
  0x0b, 0x00, 0x00, 0x00, 0x0a, 0x00, 0x00, 0x00, 0x00, 0x00, 0x0e, 0x00,
  0x1a, 0x00, 0x14, 0x00, 0x10, 0x00, 0x0c, 0x00, 0x0b, 0x00, 0x04, 0x00,
  0x0e, 0x00, 0x00, 0x00, 0x1c, 0x00, 0x00, 0x00, 0x00, 0x00, 0x00, 0x08,
  0x1c, 0x00, 0x00, 0x00, 0x20, 0x00, 0x00, 0x00, 0x01, 0x00, 0x00, 0x00,
  0x00, 0x00, 0x06, 0x00, 0x08, 0x00, 0x07, 0x00, 0x06, 0x00, 0x00, 0x00,
  0x00, 0x00, 0x00, 0x01, 0x01, 0x00, 0x00, 0x00, 0x0f, 0x00, 0x00, 0x00,
  0x03, 0x00, 0x00, 0x00, 0x0e, 0x00, 0x00, 0x00, 0x0d, 0x00, 0x00, 0x00,
  0x0c, 0x00, 0x00, 0x00, 0x00, 0x00, 0x0a, 0x00, 0x0c, 0x00, 0x00, 0x00,
  0x08, 0x00, 0x04, 0x00, 0x0a, 0x00, 0x00, 0x00, 0x08, 0x00, 0x00, 0x00,
  0x0c, 0x00, 0x00, 0x00, 0x01, 0x00, 0x00, 0x00, 0x0e, 0x00, 0x00, 0x00,
  0x02, 0x00, 0x00, 0x00, 0x00, 0x00, 0x00, 0x00, 0x01, 0x00, 0x00, 0x00,
  0x01, 0x00, 0x00, 0x00, 0x16, 0x00, 0x00, 0x00, 0x01, 0x00, 0x00, 0x00,
  0x00, 0x00, 0x00, 0x00, 0x17, 0x00, 0x00, 0x00, 0x68, 0x0a, 0x00, 0x00,
  0xfc, 0x09, 0x00, 0x00, 0x90, 0x09, 0x00, 0x00, 0x3c, 0x09, 0x00, 0x00,
  0xdc, 0x08, 0x00, 0x00, 0x80, 0x08, 0x00, 0x00, 0x00, 0x08, 0x00, 0x00,
  0x8c, 0x07, 0x00, 0x00, 0x10, 0x07, 0x00, 0x00, 0x9c, 0x06, 0x00, 0x00,
  0x20, 0x06, 0x00, 0x00, 0xb4, 0x05, 0x00, 0x00, 0x38, 0x05, 0x00, 0x00,
  0xcc, 0x04, 0x00, 0x00, 0x48, 0x04, 0x00, 0x00, 0x94, 0x03, 0x00, 0x00,
  0xe0, 0x02, 0x00, 0x00, 0x24, 0x02, 0x00, 0x00, 0x88, 0x01, 0x00, 0x00,
  0x38, 0x01, 0x00, 0x00, 0xe4, 0x00, 0x00, 0x00, 0x8c, 0x00, 0x00, 0x00,
  0x04, 0x00, 0x00, 0x00, 0x0a, 0xf6, 0xff, 0xff, 0x00, 0x00, 0x00, 0x01,
  0x18, 0x00, 0x00, 0x00, 0x24, 0x00, 0x00, 0x00, 0x44, 0x00, 0x00, 0x00,
  0x17, 0x00, 0x00, 0x00, 0x00, 0x00, 0x00, 0x09, 0x58, 0x00, 0x00, 0x00,
  0x03, 0x00, 0x00, 0x00, 0xff, 0xff, 0xff, 0xff, 0x40, 0x00, 0x00, 0x00,
  0x01, 0x00, 0x00, 0x00, 0xf4, 0xf5, 0xff, 0xff, 0x08, 0x00, 0x00, 0x00,
  0x14, 0x00, 0x00, 0x00, 0x01, 0x00, 0x00, 0x00, 0x80, 0xff, 0xff, 0xff,
  0xff, 0xff, 0xff, 0xff, 0x00, 0x00, 0x00, 0x00, 0x01, 0x00, 0x00, 0x00,
  0xe8, 0xcd, 0x22, 0x3b, 0x19, 0x00, 0x00, 0x00, 0x53, 0x74, 0x61, 0x74,
  0x65, 0x66, 0x75, 0x6c, 0x50, 0x61, 0x72, 0x74, 0x69, 0x74, 0x69, 0x6f,
  0x6e, 0x65, 0x64, 0x43, 0x61, 0x6c, 0x6c, 0x3a, 0x30, 0x00, 0x00, 0x00,
  0x03, 0x00, 0x00, 0x00, 0x01, 0x00, 0x00, 0x00, 0x40, 0x00, 0x00, 0x00,
  0x01, 0x00, 0x00, 0x00, 0xf6, 0xf6, 0xff, 0xff, 0x00, 0x00, 0x00, 0x01,
  0x14, 0x00, 0x00, 0x00, 0x14, 0x00, 0x00, 0x00, 0x16, 0x00, 0x00, 0x00,
  0x00, 0x00, 0x00, 0x02, 0x34, 0x00, 0x00, 0x00, 0xe0, 0xf6, 0xff, 0xff,
  0x24, 0x00, 0x00, 0x00, 0x73, 0x65, 0x71, 0x75, 0x65, 0x6e, 0x74, 0x69,
  0x61, 0x6c, 0x5f, 0x32, 0x2f, 0x72, 0x65, 0x73, 0x68, 0x61, 0x70, 0x65,
  0x5f, 0x32, 0x2f, 0x52, 0x65, 0x73, 0x68, 0x61, 0x70, 0x65, 0x2f, 0x73,
  0x68, 0x61, 0x70, 0x65, 0x00, 0x00, 0x00, 0x00, 0x01, 0x00, 0x00, 0x00,
  0x03, 0x00, 0x00, 0x00, 0x4a, 0xf7, 0xff, 0xff, 0x00, 0x00, 0x00, 0x01,
  0x14, 0x00, 0x00, 0x00, 0x14, 0x00, 0x00, 0x00, 0x15, 0x00, 0x00, 0x00,
  0x00, 0x00, 0x00, 0x02, 0x34, 0x00, 0x00, 0x00, 0x34, 0xf7, 0xff, 0xff,
  0x24, 0x00, 0x00, 0x00, 0x73, 0x65, 0x71, 0x75, 0x65, 0x6e, 0x74, 0x69,
  0x61, 0x6c, 0x5f, 0x32, 0x2f, 0x72, 0x65, 0x73, 0x68, 0x61, 0x70, 0x65,
  0x5f, 0x32, 0x2f, 0x73, 0x74, 0x72, 0x69, 0x64, 0x65, 0x64, 0x5f, 0x73,
  0x6c, 0x69, 0x63, 0x65, 0x00, 0x00, 0x00, 0x00, 0x00, 0x00, 0x00, 0x00,
  0x9a, 0xf7, 0xff, 0xff, 0x00, 0x00, 0x00, 0x01, 0x14, 0x00, 0x00, 0x00,
  0x14, 0x00, 0x00, 0x00, 0x14, 0x00, 0x00, 0x00, 0x00, 0x00, 0x00, 0x02,
  0x2c, 0x00, 0x00, 0x00, 0x84, 0xf7, 0xff, 0xff, 0x1c, 0x00, 0x00, 0x00,
  0x73, 0x65, 0x71, 0x75, 0x65, 0x6e, 0x74, 0x69, 0x61, 0x6c, 0x5f, 0x32,
  0x2f, 0x72, 0x65, 0x73, 0x68, 0x61, 0x70, 0x65, 0x5f, 0x32, 0x2f, 0x53,
  0x68, 0x61, 0x70, 0x65, 0x00, 0x00, 0x00, 0x00, 0x01, 0x00, 0x00, 0x00,
  0x02, 0x00, 0x00, 0x00, 0x7e, 0xf7, 0xff, 0xff, 0x00, 0x00, 0x00, 0x01,
  0x18, 0x00, 0x00, 0x00, 0x20, 0x00, 0x00, 0x00, 0x3c, 0x00, 0x00, 0x00,
  0x13, 0x00, 0x00, 0x00, 0x00, 0x00, 0x00, 0x09, 0x70, 0x00, 0x00, 0x00,
  0x02, 0x00, 0x00, 0x00, 0xff, 0xff, 0xff, 0xff, 0x40, 0x00, 0x00, 0x00,
  0x64, 0xf7, 0xff, 0xff, 0x08, 0x00, 0x00, 0x00, 0x10, 0x00, 0x00, 0x00,
  0x01, 0x00, 0x00, 0x00, 0x80, 0xff, 0xff, 0xff, 0xff, 0xff, 0xff, 0xff,
  0x01, 0x00, 0x00, 0x00, 0xe8, 0xcd, 0x22, 0x3b, 0x3a, 0x00, 0x00, 0x00,
  0x73, 0x65, 0x71, 0x75, 0x65, 0x6e, 0x74, 0x69, 0x61, 0x6c, 0x5f, 0x32,
  0x2f, 0x64, 0x65, 0x6e, 0x73, 0x65, 0x5f, 0x31, 0x31, 0x2f, 0x4d, 0x61,
  0x74, 0x4d, 0x75, 0x6c, 0x3b, 0x73, 0x65, 0x71, 0x75, 0x65, 0x6e, 0x74,
  0x69, 0x61, 0x6c, 0x5f, 0x32, 0x2f, 0x64, 0x65, 0x6e, 0x73, 0x65, 0x5f,
  0x31, 0x31, 0x2f, 0x42, 0x69, 0x61, 0x73, 0x41, 0x64, 0x64, 0x00, 0x00,
  0x02, 0x00, 0x00, 0x00, 0x01, 0x00, 0x00, 0x00, 0x40, 0x00, 0x00, 0x00,
  0x16, 0xf8, 0xff, 0xff, 0x00, 0x00, 0x00, 0x01, 0x18, 0x00, 0x00, 0x00,
  0x20, 0x00, 0x00, 0x00, 0x40, 0x00, 0x00, 0x00, 0x12, 0x00, 0x00, 0x00,
  0x00, 0x00, 0x00, 0x09, 0x90, 0x00, 0x00, 0x00, 0x02, 0x00, 0x00, 0x00,
  0xff, 0xff, 0xff, 0xff, 0x20, 0x00, 0x00, 0x00, 0xfc, 0xf7, 0xff, 0xff,
  0x08, 0x00, 0x00, 0x00, 0x14, 0x00, 0x00, 0x00, 0x01, 0x00, 0x00, 0x00,
  0x80, 0xff, 0xff, 0xff, 0xff, 0xff, 0xff, 0xff, 0x00, 0x00, 0x00, 0x00,
  0x01, 0x00, 0x00, 0x00, 0x94, 0xe7, 0x62, 0x3b, 0x55, 0x00, 0x00, 0x00,
  0x73, 0x65, 0x71, 0x75, 0x65, 0x6e, 0x74, 0x69, 0x61, 0x6c, 0x5f, 0x32,
  0x2f, 0x64, 0x65, 0x6e, 0x73, 0x65, 0x5f, 0x31, 0x30, 0x2f, 0x4d, 0x61,
  0x74, 0x4d, 0x75, 0x6c, 0x3b, 0x73, 0x65, 0x71, 0x75, 0x65, 0x6e, 0x74,
  0x69, 0x61, 0x6c, 0x5f, 0x32, 0x2f, 0x64, 0x65, 0x6e, 0x73, 0x65, 0x5f,
  0x31, 0x30, 0x2f, 0x52, 0x65, 0x6c, 0x75, 0x3b, 0x73, 0x65, 0x71, 0x75,
  0x65, 0x6e, 0x74, 0x69, 0x61, 0x6c, 0x5f, 0x32, 0x2f, 0x64, 0x65, 0x6e,
  0x73, 0x65, 0x5f, 0x31, 0x30, 0x2f, 0x42, 0x69, 0x61, 0x73, 0x41, 0x64,
  0x64, 0x00, 0x00, 0x00, 0x02, 0x00, 0x00, 0x00, 0x01, 0x00, 0x00, 0x00,
  0x20, 0x00, 0x00, 0x00, 0xce, 0xf8, 0xff, 0xff, 0x00, 0x00, 0x00, 0x01,
  0x18, 0x00, 0x00, 0x00, 0x20, 0x00, 0x00, 0x00, 0x3c, 0x00, 0x00, 0x00,
  0x11, 0x00, 0x00, 0x00, 0x00, 0x00, 0x00, 0x09, 0x88, 0x00, 0x00, 0x00,
  0x02, 0x00, 0x00, 0x00, 0xff, 0xff, 0xff, 0xff, 0x08, 0x00, 0x00, 0x00,
  0xb4, 0xf8, 0xff, 0xff, 0x08, 0x00, 0x00, 0x00, 0x10, 0x00, 0x00, 0x00,
  0x01, 0x00, 0x00, 0x00, 0x80, 0xff, 0xff, 0xff, 0xff, 0xff, 0xff, 0xff,
  0x01, 0x00, 0x00, 0x00, 0x89, 0x31, 0x00, 0x3c, 0x52, 0x00, 0x00, 0x00,
  0x73, 0x65, 0x71, 0x75, 0x65, 0x6e, 0x74, 0x69, 0x61, 0x6c, 0x5f, 0x32,
  0x2f, 0x64, 0x65, 0x6e, 0x73, 0x65, 0x5f, 0x39, 0x2f, 0x4d, 0x61, 0x74,
  0x4d, 0x75, 0x6c, 0x3b, 0x73, 0x65, 0x71, 0x75, 0x65, 0x6e, 0x74, 0x69,
  0x61, 0x6c, 0x5f, 0x32, 0x2f, 0x64, 0x65, 0x6e, 0x73, 0x65, 0x5f, 0x39,
  0x2f, 0x52, 0x65, 0x6c, 0x75, 0x3b, 0x73, 0x65, 0x71, 0x75, 0x65, 0x6e,
  0x74, 0x69, 0x61, 0x6c, 0x5f, 0x32, 0x2f, 0x64, 0x65, 0x6e, 0x73, 0x65,
  0x5f, 0x39, 0x2f, 0x42, 0x69, 0x61, 0x73, 0x41, 0x64, 0x64, 0x00, 0x00,
  0x02, 0x00, 0x00, 0x00, 0x01, 0x00, 0x00, 0x00, 0x08, 0x00, 0x00, 0x00,
  0x7e, 0xf9, 0xff, 0xff, 0x00, 0x00, 0x00, 0x01, 0x18, 0x00, 0x00, 0x00,
  0x20, 0x00, 0x00, 0x00, 0x3c, 0x00, 0x00, 0x00, 0x10, 0x00, 0x00, 0x00,
  0x00, 0x00, 0x00, 0x09, 0x88, 0x00, 0x00, 0x00, 0x02, 0x00, 0x00, 0x00,
  0xff, 0xff, 0xff, 0xff, 0x20, 0x00, 0x00, 0x00, 0x64, 0xf9, 0xff, 0xff,
  0x08, 0x00, 0x00, 0x00, 0x10, 0x00, 0x00, 0x00, 0x01, 0x00, 0x00, 0x00,
  0x80, 0xff, 0xff, 0xff, 0xff, 0xff, 0xff, 0xff, 0x01, 0x00, 0x00, 0x00,
  0xba, 0xf2, 0x0b, 0x3c, 0x52, 0x00, 0x00, 0x00, 0x73, 0x65, 0x71, 0x75,
  0x65, 0x6e, 0x74, 0x69, 0x61, 0x6c, 0x5f, 0x32, 0x2f, 0x64, 0x65, 0x6e,
  0x73, 0x65, 0x5f, 0x38, 0x2f, 0x4d, 0x61, 0x74, 0x4d, 0x75, 0x6c, 0x3b,
  0x73, 0x65, 0x71, 0x75, 0x65, 0x6e, 0x74, 0x69, 0x61, 0x6c, 0x5f, 0x32,
  0x2f, 0x64, 0x65, 0x6e, 0x73, 0x65, 0x5f, 0x38, 0x2f, 0x52, 0x65, 0x6c,
  0x75, 0x3b, 0x73, 0x65, 0x71, 0x75, 0x65, 0x6e, 0x74, 0x69, 0x61, 0x6c,
  0x5f, 0x32, 0x2f, 0x64, 0x65, 0x6e, 0x73, 0x65, 0x5f, 0x38, 0x2f, 0x42,
  0x69, 0x61, 0x73, 0x41, 0x64, 0x64, 0x00, 0x00, 0x02, 0x00, 0x00, 0x00,
  0x01, 0x00, 0x00, 0x00, 0x20, 0x00, 0x00, 0x00, 0x2e, 0xfa, 0xff, 0xff,
  0x00, 0x00, 0x00, 0x01, 0x18, 0x00, 0x00, 0x00, 0x20, 0x00, 0x00, 0x00,
  0x40, 0x00, 0x00, 0x00, 0x0f, 0x00, 0x00, 0x00, 0x00, 0x00, 0x00, 0x09,
  0x58, 0x00, 0x00, 0x00, 0x02, 0x00, 0x00, 0x00, 0xff, 0xff, 0xff, 0xff,
  0x40, 0x00, 0x00, 0x00, 0x14, 0xfa, 0xff, 0xff, 0x08, 0x00, 0x00, 0x00,
  0x14, 0x00, 0x00, 0x00, 0x01, 0x00, 0x00, 0x00, 0x80, 0xff, 0xff, 0xff,
  0xff, 0xff, 0xff, 0xff, 0x00, 0x00, 0x00, 0x00, 0x01, 0x00, 0x00, 0x00,
  0xc5, 0xd3, 0x49, 0x3b, 0x1e, 0x00, 0x00, 0x00, 0x73, 0x65, 0x71, 0x75,
  0x65, 0x6e, 0x74, 0x69, 0x61, 0x6c, 0x5f, 0x32, 0x2f, 0x66, 0x6c, 0x61,
  0x74, 0x74, 0x65, 0x6e, 0x5f, 0x32, 0x2f, 0x52, 0x65, 0x73, 0x68, 0x61,
  0x70, 0x65, 0x00, 0x00, 0x02, 0x00, 0x00, 0x00, 0x01, 0x00, 0x00, 0x00,
  0x40, 0x00, 0x00, 0x00, 0x16, 0xfb, 0xff, 0xff, 0x00, 0x00, 0x00, 0x01,
  0x14, 0x00, 0x00, 0x00, 0x30, 0x00, 0x00, 0x00, 0x0e, 0x00, 0x00, 0x00,
  0x00, 0x00, 0x00, 0x09, 0x44, 0x00, 0x00, 0x00, 0x84, 0xfa, 0xff, 0xff,
  0x08, 0x00, 0x00, 0x00, 0x10, 0x00, 0x00, 0x00, 0x01, 0x00, 0x00, 0x00,
  0x00, 0x00, 0x00, 0x00, 0x00, 0x00, 0x00, 0x00, 0x01, 0x00, 0x00, 0x00,
  0x5c, 0x4e, 0x6d, 0x3b, 0x1b, 0x00, 0x00, 0x00, 0x73, 0x65, 0x71, 0x75,
  0x65, 0x6e, 0x74, 0x69, 0x61, 0x6c, 0x5f, 0x32, 0x2f, 0x64, 0x65, 0x6e,
  0x73, 0x65, 0x5f, 0x38, 0x2f, 0x4d, 0x61, 0x74, 0x4d, 0x75, 0x6c, 0x00,
  0x02, 0x00, 0x00, 0x00, 0x20, 0x00, 0x00, 0x00, 0x40, 0x00, 0x00, 0x00,
  0x7e, 0xfb, 0xff, 0xff, 0x00, 0x00, 0x00, 0x01, 0x14, 0x00, 0x00, 0x00,
  0x34, 0x00, 0x00, 0x00, 0x0d, 0x00, 0x00, 0x00, 0x00, 0x00, 0x00, 0x02,
  0x58, 0x00, 0x00, 0x00, 0xec, 0xfa, 0xff, 0xff, 0x08, 0x00, 0x00, 0x00,
  0x14, 0x00, 0x00, 0x00, 0x01, 0x00, 0x00, 0x00, 0x00, 0x00, 0x00, 0x00,
  0x00, 0x00, 0x00, 0x00, 0x00, 0x00, 0x00, 0x00, 0x01, 0x00, 0x00, 0x00,
  0xd4, 0x16, 0x3b, 0x37, 0x2b, 0x00, 0x00, 0x00, 0x73, 0x65, 0x71, 0x75,
  0x65, 0x6e, 0x74, 0x69, 0x61, 0x6c, 0x5f, 0x32, 0x2f, 0x64, 0x65, 0x6e,
  0x73, 0x65, 0x5f, 0x38, 0x2f, 0x42, 0x69, 0x61, 0x73, 0x41, 0x64, 0x64,
  0x2f, 0x52, 0x65, 0x61, 0x64, 0x56, 0x61, 0x72, 0x69, 0x61, 0x62, 0x6c,
  0x65, 0x4f, 0x70, 0x00, 0x01, 0x00, 0x00, 0x00, 0x20, 0x00, 0x00, 0x00,
  0xf6, 0xfb, 0xff, 0xff, 0x00, 0x00, 0x00, 0x01, 0x14, 0x00, 0x00, 0x00,
  0x30, 0x00, 0x00, 0x00, 0x0c, 0x00, 0x00, 0x00, 0x00, 0x00, 0x00, 0x09,
  0x44, 0x00, 0x00, 0x00, 0x64, 0xfb, 0xff, 0xff, 0x08, 0x00, 0x00, 0x00,
  0x10, 0x00, 0x00, 0x00, 0x01, 0x00, 0x00, 0x00, 0x00, 0x00, 0x00, 0x00,
  0x00, 0x00, 0x00, 0x00, 0x01, 0x00, 0x00, 0x00, 0xbd, 0x35, 0x58, 0x3b,
  0x1b, 0x00, 0x00, 0x00, 0x73, 0x65, 0x71, 0x75, 0x65, 0x6e, 0x74, 0x69,
  0x61, 0x6c, 0x5f, 0x32, 0x2f, 0x64, 0x65, 0x6e, 0x73, 0x65, 0x5f, 0x39,
  0x2f, 0x4d, 0x61, 0x74, 0x4d, 0x75, 0x6c, 0x00, 0x02, 0x00, 0x00, 0x00,
  0x08, 0x00, 0x00, 0x00, 0x20, 0x00, 0x00, 0x00, 0x5e, 0xfc, 0xff, 0xff,
  0x00, 0x00, 0x00, 0x01, 0x14, 0x00, 0x00, 0x00, 0x34, 0x00, 0x00, 0x00,
  0x0b, 0x00, 0x00, 0x00, 0x00, 0x00, 0x00, 0x02, 0x58, 0x00, 0x00, 0x00,
  0xcc, 0xfb, 0xff, 0xff, 0x08, 0x00, 0x00, 0x00, 0x14, 0x00, 0x00, 0x00,
  0x01, 0x00, 0x00, 0x00, 0x00, 0x00, 0x00, 0x00, 0x00, 0x00, 0x00, 0x00,
  0x00, 0x00, 0x00, 0x00, 0x01, 0x00, 0x00, 0x00, 0x5b, 0x64, 0xec, 0x37,
  0x2b, 0x00, 0x00, 0x00, 0x73, 0x65, 0x71, 0x75, 0x65, 0x6e, 0x74, 0x69,
  0x61, 0x6c, 0x5f, 0x32, 0x2f, 0x64, 0x65, 0x6e, 0x73, 0x65, 0x5f, 0x39,
  0x2f, 0x42, 0x69, 0x61, 0x73, 0x41, 0x64, 0x64, 0x2f, 0x52, 0x65, 0x61,
  0x64, 0x56, 0x61, 0x72, 0x69, 0x61, 0x62, 0x6c, 0x65, 0x4f, 0x70, 0x00,
  0x01, 0x00, 0x00, 0x00, 0x08, 0x00, 0x00, 0x00, 0xd6, 0xfc, 0xff, 0xff,
  0x00, 0x00, 0x00, 0x01, 0x14, 0x00, 0x00, 0x00, 0x34, 0x00, 0x00, 0x00,
  0x0a, 0x00, 0x00, 0x00, 0x00, 0x00, 0x00, 0x09, 0x4c, 0x00, 0x00, 0x00,
  0x44, 0xfc, 0xff, 0xff, 0x08, 0x00, 0x00, 0x00, 0x14, 0x00, 0x00, 0x00,
  0x01, 0x00, 0x00, 0x00, 0x00, 0x00, 0x00, 0x00, 0x00, 0x00, 0x00, 0x00,
  0x00, 0x00, 0x00, 0x00, 0x01, 0x00, 0x00, 0x00, 0xb3, 0x5c, 0x7f, 0x3b,
  0x1c, 0x00, 0x00, 0x00, 0x73, 0x65, 0x71, 0x75, 0x65, 0x6e, 0x74, 0x69,
  0x61, 0x6c, 0x5f, 0x32, 0x2f, 0x64, 0x65, 0x6e, 0x73, 0x65, 0x5f, 0x31,
  0x30, 0x2f, 0x4d, 0x61, 0x74, 0x4d, 0x75, 0x6c, 0x00, 0x00, 0x00, 0x00,
  0x02, 0x00, 0x00, 0x00, 0x20, 0x00, 0x00, 0x00, 0x08, 0x00, 0x00, 0x00,
  0x46, 0xfd, 0xff, 0xff, 0x00, 0x00, 0x00, 0x01, 0x14, 0x00, 0x00, 0x00,
  0x30, 0x00, 0x00, 0x00, 0x09, 0x00, 0x00, 0x00, 0x00, 0x00, 0x00, 0x02,
  0x58, 0x00, 0x00, 0x00, 0xb4, 0xfc, 0xff, 0xff, 0x08, 0x00, 0x00, 0x00,
  0x10, 0x00, 0x00, 0x00, 0x01, 0x00, 0x00, 0x00, 0x00, 0x00, 0x00, 0x00,
  0x00, 0x00, 0x00, 0x00, 0x01, 0x00, 0x00, 0x00, 0x86, 0xbf, 0xff, 0x37,
  0x2c, 0x00, 0x00, 0x00, 0x73, 0x65, 0x71, 0x75, 0x65, 0x6e, 0x74, 0x69,
  0x61, 0x6c, 0x5f, 0x32, 0x2f, 0x64, 0x65, 0x6e, 0x73, 0x65, 0x5f, 0x31,
  0x30, 0x2f, 0x42, 0x69, 0x61, 0x73, 0x41, 0x64, 0x64, 0x2f, 0x52, 0x65,
  0x61, 0x64, 0x56, 0x61, 0x72, 0x69, 0x61, 0x62, 0x6c, 0x65, 0x4f, 0x70,
  0x00, 0x00, 0x00, 0x00, 0x01, 0x00, 0x00, 0x00, 0x20, 0x00, 0x00, 0x00,
  0xbe, 0xfd, 0xff, 0xff, 0x00, 0x00, 0x00, 0x01, 0x14, 0x00, 0x00, 0x00,
  0x34, 0x00, 0x00, 0x00, 0x08, 0x00, 0x00, 0x00, 0x00, 0x00, 0x00, 0x09,
  0x4c, 0x00, 0x00, 0x00, 0x2c, 0xfd, 0xff, 0xff, 0x08, 0x00, 0x00, 0x00,
  0x14, 0x00, 0x00, 0x00, 0x01, 0x00, 0x00, 0x00, 0x00, 0x00, 0x00, 0x00,
  0x00, 0x00, 0x00, 0x00, 0x00, 0x00, 0x00, 0x00, 0x01, 0x00, 0x00, 0x00,
  0xf8, 0xe6, 0x7f, 0x3b, 0x1c, 0x00, 0x00, 0x00, 0x73, 0x65, 0x71, 0x75,
  0x65, 0x6e, 0x74, 0x69, 0x61, 0x6c, 0x5f, 0x32, 0x2f, 0x64, 0x65, 0x6e,
  0x73, 0x65, 0x5f, 0x31, 0x31, 0x2f, 0x4d, 0x61, 0x74, 0x4d, 0x75, 0x6c,
  0x00, 0x00, 0x00, 0x00, 0x02, 0x00, 0x00, 0x00, 0x40, 0x00, 0x00, 0x00,
  0x20, 0x00, 0x00, 0x00, 0x2e, 0xfe, 0xff, 0xff, 0x00, 0x00, 0x00, 0x01,
  0x14, 0x00, 0x00, 0x00, 0x34, 0x00, 0x00, 0x00, 0x07, 0x00, 0x00, 0x00,
  0x00, 0x00, 0x00, 0x02, 0x5c, 0x00, 0x00, 0x00, 0x9c, 0xfd, 0xff, 0xff,
  0x08, 0x00, 0x00, 0x00, 0x14, 0x00, 0x00, 0x00, 0x01, 0x00, 0x00, 0x00,
  0x00, 0x00, 0x00, 0x00, 0x00, 0x00, 0x00, 0x00, 0x00, 0x00, 0x00, 0x00,
  0x01, 0x00, 0x00, 0x00, 0x64, 0xd1, 0x62, 0x37, 0x2c, 0x00, 0x00, 0x00,
  0x73, 0x65, 0x71, 0x75, 0x65, 0x6e, 0x74, 0x69, 0x61, 0x6c, 0x5f, 0x32,
  0x2f, 0x64, 0x65, 0x6e, 0x73, 0x65, 0x5f, 0x31, 0x31, 0x2f, 0x42, 0x69,
  0x61, 0x73, 0x41, 0x64, 0x64, 0x2f, 0x52, 0x65, 0x61, 0x64, 0x56, 0x61,
  0x72, 0x69, 0x61, 0x62, 0x6c, 0x65, 0x4f, 0x70, 0x00, 0x00, 0x00, 0x00,
  0x01, 0x00, 0x00, 0x00, 0x40, 0x00, 0x00, 0x00, 0xaa, 0xfe, 0xff, 0xff,
  0x00, 0x00, 0x00, 0x01, 0x14, 0x00, 0x00, 0x00, 0x14, 0x00, 0x00, 0x00,
  0x06, 0x00, 0x00, 0x00, 0x00, 0x00, 0x00, 0x02, 0x38, 0x00, 0x00, 0x00,
  0x94, 0xfe, 0xff, 0xff, 0x2a, 0x00, 0x00, 0x00, 0x73, 0x65, 0x71, 0x75,
  0x65, 0x6e, 0x74, 0x69, 0x61, 0x6c, 0x5f, 0x32, 0x2f, 0x72, 0x65, 0x73,
  0x68, 0x61, 0x70, 0x65, 0x5f, 0x32, 0x2f, 0x73, 0x74, 0x72, 0x69, 0x64,
  0x65, 0x64, 0x5f, 0x73, 0x6c, 0x69, 0x63, 0x65, 0x2f, 0x73, 0x74, 0x61,
  0x63, 0x6b, 0x00, 0x00, 0x01, 0x00, 0x00, 0x00, 0x01, 0x00, 0x00, 0x00,
  0x02, 0xff, 0xff, 0xff, 0x00, 0x00, 0x00, 0x01, 0x14, 0x00, 0x00, 0x00,
  0x14, 0x00, 0x00, 0x00, 0x03, 0x00, 0x00, 0x00, 0x00, 0x00, 0x00, 0x02,
  0x3c, 0x00, 0x00, 0x00, 0xec, 0xfe, 0xff, 0xff, 0x2c, 0x00, 0x00, 0x00,
  0x73, 0x65, 0x71, 0x75, 0x65, 0x6e, 0x74, 0x69, 0x61, 0x6c, 0x5f, 0x32,
  0x2f, 0x72, 0x65, 0x73, 0x68, 0x61, 0x70, 0x65, 0x5f, 0x32, 0x2f, 0x73,
  0x74, 0x72, 0x69, 0x64, 0x65, 0x64, 0x5f, 0x73, 0x6c, 0x69, 0x63, 0x65,
  0x2f, 0x73, 0x74, 0x61, 0x63, 0x6b, 0x5f, 0x31, 0x00, 0x00, 0x00, 0x00,
  0x01, 0x00, 0x00, 0x00, 0x01, 0x00, 0x00, 0x00, 0x5e, 0xff, 0xff, 0xff,
  0x00, 0x00, 0x00, 0x01, 0x14, 0x00, 0x00, 0x00, 0x14, 0x00, 0x00, 0x00,
  0x04, 0x00, 0x00, 0x00, 0x00, 0x00, 0x00, 0x02, 0x34, 0x00, 0x00, 0x00,
  0x48, 0xff, 0xff, 0xff, 0x26, 0x00, 0x00, 0x00, 0x73, 0x65, 0x71, 0x75,
  0x65, 0x6e, 0x74, 0x69, 0x61, 0x6c, 0x5f, 0x32, 0x2f, 0x72, 0x65, 0x73,
  0x68, 0x61, 0x70, 0x65, 0x5f, 0x32, 0x2f, 0x52, 0x65, 0x73, 0x68, 0x61,
  0x70, 0x65, 0x2f, 0x73, 0x68, 0x61, 0x70, 0x65, 0x2f, 0x31, 0x00, 0x00,
  0x00, 0x00, 0x00, 0x00, 0xae, 0xff, 0xff, 0xff, 0x00, 0x00, 0x00, 0x01,
  0x14, 0x00, 0x00, 0x00, 0x14, 0x00, 0x00, 0x00, 0x03, 0x00, 0x00, 0x00,
  0x00, 0x00, 0x00, 0x02, 0x34, 0x00, 0x00, 0x00, 0x98, 0xff, 0xff, 0xff,
  0x26, 0x00, 0x00, 0x00, 0x73, 0x65, 0x71, 0x75, 0x65, 0x6e, 0x74, 0x69,
  0x61, 0x6c, 0x5f, 0x32, 0x2f, 0x72, 0x65, 0x73, 0x68, 0x61, 0x70, 0x65,
  0x5f, 0x32, 0x2f, 0x52, 0x65, 0x73, 0x68, 0x61, 0x70, 0x65, 0x2f, 0x73,
  0x68, 0x61, 0x70, 0x65, 0x2f, 0x32, 0x00, 0x00, 0x00, 0x00, 0x00, 0x00,
  0x00, 0x00, 0x16, 0x00, 0x1c, 0x00, 0x18, 0x00, 0x17, 0x00, 0x10, 0x00,
  0x0c, 0x00, 0x08, 0x00, 0x00, 0x00, 0x00, 0x00, 0x00, 0x00, 0x07, 0x00,
  0x16, 0x00, 0x00, 0x00, 0x00, 0x00, 0x00, 0x01, 0x18, 0x00, 0x00, 0x00,
  0x18, 0x00, 0x00, 0x00, 0x02, 0x00, 0x00, 0x00, 0x00, 0x00, 0x00, 0x02,
  0x30, 0x00, 0x00, 0x00, 0x04, 0x00, 0x04, 0x00, 0x04, 0x00, 0x00, 0x00,
  0x1c, 0x00, 0x00, 0x00, 0x73, 0x65, 0x71, 0x75, 0x65, 0x6e, 0x74, 0x69,
  0x61, 0x6c, 0x5f, 0x32, 0x2f, 0x66, 0x6c, 0x61, 0x74, 0x74, 0x65, 0x6e,
  0x5f, 0x32, 0x2f, 0x43, 0x6f, 0x6e, 0x73, 0x74, 0x00, 0x00, 0x00, 0x00,
  0x01, 0x00, 0x00, 0x00, 0x02, 0x00, 0x00, 0x00, 0x00, 0x00, 0x16, 0x00,
  0x20, 0x00, 0x1c, 0x00, 0x1b, 0x00, 0x14, 0x00, 0x10, 0x00, 0x0c, 0x00,
  0x00, 0x00, 0x00, 0x00, 0x08, 0x00, 0x07, 0x00, 0x16, 0x00, 0x00, 0x00,
  0x00, 0x00, 0x00, 0x01, 0x18, 0x00, 0x00, 0x00, 0x30, 0x00, 0x00, 0x00,
  0x4c, 0x00, 0x00, 0x00, 0x01, 0x00, 0x00, 0x00, 0x00, 0x00, 0x00, 0x09,
  0x68, 0x00, 0x00, 0x00, 0x03, 0x00, 0x00, 0x00, 0xff, 0xff, 0xff, 0xff,
  0x40, 0x00, 0x00, 0x00, 0x01, 0x00, 0x00, 0x00, 0x0c, 0x00, 0x0c, 0x00,
  0x00, 0x00, 0x00, 0x00, 0x08, 0x00, 0x04, 0x00, 0x0c, 0x00, 0x00, 0x00,
  0x08, 0x00, 0x00, 0x00, 0x10, 0x00, 0x00, 0x00, 0x01, 0x00, 0x00, 0x00,
  0x80, 0xff, 0xff, 0xff, 0xff, 0xff, 0xff, 0xff, 0x01, 0x00, 0x00, 0x00,
  0xc5, 0xd3, 0x49, 0x3b, 0x21, 0x00, 0x00, 0x00, 0x73, 0x65, 0x72, 0x76,
  0x69, 0x6e, 0x67, 0x5f, 0x64, 0x65, 0x66, 0x61, 0x75, 0x6c, 0x74, 0x5f,
  0x66, 0x6c, 0x61, 0x74, 0x74, 0x65, 0x6e, 0x5f, 0x32, 0x5f, 0x69, 0x6e,
  0x70, 0x75, 0x74, 0x3a, 0x30, 0x00, 0x00, 0x00, 0x03, 0x00, 0x00, 0x00,
  0x01, 0x00, 0x00, 0x00, 0x40, 0x00, 0x00, 0x00, 0x01, 0x00, 0x00, 0x00,
  0x05, 0x00, 0x00, 0x00, 0x60, 0x00, 0x00, 0x00, 0x40, 0x00, 0x00, 0x00,
  0x24, 0x00, 0x00, 0x00, 0x14, 0x00, 0x00, 0x00, 0x04, 0x00, 0x00, 0x00,
  0xc0, 0xff, 0xff, 0xff, 0x53, 0x00, 0x00, 0x00, 0x00, 0x00, 0x00, 0x53,
  0xcc, 0xff, 0xff, 0xff, 0x2d, 0x00, 0x00, 0x00, 0x00, 0x00, 0x00, 0x2d,
  0xd8, 0xff, 0xff, 0xff, 0x4d, 0x00, 0x00, 0x00, 0x00, 0x00, 0x00, 0x4d,
  0x0c, 0x00, 0x10, 0x00, 0x0f, 0x00, 0x00, 0x00, 0x08, 0x00, 0x04, 0x00,
  0x0c, 0x00, 0x00, 0x00, 0x09, 0x00, 0x00, 0x00, 0x04, 0x00, 0x00, 0x00,
  0x00, 0x00, 0x00, 0x09, 0x0c, 0x00, 0x0c, 0x00, 0x0b, 0x00, 0x00, 0x00,
  0x00, 0x00, 0x04, 0x00, 0x0c, 0x00, 0x00, 0x00, 0x16, 0x00, 0x00, 0x00,
  0x00, 0x00, 0x00, 0x16
};
unsigned int model_tflite_len = 9472;
