const unsigned char model_tflite[] = {28,0,0,0,84,70,76,51,20,0,32,0,28,0,24,0,20,0,16,0,12,0,0,0,8,0,4,0,20,0,0,0,28,0,0,0,152,0,0,0,240,0,0,0,60,4,0,0,76,4,0,0,184,12,0,0,3,0,0,0,1,0,0,0,16,0,0,0,0,0,10,0,16,0,12,0,8,0,4,0,10,0,0,0,12,0,0,0,28,0,0,0,60,0,0,0,15,0,0,0,115,101,114,118,105,110,103,95,100,101,102,97,117,108,116,0,1,0,0,0,4,0,0,0,144,255,255,255,12,0,0,0,4,0,0,0,8,0,0,0,100,101,110,115,101,95,49,49,0,0,0,0,1,0,0,0,4,0,0,0,94,252,255,255,4,0,0,0,13,0,0,0,100,101,110,115,101,95,56,95,105,110,112,117,116,0,0,0,2,0,0,0,52,0,0,0,4,0,0,0,220,255,255,255,15,0,0,0,4,0,0,0,19,0,0,0,67,79,78,86,69,82,83,73,79,78,95,77,69,84,65,68,65,84,65,0,8,0,12,0,8,0,4,0,8,0,0,0,14,0,0,0,4,0,0,0,19,0,0,0,109,105,110,95,114,117,110,116,105,109,101,95,118,101,114,115,105,111,110,0,16,0,0,0,72,3,0,0,64,3,0,0,36,3,0,0,220,2,0,0,140,2,0,0,252,1,0,0,204,1,0,0,60,1,0,0,236,0,0,0,172,0,0,0,164,0,0,0,156,0,0,0,148,0,0,0,140,0,0,0,108,0,0,0,4,0,0,0,26,253,255,255,4,0,0,0,88,0,0,0,12,0,0,0,8,0,14,0,8,0,4,0,8,0,0,0,16,0,0,0,40,0,0,0,0,0,6,0,8,0,4,0,6,0,0,0,4,0,0,0,1,0,0,0,235,3,0,0,0,0,10,0,16,0,12,0,8,0,4,0,10,0,0,0,2,0,0,0,2,0,0,0,4,0,0,0,6,0,0,0,50,46,49,51,46,49,0,0,126,253,255,255,4,0,0,0,16,0,0,0,49,46,49,52,46,48,0,0,0,0,0,0,0,0,0,0,252,252,255,255,0,253,255,255,4,253,255,255,8,253,255,255,170,253,255,255,4,0,0,0,48,0,0,0,65,191,127,162,248,6,212,243,180,188,222,151,45,116,115,62,209,55,42,221,187,150,157,184,241,121,226,230,61,58,52,81,228,70,3,248,226,41,214,178,223,211,248,68,86,154,10,161,230,253,255,255,4,0,0,0,64,0,0,0,73,15,0,0,248,251,255,255,0,0,0,0,0,0,0,0,245,253,255,255,211,6,0,0,0,0,0,0,0,0,0,0,5,15,0,0,74,252,255,255,230,9,0,0,94,254,255,255,34,43,0,0,0,0,0,0,33,8,0,0,0,0,0,0,50,254,255,255,4,0,0,0,128,0,0,0,85,227,223,199,208,188,189,24,205,124,4,144,220,80,127,205,167,45,94,253,4,242,34,76,48,103,236,41,75,33,71,89,194,3,173,224,80,210,52,163,154,56,182,53,239,230,250,42,77,223,190,88,14,231,165,56,183,249,43,199,212,239,21,163,184,216,169,12,61,254,181,249,221,16,68,230,204,189,67,47,48,84,196,95,79,83,14,88,63,241,89,239,146,81,28,243,177,61,161,210,233,87,244,179,237,30,171,252,231,40,179,89,5,221,177,252,19,50,251,199,25,65,161,228,76,70,0,178,190,254,255,255,4,0,0,0,32,0,0,0,31,12,0,0,193,7,0,0,65,245,255,255,251,18,0,0,119,246,255,255,13,6,0,0,0,0,0,0,84,252,255,255,234,254,255,255,4,0,0,0,128,0,0,0,121,48,95,86,32,203,1,23,74,226,206,154,87,25,158,222,45,0,19,198,62,104,13,46,244,234,42,8,214,221,5,55,8,30,46,91,56,249,57,252,108,205,37,28,213,28,227,11,208,199,218,92,42,204,168,198,37,52,246,46,186,218,201,92,252,27,201,80,1,105,43,172,204,28,61,44,196,175,13,180,94,26,100,228,37,227,225,117,24,127,238,188,245,20,196,62,107,157,233,127,55,71,70,9,222,88,69,243,35,71,15,246,188,76,95,74,214,191,238,219,21,209,251,57,202,110,164,196,118,255,255,255,4,0,0,0,64,0,0,0,252,255,255,255,18,253,255,255,13,5,0,0,45,251,255,255,154,239,255,255,89,15,0,0,0,0,0,0,140,21,0,0,45,5,0,0,0,0,0,0,65,1,0,0,214,249,255,255,60,246,255,255,228,16,0,0,53,254,255,255,171,10,0,0,194,255,255,255,4,0,0,0,48,0,0,0,160,225,58,183,204,44,211,129,127,119,152,183,213,79,34,110,35,42,81,88,199,190,47,134,105,94,93,108,174,88,228,19,69,249,58,176,86,87,15,228,108,111,64,29,63,161,191,249,0,0,6,0,8,0,4,0,6,0,0,0,4,0,0,0,12,0,0,0,1,13,0,0,193,7,0,0,11,2,0,0,128,255,255,255,132,255,255,255,15,0,0,0,77,76,73,82,32,67,111,110,118,101,114,116,101,100,46,0,1,0,0,0,20,0,0,0,0,0,14,0,24,0,20,0,16,0,12,0,8,0,4,0,14,0,0,0,20,0,0,0,28,0,0,0,36,1,0,0,40,1,0,0,44,1,0,0,4,0,0,0,109,97,105,110,0,0,0,0,4,0,0,0,204,0,0,0,132,0,0,0,60,0,0,0,4,0,0,0,150,255,255,255,20,0,0,0,0,0,0,8,16,0,0,0,20,0,0,0,4,0,4,0,4,0,0,0,1,0,0,0,12,0,0,0,3,0,0,0,11,0,0,0,2,0,0,0,1,0,0,0,202,255,255,255,16,0,0,0,0,0,0,8,16,0,0,0,20,0,0,0,118,255,255,255,0,0,0,1,1,0,0,0,11,0,0,0,3,0,0,0,10,0,0,0,4,0,0,0,3,0,0,0,0,0,14,0,20,0,0,0,16,0,12,0,11,0,4,0,14,0,0,0,16,0,0,0,0,0,0,8,16,0,0,0,20,0,0,0,186,255,255,255,0,0,0,1,1,0,0,0,10,0,0,0,3,0,0,0,9,0,0,0,6,0,0,0,5,0,0,0,0,0,14,0,22,0,0,0,16,0,12,0,11,0,4,0,14,0,0,0,24,0,0,0,0,0,0,8,24,0,0,0,28,0,0,0,0,0,6,0,8,0,7,0,6,0,0,0,0,0,0,1,1,0,0,0,9,0,0,0,3,0,0,0,0,0,0,0,8,0,0,0,7,0,0,0,1,0,0,0,12,0,0,0,1,0,0,0,0,0,0,0,13,0,0,0,136,6,0,0,240,5,0,0,100,5,0,0,232,4,0,0,116,4,0,0,248,3,0,0,140,3,0,0,16,3,0,0,164,2,0,0,240,1,0,0,60,1,0,0,128,0,0,0,4,0,0,0,194,249,255,255,0,0,0,1,24,0,0,0,32,0,0,0,60,0,0,0,13,0,0,0,0,0,0,9,80,0,0,0,2,0,0,0,255,255,255,255,3,0,0,0,172,249,255,255,8,0,0,0,16,0,0,0,1,0,0,0,128,255,255,255,255,255,255,255,1,0,0,0,65,120,129,59,25,0,0,0,83,116,97,116,101,102,117,108,80,97,114,116,105,116,105,111,110,101,100,67,97,108,108,58,48,0,0,0,2,0,0,0,1,0,0,0,3,0,0,0,58,250,255,255,0,0,0,1,24,0,0,0,32,0,0,0,64,0,0,0,12,0,0,0,0,0,0,9,144,0,0,0,2,0,0,0,255,255,255,255,16,0,0,0,36,250,255,255,8,0,0,0,20,0,0,0,1,0,0,0,128,255,255,255,255,255,255,255,0,0,0,0,1,0,0,0,223,128,77,59,85,0,0,0,115,101,113,117,101,110,116,105,97,108,95,50,47,100,101,110,115,101,95,49,48,47,77,97,116,77,117,108,59,115,101,113,117,101,110,116,105,97,108,95,50,47,100,101,110,115,101,95,49,48,47,82,101,108,117,59,115,101,113,117,101,110,116,105,97,108,95,50,47,100,101,110,115,101,95,49,48,47,66,105,97,115,65,100,100,0,0,0,2,0,0,0,1,0,0,0,16,0,0,0,242,250,255,255,0,0,0,1,24,0,0,0,32,0,0,0,60,0,0,0,11,0,0,0,0,0,0,9,136,0,0,0,2,0,0,0,255,255,255,255,8,0,0,0,220,250,255,255,8,0,0,0,16,0,0,0,1,0,0,0,128,255,255,255,255,255,255,255,1,0,0,0,15,72,137,59,82,0,0,0,115,101,113,117,101,110,116,105,97,108,95,50,47,100,101,110,115,101,95,57,47,77,97,116,77,117,108,59,115,101,113,117,101,110,116,105,97,108,95,50,47,100,101,110,115,101,95,57,47,82,101,108,117,59,115,101,113,117,101,110,116,105,97,108,95,50,47,100,101,110,115,101,95,57,47,66,105,97,115,65,100,100,0,0,2,0,0,0,1,0,0,0,8,0,0,0,162,251,255,255,0,0,0,1,24,0,0,0,32,0,0,0,60,0,0,0,10,0,0,0,0,0,0,9,136,0,0,0,2,0,0,0,255,255,255,255,16,0,0,0,140,251,255,255,8,0,0,0,16,0,0,0,1,0,0,0,128,255,255,255,255,255,255,255,1,0,0,0,49,95,139,59,82,0,0,0,115,101,113,117,101,110,116,105,97,108,95,50,47,100,101,110,115,101,95,56,47,77,97,116,77,117,108,59,115,101,113,117,101,110,116,105,97,108,95,50,47,100,101,110,115,101,95,56,47,82,101,108,117,59,115,101,113,117,101,110,116,105,97,108,95,50,47,100,101,110,115,101,95,56,47,66,105,97,115,65,100,100,0,0,2,0,0,0,1,0,0,0,16,0,0,0,230,252,255,255,0,0,0,1,20,0,0,0,48,0,0,0,9,0,0,0,0,0,0,9,68,0,0,0,44,252,255,255,8,0,0,0,16,0,0,0,1,0,0,0,0,0,0,0,0,0,0,0,1,0,0,0,222,203,165,59,27,0,0,0,115,101,113,117,101,110,116,105,97,108,95,50,47,100,101,110,115,101,95,56,47,77,97,116,77,117,108,0,2,0,0,0,16,0,0,0,3,0,0,0,78,253,255,255,0,0,0,1,20,0,0,0,52,0,0,0,8,0,0,0,0,0,0,2,88,0,0,0,148,252,255,255,8,0,0,0,20,0,0,0,1,0,0,0,0,0,0,0,0,0,0,0,0,0,0,0,1,0,0,0,81,114,166,55,43,0,0,0,115,101,113,117,101,110,116,105,97,108,95,50,47,100,101,110,115,101,95,56,47,66,105,97,115,65,100,100,47,82,101,97,100,86,97,114,105,97,98,108,101,79,112,0,1,0,0,0,16,0,0,0,198,253,255,255,0,0,0,1,20,0,0,0,48,0,0,0,7,0,0,0,0,0,0,9,68,0,0,0,12,253,255,255,8,0,0,0,16,0,0,0,1,0,0,0,0,0,0,0,0,0,0,0,1,0,0,0,80,18,170,59,27,0,0,0,115,101,113,117,101,110,116,105,97,108,95,50,47,100,101,110,115,101,95,57,47,77,97,116,77,117,108,0,2,0,0,0,8,0,0,0,16,0,0,0,46,254,255,255,0,0,0,1,20,0,0,0,52,0,0,0,6,0,0,0,0,0,0,2,88,0,0,0,116,253,255,255,8,0,0,0,20,0,0,0,1,0,0,0,0,0,0,0,0,0,0,0,0,0,0,0,1,0,0,0,94,46,185,55,43,0,0,0,115,101,113,117,101,110,116,105,97,108,95,50,47,100,101,110,115,101,95,57,47,66,105,97,115,65,100,100,47,82,101,97,100,86,97,114,105,97,98,108,101,79,112,0,1,0,0,0,8,0,0,0,166,254,255,255,0,0,0,1,20,0,0,0,52,0,0,0,5,0,0,0,0,0,0,9,76,0,0,0,236,253,255,255,8,0,0,0,20,0,0,0,1,0,0,0,0,0,0,0,0,0,0,0,0,0,0,0,1,0,0,0,81,182,164,59,28,0,0,0,115,101,113,117,101,110,116,105,97,108,95,50,47,100,101,110,115,101,95,49,48,47,77,97,116,77,117,108,0,0,0,0,2,0,0,0,16,0,0,0,8,0,0,0,22,255,255,255,0,0,0,1,20,0,0,0,48,0,0,0,4,0,0,0,0,0,0,2,88,0,0,0,92,254,255,255,8,0,0,0,16,0,0,0,1,0,0,0,0,0,0,0,0,0,0,0,1,0,0,0,221,167,176,55,44,0,0,0,115,101,113,117,101,110,116,105,97,108,95,50,47,100,101,110,115,101,95,49,48,47,66,105,97,115,65,100,100,47,82,101,97,100,86,97,114,105,97,98,108,101,79,112,0,0,0,0,1,0,0,0,16,0,0,0,142,255,255,255,0,0,0,1,20,0,0,0,52,0,0,0,3,0,0,0,0,0,0,9,76,0,0,0,212,254,255,255,8,0,0,0,20,0,0,0,1,0,0,0,0,0,0,0,0,0,0,0,0,0,0,0,1,0,0,0,62,53,154,59,28,0,0,0,115,101,113,117,101,110,116,105,97,108,95,50,47,100,101,110,115,101,95,49,49,47,77,97,116,77,117,108,0,0,0,0,2,0,0,0,3,0,0,0,16,0,0,0,0,0,22,0,28,0,24,0,23,0,16,0,12,0,8,0,0,0,0,0,0,0,7,0,22,0,0,0,0,0,0,1,20,0,0,0,52,0,0,0,2,0,0,0,0,0,0,2,92,0,0,0,92,255,255,255,8,0,0,0,20,0,0,0,1,0,0,0,0,0,0,0,0,0,0,0,0,0,0,0,1,0,0,0,135,148,119,55,44,0,0,0,115,101,113,117,101,110,116,105,97,108,95,50,47,100,101,110,115,101,95,49,49,47,66,105,97,115,65,100,100,47,82,101,97,100,86,97,114,105,97,98,108,101,79,112,0,0,0,0,1,0,0,0,3,0,0,0,0,0,22,0,32,0,28,0,27,0,20,0,16,0,12,0,0,0,0,0,8,0,7,0,22,0,0,0,0,0,0,1,24,0,0,0,44,0,0,0,76,0,0,0,1,0,0,0,0,0,0,9,100,0,0,0,2,0,0,0,255,255,255,255,3,0,0,0,12,0,12,0,0,0,0,0,8,0,4,0,12,0,0,0,8,0,0,0,20,0,0,0,1,0,0,0,128,255,255,255,255,255,255,255,0,0,0,0,1,0,0,0,129,128,128,59,31,0,0,0,115,101,114,118,105,110,103,95,100,101,102,97,117,108,116,95,100,101,110,115,101,95,56,95,105,110,112,117,116,58,48,0,2,0,0,0,1,0,0,0,3,0,0,0,1,0,0,0,16,0,0,0,12,0,16,0,15,0,0,0,8,0,4,0,12,0,0,0,9,0,0,0,4,0,0,0,0,0,0,9};
const unsigned int model_tflite_len = 3344;
