#ifndef MODEL_DATA_H
#define MODEL_DATA_H

// Auto-generated TensorFlow Lite model
// Model size: 6160 bytes

const unsigned char g_model_data[] = {
  0x1c,0x00,0x00,0x00,0x54,0x46,0x4c,0x33,0x14,0x00,0x20,0x00,
  0x1c,0x00,0x18,0x00,0x14,0x00,0x10,0x00,0x0c,0x00,0x00,0x00,
  0x08,0x00,0x04,0x00,0x14,0x00,0x00,0x00,0x1c,0x00,0x00,0x00,
  0x90,0x00,0x00,0x00,0xe8,0x00,0x00,0x00,0xd0,0x11,0x00,0x00,
  0xe0,0x11,0x00,0x00,0xac,0x17,0x00,0x00,0x03,0x00,0x00,0x00,
  0x01,0x00,0x00,0x00,0x10,0x00,0x00,0x00,0x00,0x00,0x0a,0x00,
  0x10,0x00,0x0c,0x00,0x08,0x00,0x04,0x00,0x0a,0x00,0x00,0x00,
  0x0c,0x00,0x00,0x00,0x1c,0x00,0x00,0x00,0x38,0x00,0x00,0x00,
  0x0f,0x00,0x00,0x00,0x73,0x65,0x72,0x76,0x69,0x6e,0x67,0x5f,
  0x64,0x65,0x66,0x61,0x75,0x6c,0x74,0x00,0x01,0x00,0x00,0x00,
  0x04,0x00,0x00,0x00,0x98,0xff,0xff,0xff,0x0a,0x00,0x00,0x00,
  0x04,0x00,0x00,0x00,0x07,0x00,0x00,0x00,0x64,0x65,0x6e,0x73,
  0x65,0x5f,0x32,0x00,0x01,0x00,0x00,0x00,0x04,0x00,0x00,0x00,
  0x12,0xee,0xff,0xff,0x04,0x00,0x00,0x00,0x0b,0x00,0x00,0x00,
  0x64,0x65,0x6e,0x73,0x65,0x5f,0x69,0x6e,0x70,0x75,0x74,0x00,
  0x02,0x00,0x00,0x00,0x34,0x00,0x00,0x00,0x04,0x00,0x00,0x00,
  0xdc,0xff,0xff,0xff,0x0d,0x00,0x00,0x00,0x04,0x00,0x00,0x00,
  0x13,0x00,0x00,0x00,0x43,0x4f,0x4e,0x56,0x45,0x52,0x53,0x49,
  0x4f,0x4e,0x5f,0x4d,0x45,0x54,0x41,0x44,0x41,0x54,0x41,0x00,
  0x08,0x00,0x0c,0x00,0x08,0x00,0x04,0x00,0x08,0x00,0x00,0x00,
  0x0c,0x00,0x00,0x00,0x04,0x00,0x00,0x00,0x13,0x00,0x00,0x00,
  0x6d,0x69,0x6e,0x5f,0x72,0x75,0x6e,0x74,0x69,0x6d,0x65,0x5f,
  0x76,0x65,0x72,0x73,0x69,0x6f,0x6e,0x00,0x0e,0x00,0x00,0x00,
  0xe4,0x10,0x00,0x00,0xdc,0x10,0x00,0x00,0x8c,0x10,0x00,0x00,
  0x6c,0x10,0x00,0x00,0xdc,0x0f,0x00,0x00,0xcc,0x09,0x00,0x00,
  0xbc,0x01,0x00,0x00,0xac,0x00,0x00,0x00,0xa4,0x00,0x00,0x00,
  0x9c,0x00,0x00,0x00,0x94,0x00,0x00,0x00,0x8c,0x00,0x00,0x00,
  0x6c,0x00,0x00,0x00,0x04,0x00,0x00,0x00,0xc2,0xee,0xff,0xff,
  0x04,0x00,0x00,0x00,0x58,0x00,0x00,0x00,0x0c,0x00,0x00,0x00,
  0x08,0x00,0x0e,0x00,0x08,0x00,0x04,0x00,0x08,0x00,0x00,0x00,
  0x10,0x00,0x00,0x00,0x28,0x00,0x00,0x00,0x00,0x00,0x06,0x00,
  0x08,0x00,0x04,0x00,0x06,0x00,0x00,0x00,0x04,0x00,0x00,0x00,
  0x01,0x00,0x00,0x00,0xea,0x03,0x00,0x00,0x00,0x00,0x0a,0x00,
  0x10,0x00,0x0c,0x00,0x08,0x00,0x04,0x00,0x0a,0x00,0x00,0x00,
  0x02,0x00,0x00,0x00,0x02,0x00,0x00,0x00,0x04,0x00,0x00,0x00,
  0x06,0x00,0x00,0x00,0x32,0x2e,0x31,0x33,0x2e,0x31,0x00,0x00,
  0x26,0xef,0xff,0xff,0x04,0x00,0x00,0x00,0x10,0x00,0x00,0x00,
  0x31,0x2e,0x35,0x2e,0x30,0x00,0x00,0x00,0x00,0x00,0x00,0x00,
  0x00,0x00,0x00,0x00,0x24,0xea,0xff,0xff,0x28,0xea,0xff,0xff,
  0x2c,0xea,0xff,0xff,0x30,0xea,0xff,0xff,0x52,0xef,0xff,0xff,
  0x04,0x00,0x00,0x00,0x00,0x01,0x00,0x00,0xc8,0x88,0x39,0x3f,
  0x4d,0xde,0x69,0xbf,0x77,0x2b,0xa9,0xbe,0xd5,0x9a,0xfc,0xbe,
  0x22,0x3e,0x04,0xbf,0x56,0x18,0xc7,0x3e,0x06,0x3c,0x2b,0x3f,
  0x0c,0xcc,0x25,0xbf,0x88,0xb0,0x62,0x3f,0x05,0x57,0x85,0xbf,
  0xa5,0x61,0xf6,0xbe,0xbf,0x74,0x15,0x3f,0xef,0x27,0x46,0xbf,
  0xcd,0x7f,0xd6,0x3e,0x5a,0x9b,0x37,0x3f,0xaa,0x04,0x6e,0xbe,
  0xa2,0x2a,0x8d,0xbf,0xb7,0x98,0x14,0x3f,0x71,0xc6,0x4c,0xbf,
  0x0c,0x2d,0x45,0x3f,0x1a,0xe6,0x70,0x3f,0x28,0x2d,0x47,0x3f,
  0x6a,0xe3,0x09,0xbf,0x30,0x51,0xbe,0x3c,0x67,0xea,0x2b,0xbf,
  0xbb,0x53,0x27,0x3f,0xe0,0x13,0x74,0x3f,0xf4,0x51,0x8b,0xbf,
  0x42,0x05,0x81,0xbf,0x81,0x47,0xbb,0xbe,0x27,0x66,0xae,0xbf,
  0xaa,0x9c,0xab,0xbf,0xe4,0xfb,0x21,0xbf,0xd9,0x81,0xca,0xbe,
  0x86,0xe7,0x40,0x3f,0x94,0xc8,0x47,0xbf,0x5e,0x16,0x94,0xbf,
  0x99,0x3f,0x50,0x3f,0xdd,0x5d,0x8c,0xbe,0xe5,0x83,0x26,0x3f,
  0x6d,0x0f,0x2d,0xbf,0x8c,0x2e,0x80,0xbf,0x83,0x5c,0xdb,0x3e,
  0x7f,0xa2,0xa1,0xbf,0x0d,0x73,0xb8,0x3e,0x7c,0xe0,0x8e,0xbf,
  0xcb,0xe3,0xef,0x3e,0xdf,0xe8,0x59,0x3f,0x61,0x3d,0x3f,0x3f,
  0x13,0x3b,0xde,0x3e,0xca,0xb4,0x72,0x3f,0x15,0x76,0x7b,0x3f,
  0x0d,0xe3,0x0f,0x3f,0xb0,0xdb,0xa2,0xbf,0xa2,0xb3,0x7d,0xbf,
  0x03,0x94,0x5c,0xbf,0x0f,0xa8,0x6b,0xbf,0xc8,0x55,0x89,0xbf,
  0x61,0x27,0x82,0xbf,0x01,0x4e,0x46,0x3f,0x42,0xa8,0x6a,0xbf,
  0x7a,0x5b,0x8a,0xbf,0xbf,0x24,0xa7,0xbf,0x75,0xb4,0x55,0x3f,
  0x5e,0xf0,0xff,0xff,0x04,0x00,0x00,0x00,0x00,0x08,0x00,0x00,
  0x63,0xeb,0x68,0x3f,0x57,0xac,0xbb,0xbe,0x22,0xa6,0x0d,0x3f,
  0x1e,0x6d,0x1f,0x3e,0xfb,0x0e,0x6b,0x3e,0x6b,0x31,0x07,0xbf,
  0xf9,0x38,0xa3,0xbe,0xf3,0x37,0x2b,0x3f,0x30,0xc9,0x43,0x3e,
  0x1b,0xff,0x40,0x3f,0x87,0x3c,0x12,0xbf,0x3f,0xe5,0xc7,0x3e,
  0x9e,0x38,0x95,0xbe,0xb3,0x0f,0xbc,0x3e,0xf1,0xf9,0x91,0x3f,
  0x53,0xa7,0x6f,0xbd,0x70,0x6b,0x9f,0xbd,0x02,0x7b,0x1d,0xbf,
  0x8c,0x37,0x64,0x3f,0xd4,0xd3,0xa6,0xbd,0x15,0xc7,0x23,0x3f,
  0x74,0xd2,0x14,0xbf,0xf4,0xc7,0x0e,0xbf,0x6a,0x09,0xdb,0x3e,
  0xc0,0x81,0x28,0xbc,0x21,0xbf,0x61,0xbe,0x20,0x4e,0xfd,0x3c,
  0x37,0xc4,0x86,0x3e,0x3c,0xc3,0xa3,0xbe,0xfc,0xb3,0xa4,0xbd,
  0x40,0x93,0xe3,0x3c,0x66,0xd7,0x50,0x3e,0x18,0x18,0x02,0xbf,
  0x4d,0xd8,0x7b,0x3f,0xea,0xf3,0x77,0x3f,0xac,0x03,0xb6,0x3e,
  0x5f,0xd6,0x5e,0xbe,0xe6,0x17,0xe2,0xbc,0x70,0xa2,0x46,0xbd,
  0x82,0x42,0xf6,0xbe,0xb7,0xcd,0xc4,0xbe,0x0f,0xa5,0xea,0x3e,
  0xa4,0x6a,0xb3,0xbe,0x65,0xd2,0x28,0x3f,0x8b,0x96,0x42,0x3e,
  0xa6,0x7c,0x4b,0x3f,0xa0,0xdb,0x58,0xbe,0x85,0x8d,0x87,0xbe,
  0xf3,0xcb,0x95,0x3e,0x15,0xcb,0xc0,0x3d,0x08,0xe3,0x87,0x3e,
  0xdf,0xd6,0x87,0x3e,0x18,0xbb,0x14,0xbf,0xb9,0x62,0xc5,0x3d,
  0x71,0x7a,0x70,0x3f,0x13,0x8a,0x2a,0xbe,0x28,0x88,0x0a,0x3d,
  0x4d,0x71,0xa5,0x3e,0xdd,0xa5,0xac,0x3e,0x17,0x58,0x82,0x3e,
  0xe1,0x7b,0xc2,0xbe,0x24,0x04,0xd4,0xbd,0xd6,0x76,0x31,0xbe,
  0xa5,0xc8,0x22,0x3c,0x1f,0x5c,0x2c,0xbf,0xda,0x06,0xbc,0xbe,
  0x94,0x9f,0x0c,0x3e,0x93,0xf7,0xbf,0x3e,0x1c,0x15,0x6f,0x3e,
  0x68,0x28,0x18,0x3f,0xad,0x48,0x89,0xbe,0x06,0x1f,0x0f,0xbe,
  0x32,0xbb,0xad,0xbe,0x30,0x44,0x1d,0x3f,0x9e,0xc7,0x11,0xbf,
  0xb3,0xe4,0xa1,0x3c,0xd3,0x25,0x77,0x3f,0x8d,0x18,0xdb,0xbd,
  0x2a,0x10,0x83,0xbf,0xc3,0xd3,0xbc,0xbe,0x0b,0x21,0x88,0xbe,
  0xa4,0x55,0xa4,0xbe,0x36,0x59,0x65,0x3f,0xc4,0x1e,0x12,0xbe,
  0x1a,0x42,0x34,0xbf,0x8d,0xbf,0x37,0xbd,0x55,0x03,0x04,0xbf,
  0x5e,0x02,0x41,0x3f,0xa8,0x89,0x5e,0x3d,0x50,0x50,0x39,0xbd,
  0x9e,0x3a,0x5d,0x3e,0x8c,0xee,0x48,0xbe,0x27,0x5e,0xaa,0x3e,
  0x31,0x7b,0x85,0x3e,0x57,0xed,0xa5,0xbe,0x2c,0x79,0x1d,0x3f,
  0x8b,0xe0,0xc9,0xbe,0xee,0xde,0x01,0x3f,0x0c,0x23,0x55,0x3f,
  0xa5,0x80,0x2b,0x3f,0x0f,0x61,0x4d,0x3c,0x70,0xb1,0xbc,0xbe,
  0x51,0xe6,0x0f,0xbe,0xce,0x12,0xea,0xbe,0xa9,0xf1,0xfe,0xbe,
  0xa8,0xa2,0x14,0x3f,0xe5,0x49,0x4d,0x3d,0x1e,0xf0,0x40,0x3f,
  0xe0,0xb7,0x2a,0xbb,0xd4,0x1f,0x4e,0x3f,0x7f,0x6a,0x56,0xbe,
  0xb3,0x90,0x8d,0x3e,0x39,0xe4,0x34,0xbe,0xfc,0xbb,0x4b,0xbe,
  0x93,0x72,0x30,0x3f,0x54,0xe9,0x92,0xbd,0x57,0x35,0x80,0xbe,
  0x4b,0xbf,0x1c,0xbe,0x9b,0x70,0x69,0x3e,0x68,0x2e,0x1d,0xbe,
  0x7c,0x3d,0xbb,0x3d,0xd4,0xe9,0x70,0xbe,0x70,0x72,0x8e,0xbe,
  0x48,0x66,0xb6,0xbd,0xe4,0x66,0x31,0xbf,0xc2,0x70,0x3e,0xbe,
  0xa6,0xdd,0x37,0x3e,0x15,0x3c,0xac,0xbd,0xe8,0x84,0xaa,0x3d,
  0xfc,0x8c,0x3f,0x3f,0x83,0xb8,0x49,0x3f,0x08,0xf0,0xcb,0x3e,
  0xc9,0x21,0x43,0xbe,0x7c,0x76,0x05,0x3d,0x1b,0xb7,0xad,0x3e,
  0x80,0x7f,0x2b,0xbf,0x5e,0x2a,0x8c,0xbe,0x87,0x0f,0xfa,0x3e,
  0x44,0x08,0x06,0xbe,0x27,0x0b,0x18,0x3f,0xa0,0x8f,0x61,0xbe,
  0xec,0x8d,0x04,0x3f,0xeb,0x4c,0x22,0x3b,0x85,0x8f,0x1a,0xbe,
  0x20,0x25,0x69,0x3e,0x9e,0x5b,0x9e,0x3d,0x3e,0x8e,0xe3,0x3e,
  0x00,0xd7,0x8c,0xbc,0x44,0x17,0x65,0xbe,0x9c,0x12,0x6f,0x3e,
  0xcd,0xe7,0x06,0x3f,0xa2,0x16,0x44,0xbe,0x54,0x13,0xbe,0x3d,
  0x00,0x0a,0x15,0x3e,0xda,0xa8,0x51,0xbe,0x58,0x58,0x88,0xbd,
  0x30,0x1d,0x3d,0xbf,0x00,0x5b,0x81,0x3a,0xfa,0x9b,0x61,0x3e,
  0x69,0x1f,0xdc,0xbe,0xba,0x1f,0x50,0x3e,0x39,0x19,0x02,0x3f,
  0x1e,0x0e,0x04,0xbf,0x58,0xd1,0xcc,0x3d,0xd0,0x35,0xe6,0x3c,
  0x3c,0x7d,0x10,0x3f,0x83,0x50,0x97,0xbe,0x59,0xc3,0x59,0x3d,
  0x0d,0x17,0x9a,0x3e,0x12,0xf9,0x1e,0xbf,0x01,0x10,0x33,0x3f,
  0x9d,0xa7,0xcf,0xbd,0xa5,0x59,0x9c,0x3e,0xd5,0x54,0x4c,0xbe,
  0xde,0xcb,0x1d,0x3d,0xce,0xa8,0x52,0x3e,0x16,0x4b,0x16,0x3d,
  0xaf,0x56,0x15,0x3f,0xf8,0xaf,0xc8,0xbe,0xc0,0xdd,0xd8,0x3c,
  0x00,0x6c,0x8c,0x3d,0xb0,0xef,0x22,0x3f,0xe6,0x9b,0x37,0x3f,
  0x8f,0xc3,0x39,0x3e,0xa7,0xb5,0x6d,0xbe,0x48,0x72,0x03,0xbe,
  0x00,0x6f,0xaa,0xba,0x00,0x34,0x55,0x3b,0x8a,0x32,0x4c,0x3f,
  0x00,0x78,0xc3,0xb9,0x34,0x2e,0x97,0xbd,0x80,0xee,0x6c,0xbb,
  0xa9,0xf5,0x4e,0x3f,0x73,0x68,0x92,0x3e,0x2d,0x7c,0x21,0xbe,
  0x4b,0xf2,0x45,0xbf,0x67,0x7e,0x41,0x3e,0x16,0x5e,0x31,0xbe,
  0x5e,0x30,0x07,0xbe,0x50,0x0b,0x20,0x3f,0x19,0x61,0xda,0x3e,
  0x07,0x46,0xc4,0x3d,0xf7,0x7e,0xd2,0x3e,0x1b,0x3c,0x88,0x3e,
  0x78,0x8a,0xfc,0xbe,0xc5,0x9f,0xea,0xbe,0x8f,0xb6,0x69,0x3f,
  0x18,0xd4,0x26,0x3d,0xcb,0xcb,0x9b,0x3e,0xd7,0xef,0xd7,0x3e,
  0x27,0x6a,0xa9,0xbe,0x68,0x0b,0x41,0xbe,0x27,0x5a,0x08,0x3f,
  0x73,0x21,0xb4,0xbe,0xd1,0x54,0x99,0xbe,0x46,0xdc,0x62,0x3e,
  0x1a,0xb4,0x47,0x3e,0x09,0xae,0x89,0xbe,0x8e,0x79,0xe8,0xbd,
  0xd2,0xdb,0x4f,0x3e,0xdc,0x1c,0x85,0x3e,0x00,0xee,0x35,0xbc,
  0x84,0x70,0xe7,0x3d,0x39,0x9e,0x25,0xbd,0xee,0x69,0xc0,0xbe,
  0x34,0xcf,0x99,0x3d,0xfb,0x86,0xc7,0xbe,0x1a,0xb2,0xb9,0x3e,
  0xc7,0x78,0x3b,0x3d,0x30,0x29,0x48,0x3f,0xca,0x82,0x63,0x3e,
  0x2d,0x6f,0x29,0xbe,0x79,0xd8,0xfd,0xbd,0xcf,0x04,0x7d,0xbf,
  0x80,0xb7,0x37,0x3e,0x92,0x99,0x79,0xbf,0x38,0xf3,0x44,0x3f,
  0xde,0xb3,0x59,0xbf,0x18,0xec,0xeb,0xbe,0xe2,0x35,0x66,0xbe,
  0xf6,0xd9,0x36,0x3e,0xad,0xf8,0x2c,0x3f,0x1a,0x14,0x8e,0xbe,
  0xf2,0x58,0x24,0x3e,0x69,0xe5,0xf4,0xbe,0x3e,0x47,0xfc,0x3e,
  0x4d,0x77,0xe5,0x3e,0xf2,0xb0,0x42,0x3e,0x40,0x64,0x82,0xbd,
  0x12,0xd3,0xb3,0xbe,0x5c,0xeb,0xb9,0x3d,0xc0,0x23,0x72,0xbc,
  0xf8,0x86,0x01,0x3f,0x75,0x6f,0x9c,0x3e,0x3c,0x48,0x9c,0x3d,
  0x2b,0x10,0xdf,0x3e,0xd3,0x6a,0x4a,0x3f,0xd1,0xe6,0x2d,0x3e,
  0x4e,0x1b,0xeb,0x3c,0x44,0xb3,0xfc,0xbe,0x94,0xd6,0x4c,0x3e,
  0x06,0xc6,0xaf,0xbe,0xb6,0x48,0x22,0x3e,0x8b,0x71,0xf1,0x3e,
  0x45,0x9d,0xab,0x3e,0x2b,0x6a,0x4b,0x3e,0x93,0x92,0xb2,0x3e,
  0x39,0xe9,0x01,0x3f,0x89,0xc4,0xba,0xbe,0x34,0xc0,0x17,0xbf,
  0x42,0x96,0x49,0x3f,0x28,0xa5,0x80,0x3c,0xb5,0x0d,0x8a,0xbe,
  0x88,0x2e,0x3e,0x3e,0xc5,0x64,0xd9,0xbe,0x80,0x29,0x24,0x3c,
  0x57,0x2a,0x51,0x3f,0x20,0x0d,0xbf,0xbe,0x4d,0x4c,0x26,0xbf,
  0x71,0x6d,0xd8,0x3d,0xc4,0x23,0xe2,0x3d,0x09,0xa5,0x58,0xbe,
  0x74,0x60,0x63,0xbe,0xf8,0xc4,0x6c,0xbe,0xe9,0x7c,0x4f,0xbc,
  0x1e,0x28,0x37,0xbe,0x85,0x2e,0x06,0xbe,0x9d,0x4a,0x11,0xbe,
  0x49,0x98,0x30,0xbf,0x71,0xfc,0x44,0x3f,0xc1,0x5f,0xd7,0x3e,
  0x56,0x0d,0xdb,0x3d,0xa0,0x3a,0xf3,0xbd,0xa7,0xdb,0x8f,0x3c,
  0x08,0x9b,0x3e,0xbe,0xed,0xe3,0x31,0xbf,0xd4,0x8f,0x29,0xbf,
  0x07,0x91,0x2f,0xbf,0xf9,0xdf,0xc4,0x3e,0xc5,0x9d,0x99,0x3e,
  0x37,0x37,0xbe,0xbe,0x91,0x64,0x01,0x3f,0x8c,0x87,0x28,0xbe,
  0xf2,0x3f,0x80,0x3e,0xdc,0x2f,0xb5,0x3d,0xba,0xb5,0xc4,0x3e,
  0xa7,0x7f,0x1c,0xbf,0xc4,0x21,0x8d,0xbe,0x09,0x47,0x1c,0xbe,
  0x16,0x3b,0x9c,0x3e,0x24,0xa4,0x6f,0x3f,0xb3,0x53,0x5e,0xbf,
  0x1c,0xec,0x9d,0xbe,0x35,0x6c,0x87,0xbe,0xa7,0xe0,0x9b,0x3e,
  0x14,0xed,0x8c,0x3d,0xab,0x03,0x2b,0xbf,0xc8,0xcf,0x15,0xbd,
  0xec,0x73,0xd7,0xbd,0x47,0xa9,0x43,0xbf,0x9c,0x2b,0x1b,0xbf,
  0x0c,0x18,0x26,0x3f,0x2a,0x98,0x41,0xbe,0x62,0xcb,0x93,0x3d,
  0x20,0xd2,0x07,0x3d,0xd8,0x20,0x4c,0x3f,0x4c,0x6e,0x72,0xbe,
  0x7f,0x6f,0xbc,0xbe,0x9c,0xa5,0x6a,0x3e,0x9b,0x73,0x1f,0xbf,
  0x52,0x24,0x25,0x3f,0x1e,0xfd,0xdc,0x3d,0xae,0xeb,0xa5,0x3d,
  0x96,0x5a,0xc9,0x3e,0x90,0xc5,0xff,0xbe,0xb9,0x0c,0x10,0xbd,
  0x21,0x04,0x28,0xbd,0xe5,0xde,0x41,0x3f,0x73,0x3b,0xf0,0xbe,
  0xb0,0x3c,0x64,0xbd,0x78,0xcc,0x02,0xbf,0xc0,0x8b,0x09,0x3f,
  0x3f,0xe4,0x1c,0x3f,0xb9,0xde,0x9f,0xbe,0x58,0xe5,0x22,0x3d,
  0x22,0x90,0x7e,0xbe,0x2f,0x86,0xa4,0x3e,0x2a,0xf5,0x7d,0xbe,
  0x6b,0x79,0x16,0x3e,0x52,0xc0,0x30,0x3e,0x8c,0x85,0xe6,0x3d,
  0x99,0x48,0xc0,0xbe,0xba,0x52,0x0a,0x3f,0x6e,0x7a,0x9e,0xbe,
  0xd0,0x79,0xdf,0x3e,0x76,0xce,0xf9,0x3c,0x37,0x35,0x01,0x3e,
  0x4f,0x8e,0x1a,0xbf,0x7e,0x76,0x63,0x3e,0x2f,0xa0,0x00,0x3f,
  0x25,0x32,0x37,0xbe,0xca,0xb1,0x67,0x3f,0x9f,0xd4,0x4f,0xbe,
  0xb1,0xa3,0x12,0x3f,0xf0,0x8e,0x9b,0xbe,0x5d,0x44,0xa8,0x3e,
  0x00,0xe9,0x12,0x3f,0x89,0x05,0xa7,0x3e,0x07,0x72,0x30,0xbe,
  0x01,0x39,0x8f,0xbe,0x5c,0x52,0x23,0x3f,0xc2,0xd6,0x6b,0x3e,
  0xe9,0xa2,0x1b,0x3f,0x56,0x0c,0xfb,0xbe,0xfb,0xd5,0x60,0xbf,
  0x68,0x8b,0xe6,0x3e,0xd3,0xec,0x97,0x3e,0x2c,0xe4,0xf4,0xbd,
  0x1d,0xef,0x52,0xbe,0x3e,0xa7,0x69,0x3e,0xdf,0x93,0xd9,0xbe,
  0x2e,0xea,0x72,0x3e,0x33,0xfb,0x85,0x3e,0xdb,0x87,0x79,0x3e,
  0xd7,0x45,0x4c,0xbf,0xff,0x49,0x00,0xbf,0xfb,0xd7,0x86,0xbf,
  0x91,0x68,0xcc,0x3e,0x63,0x8a,0xad,0x3e,0x17,0xfe,0x30,0x3f,
  0xae,0x90,0x1a,0x3e,0x8d,0x96,0x77,0x3e,0x26,0xa8,0x8e,0x3e,
  0xed,0x36,0x90,0xbf,0xc3,0x14,0x5d,0x3e,0x86,0x4e,0x86,0xbf,
  0x87,0xf4,0x65,0x3f,0xc7,0x33,0x6c,0xbf,0x88,0xbf,0x11,0xbf,
  0x33,0x6b,0xe5,0x3d,0x90,0xaa,0x60,0xbe,0x76,0x0b,0x46,0xbd,
  0x79,0x19,0xaa,0xbe,0x79,0x9f,0x57,0xbe,0xda,0x88,0x1f,0xbf,
  0xa8,0x0b,0xaa,0x3e,0xc0,0x62,0x72,0xbe,0x08,0xe8,0x8b,0x3e,
  0x9a,0x41,0xab,0xbe,0x06,0xe6,0x71,0xbe,0x94,0x4c,0x3b,0xbe,
  0x49,0xfd,0x1e,0xbe,0xb8,0x79,0x77,0x3f,0x60,0x5d,0x67,0xbc,
  0x23,0xa0,0x39,0xbe,0x25,0x6c,0xc1,0x3e,0x43,0xdc,0x1c,0x3f,
  0x3b,0xcd,0x35,0x3e,0x6d,0x65,0xde,0xbe,0xc0,0x3c,0x30,0xbf,
  0xa2,0x7b,0xb3,0xbe,0x32,0xe4,0x9e,0xbe,0x50,0xbd,0xe2,0x3c,
  0x7a,0x38,0x1a,0x3f,0xc7,0x01,0x22,0x3e,0x92,0x48,0x53,0x3e,
  0x90,0x14,0x59,0x3e,0x8a,0x5d,0x52,0x3e,0xa8,0x9f,0x06,0xbf,
  0x73,0x36,0x86,0xbe,0xf3,0x43,0xf3,0x3e,0x55,0x6f,0x70,0xbe,
  0xfe,0xc1,0x18,0x3e,0xf3,0x70,0xac,0x3e,0xe7,0xb4,0xa2,0xbe,
  0x8a,0x11,0x8a,0xbe,0xbf,0x84,0x5f,0x3f,0xed,0x72,0x0c,0xbf,
  0xf0,0xa3,0xf8,0xbe,0xc0,0x76,0xa1,0x3e,0xda,0x95,0x32,0x3e,
  0xa8,0x85,0x35,0xbd,0xd4,0xc2,0x6c,0xbe,0x5c,0x66,0x5a,0xbe,
  0xce,0x89,0x34,0x3b,0x65,0x80,0xa8,0x3e,0xf1,0x3d,0x49,0xbe,
  0xe6,0x80,0xfb,0xbd,0x77,0x5b,0x21,0x3f,0x6c,0x9a,0x12,0xbe,
  0xe7,0xdc,0x35,0xbf,0x11,0x80,0x96,0xbe,0x8d,0x57,0xeb,0x3c,
  0x11,0xb5,0x01,0x3f,0x1d,0x14,0x90,0xbe,0x83,0x3c,0x05,0x3f,
  0x8c,0x36,0x58,0x3f,0x74,0xf2,0x98,0xbd,0x35,0x34,0x8a,0x3d,
  0x73,0x4f,0xcf,0xbe,0xef,0x0f,0xab,0xbc,0x89,0xe8,0x96,0xbe,
  0x44,0xd8,0x9b,0x3e,0x03,0x31,0x26,0xbe,0xc9,0x8d,0x81,0x3e,
  0x85,0x78,0x70,0x3e,0x9d,0xff,0x95,0xbe,0x3e,0x3b,0x70,0x3e,
  0x48,0xbb,0x16,0x3f,0xbe,0x10,0x2d,0xbb,0x33,0xd4,0x1f,0xbe,
  0x04,0xe2,0xc0,0x3e,0xaa,0xf7,0x3a,0x3e,0xa9,0x6f,0xa1,0x3e,
  0x16,0x60,0x38,0x3e,0x83,0x5a,0x5a,0xbe,0xb1,0x55,0x3e,0x3f,
  0xff,0xb3,0x9d,0xbe,0x20,0xe2,0x68,0xbd,0xf3,0xbb,0x8b,0x3e,
  0x30,0x48,0x79,0xbf,0xf3,0x20,0x11,0xbe,0xf6,0xd4,0x8b,0x3e,
  0x5b,0xab,0xbe,0x3e,0xe4,0x69,0x56,0xbe,0x78,0xef,0x21,0x3e,
  0x10,0xaf,0xe7,0x3d,0xcd,0xd5,0xed,0x3d,0x27,0xca,0xa2,0x3e,
  0x2e,0x19,0xac,0x3e,0xd0,0x95,0x86,0xbe,0xfa,0x6d,0xc9,0xbe,
  0x4a,0xd4,0xe9,0x3e,0xce,0x3f,0x2d,0xbe,0x10,0xe2,0x3c,0xbf,
  0x12,0x67,0xf1,0x3d,0xf2,0x02,0x23,0x3e,0xdf,0xc0,0x9c,0xbe,
  0xcd,0x8e,0x4f,0x3f,0x79,0x62,0x59,0xbe,0x8c,0x01,0x89,0xbf,
  0xaf,0xe6,0x58,0xbd,0x58,0xd3,0xa5,0xbe,0x14,0x53,0x10,0x3f,
  0xa0,0xf9,0x5c,0xbc,0x40,0x59,0xce,0xbd,0x60,0x87,0xf8,0xbc,
  0x28,0xdb,0x20,0x3d,0x41,0x6c,0xf8,0x3e,0x64,0x8c,0x80,0xbd,
  0x60,0xc0,0xc1,0xbc,0xe5,0x3d,0x61,0x3f,0x6a,0xf8,0xff,0xff,
  0x04,0x00,0x00,0x00,0x00,0x06,0x00,0x00,0xb9,0x33,0xfb,0xbe,
  0x49,0x44,0x76,0xbe,0x1e,0xe9,0x6e,0xbf,0x87,0x83,0x37,0xbf,
  0xc3,0xc3,0x6a,0xbf,0x39,0xed,0x49,0xbe,0x37,0xf0,0x66,0xbe,
  0xa7,0xaf,0x05,0x3f,0x9e,0x55,0x83,0x3d,0x50,0xab,0x03,0x3f,
  0x31,0xef,0x22,0x3e,0xfe,0xd7,0xd7,0xba,0x5c,0x3a,0x2e,0x3f,
  0xe1,0xdb,0x72,0x3e,0xd7,0x56,0x12,0xbf,0x5c,0x3e,0xed,0x3b,
  0x65,0x3b,0x0e,0x3f,0x11,0x6c,0xb9,0xbe,0xce,0x58,0x65,0x3e,
  0xe2,0x5c,0x0b,0x3f,0xe3,0x46,0xc1,0xbd,0x10,0xff,0x44,0xbf,
  0x86,0xf6,0xb7,0x3c,0x79,0x68,0x8a,0x3e,0x3a,0x7a,0x80,0xbc,
  0xf0,0xe5,0xe1,0x3d,0xdc,0x71,0x85,0xbe,0xbd,0x63,0x79,0x3c,
  0xfa,0x94,0x5b,0xbd,0xdb,0x2c,0x78,0xbd,0xee,0xaa,0x13,0x3f,
  0x54,0x68,0xd5,0xbe,0x5d,0xc4,0x30,0x3e,0x89,0x8a,0xda,0xbe,
  0x0f,0x90,0x19,0x3f,0x3e,0x1b,0xab,0x3e,0xd3,0xa4,0x27,0x3e,
  0x4e,0xde,0xb8,0x3e,0x7c,0x3d,0x03,0x3f,0xaa,0xc1,0x32,0x3e,
  0xb2,0xe5,0xc3,0x3e,0xca,0xf3,0xb9,0x3e,0xfe,0x8e,0xf8,0x3e,
  0xdf,0x7c,0xcc,0xbe,0x31,0x7a,0xb4,0xbe,0x48,0x75,0x98,0xbe,
  0x01,0x97,0x1c,0x3f,0x7e,0x16,0x87,0x3e,0x77,0xfe,0x33,0xbe,
  0x20,0x43,0x72,0xbe,0x30,0x17,0x2e,0x3e,0x7d,0xd6,0xbd,0x3d,
  0xcd,0x2e,0xc6,0xbd,0x80,0x02,0x41,0xbd,0xa8,0xbd,0x8b,0x3e,
  0xe1,0x19,0xd5,0xbd,0x00,0x63,0x91,0xbe,0xd9,0x33,0x47,0x3e,
  0xdd,0x8a,0x36,0xbe,0xff,0xf4,0x94,0xbc,0xf2,0xed,0xba,0x3e,
  0xae,0xd7,0x24,0x3f,0xf1,0xa8,0x7e,0x3f,0xae,0xe5,0x87,0x3e,
  0x17,0x44,0x76,0x3e,0x0c,0x71,0x1d,0xbd,0x4c,0x1b,0x20,0xbf,
  0x48,0xba,0xc1,0x3d,0xad,0x86,0xa5,0xbd,0x49,0xdb,0xdc,0x3e,
  0x99,0xfe,0xff,0x3d,0xad,0x61,0x94,0xbe,0x89,0x06,0x3b,0xbe,
  0xae,0x57,0x1c,0x3e,0x4d,0xc1,0xb3,0x3e,0x10,0xc1,0x1d,0xbd,
  0x64,0x6b,0x83,0x3d,0x86,0x78,0x4b,0x3e,0x60,0x90,0x43,0x3c,
  0x40,0xea,0xc6,0xbd,0x02,0x65,0xa6,0xbe,0xa0,0x87,0xb6,0x3c,
  0x84,0x7a,0x60,0xbe,0x8a,0x5e,0x3a,0xbe,0xe6,0xab,0x30,0xbf,
  0x6d,0x23,0x7f,0xbe,0x28,0x42,0xcb,0xbe,0x0c,0x03,0x29,0xbf,
  0x8f,0x1d,0x17,0xbf,0x5c,0x29,0x66,0xbe,0x3e,0x89,0x2a,0xbc,
  0xab,0x34,0x01,0x3f,0xa8,0x09,0xcc,0x3e,0xe9,0x5e,0xd2,0x3e,
  0xc3,0x7b,0x58,0x3d,0xec,0xb0,0xe3,0xbc,0x84,0x2a,0xa0,0xbc,
  0x6c,0xf2,0x1d,0xbe,0xf5,0x77,0x2e,0xbc,0xb9,0xe4,0xde,0xbe,
  0x94,0x8a,0xc8,0xbe,0x56,0xef,0xb5,0x3d,0x94,0xab,0xf0,0xbe,
  0x63,0xa8,0xf5,0x3e,0xfe,0xb2,0xf3,0x3e,0x4f,0xdf,0x36,0x3f,
  0x00,0x5b,0xc8,0xbe,0x2a,0xc9,0xc3,0xbe,0xbb,0xe0,0x08,0xbf,
  0x4a,0x12,0x09,0xbf,0x7a,0xc9,0x4a,0xbe,0x60,0x40,0xaf,0xbe,
  0x95,0x1d,0x6d,0xbe,0x60,0x84,0x0c,0x3f,0x12,0x95,0x2c,0x3f,
  0x7a,0x6e,0xf2,0xbe,0x4a,0x56,0xc4,0x3e,0x7f,0x5a,0x57,0xbe,
  0xb6,0xdf,0x3d,0x3e,0xca,0x1d,0xb8,0x3c,0x61,0xe4,0xe9,0x3e,
  0x18,0xf6,0xa6,0x3e,0xa3,0x56,0x72,0xbe,0x24,0x36,0xb0,0x3c,
  0x66,0xac,0x3b,0xbd,0x94,0xac,0x32,0x3d,0x33,0x09,0x0a,0xbf,
  0xb8,0xe6,0x2e,0x3f,0xcc,0x22,0xf6,0x3e,0xa9,0x58,0x1a,0x3c,
  0x53,0x4c,0x9a,0xbe,0x84,0x31,0x5b,0x3e,0xeb,0x44,0xec,0xbd,
  0x49,0xa6,0x28,0x3e,0x96,0x8e,0x57,0xbf,0xe1,0x3c,0xe0,0xbe,
  0x35,0x8d,0x7c,0xbe,0xc3,0x26,0xdc,0x3e,0x20,0x6f,0xca,0x3e,
  0x7f,0x1c,0x78,0xbd,0x5d,0xa7,0xd7,0x3e,0xaa,0x83,0xdf,0xbe,
  0xca,0x0b,0x8e,0x3d,0x62,0xe4,0xe4,0x3d,0x90,0xa4,0x9a,0x3d,
  0xda,0x06,0x97,0x3e,0xc3,0xb9,0x89,0x3f,0x71,0xa5,0x0f,0x3f,
  0x80,0xd3,0x91,0x3e,0xfc,0x84,0x7e,0x3e,0x70,0xa5,0x19,0x3d,
  0x26,0x9d,0xa7,0xbe,0x00,0x6c,0x69,0xbe,0x3b,0x30,0x35,0x3f,
  0x53,0x2e,0x64,0xbe,0x0e,0x07,0x9f,0xbe,0xe7,0xed,0x1a,0x3f,
  0xea,0x52,0xd9,0x3e,0xca,0x61,0xd5,0xbe,0x50,0x5d,0x9b,0xbd,
  0x5c,0xf7,0x1f,0xbe,0x84,0x27,0x18,0x3f,0xab,0x41,0xb9,0x3e,
  0x52,0xe9,0xce,0xbe,0x0f,0xd4,0x81,0x3e,0x23,0x7e,0x2e,0xbf,
  0xea,0xaf,0x3a,0x3e,0x36,0x0b,0x4b,0x3e,0x70,0x3f,0x23,0xbf,
  0x37,0x90,0x3a,0xbf,0x3a,0x71,0x02,0xbf,0x6b,0x2b,0x39,0xbf,
  0x95,0x3e,0x9c,0xbe,0x1b,0xcb,0x6a,0xbe,0x76,0x8e,0x07,0x3d,
  0x6f,0xbb,0x19,0x3f,0x2a,0x5d,0xbe,0x3e,0xa4,0xcf,0xa7,0x3d,
  0xe7,0xe3,0xfa,0xbd,0x04,0x43,0x86,0x3e,0xfd,0x44,0x53,0x3e,
  0x89,0x99,0xb6,0xbd,0x75,0xbe,0x39,0x3e,0x7c,0x28,0xa7,0x3c,
  0x48,0x67,0x95,0x3e,0x0f,0x85,0xa1,0xbe,0xb8,0xe3,0xa9,0x3e,
  0xe4,0x43,0x1f,0xbe,0xa5,0x21,0x9c,0x3d,0x4b,0x90,0xb6,0xbe,
  0xd1,0x6d,0x2e,0xbe,0x47,0x0e,0x08,0x3e,0x93,0x61,0x9c,0xbe,
  0xb6,0x71,0x9a,0xbe,0xda,0x8f,0x36,0x3e,0xbe,0xdb,0xff,0x3d,
  0x5d,0x00,0x66,0x3e,0xfb,0x6e,0xa8,0xbc,0x19,0x0c,0x5b,0x3e,
  0xc0,0xf0,0x8a,0xbe,0x11,0x1e,0x84,0x3e,0x52,0xb2,0xb9,0xbd,
  0x50,0x0e,0x63,0xbe,0x79,0x97,0x16,0x3e,0xda,0xe2,0x11,0x3f,
  0xf4,0x5b,0xb6,0x3e,0x57,0x16,0xb5,0xbe,0x1b,0xbb,0x0e,0x3e,
  0x72,0xa8,0xcd,0x3e,0x42,0x38,0xdd,0xbe,0xab,0xf2,0xaa,0xbe,
  0x19,0xf2,0x2d,0x3f,0x02,0xf9,0xb4,0x3d,0x3b,0x53,0x62,0x3d,
  0x32,0xbe,0x54,0xbe,0xdc,0xac,0x14,0xbe,0x2b,0x97,0xf9,0xbe,
  0xf7,0xf5,0xb3,0xbc,0xb1,0xf9,0x23,0x3d,0x0a,0xbd,0x8c,0xbe,
  0x2e,0x3e,0x82,0x3c,0x54,0x93,0xee,0x3e,0xfc,0xa3,0x1a,0x3f,
  0x0c,0x50,0x0c,0xbf,0x08,0x2f,0xeb,0xbd,0x48,0xab,0x48,0xbe,
  0xa4,0xc4,0x18,0x3f,0xfc,0x35,0x24,0x3e,0xec,0x59,0xc8,0x3d,
  0x5d,0x04,0x92,0x3e,0xa8,0x4e,0xc5,0xbd,0xd9,0xd2,0xa5,0xbe,
  0x30,0xdb,0x91,0x3d,0xf2,0xc1,0xb7,0xbe,0x72,0x0b,0xaa,0xbe,
  0xad,0x20,0x20,0xbe,0x10,0xa1,0xab,0x3d,0xfe,0xa7,0x16,0x3e,
  0x8c,0x6c,0xe0,0x3d,0xa0,0x1c,0x2f,0x3d,0xae,0xe4,0x17,0xbf,
  0xf2,0xe2,0x01,0xbf,0x1b,0x5c,0x52,0xbf,0x8e,0x8d,0x7e,0xbe,
  0xb8,0xcc,0x4b,0xbf,0x4a,0xf3,0x12,0xbe,0xdc,0x39,0x8e,0xbe,
  0x29,0xb9,0xf8,0x3e,0x1c,0x70,0x0c,0x3f,0x7f,0x87,0x7b,0x3e,
  0x21,0x6a,0x24,0xbe,0x1a,0x41,0x14,0x3f,0xfa,0xac,0x2d,0x3f,
  0x97,0x58,0xd4,0x3e,0xe0,0x6f,0x6c,0x3f,0x93,0xd8,0x51,0x3f,
  0x17,0xbc,0x2c,0x3f,0x9e,0x29,0x9e,0xbe,0x72,0x2f,0xcd,0xbe,
  0xaa,0xa4,0xd0,0x3e,0x86,0x51,0x2f,0x3e,0xc4,0x35,0x33,0xbe,
  0x57,0x6b,0x2a,0xbd,0x01,0xf4,0x93,0x3c,0x75,0xc9,0xfe,0x3e,
  0xe0,0xe1,0x25,0x3f,0x18,0x62,0x47,0xbe,0xbf,0x0b,0x77,0x3d,
  0x02,0x11,0xc8,0x3e,0xb7,0x01,0x4f,0xbe,0xae,0xfb,0xa8,0x3d,
  0xeb,0xb0,0xb0,0x3e,0xbf,0x43,0x7b,0x3d,0xfc,0xdd,0x00,0xbf,
  0x9d,0xe7,0xa5,0xbe,0x4c,0xbb,0x5e,0x3e,0x2c,0xfd,0x03,0xbf,
  0x24,0x21,0x0c,0xbf,0xf8,0x02,0x07,0x3f,0xea,0xb8,0x89,0xbe,
  0x8d,0x7c,0xbe,0xbd,0x86,0x1d,0x3b,0xbe,0x13,0xa2,0xeb,0x3e,
  0xf8,0x15,0x50,0xbd,0xdf,0x43,0x52,0x3c,0xa3,0xc5,0x2b,0x3f,
  0xe0,0xbd,0x30,0x3e,0xc0,0x15,0xb3,0x3e,0xf5,0x30,0x9a,0x3e,
  0x3e,0xbb,0xaf,0xbe,0x00,0x3b,0xd3,0xbb,0x73,0x7f,0x88,0x3e,
  0xa7,0x5f,0x29,0xbe,0x18,0x4c,0x04,0xbd,0xbc,0xda,0x60,0xbe,
  0xe4,0x5d,0xa9,0xbe,0x61,0xf9,0x09,0xbe,0x76,0x4f,0xad,0xbe,
  0x4e,0xa2,0x5c,0x3e,0x50,0xb4,0x96,0xbd,0x0f,0x2d,0xaf,0x3e,
  0x06,0xc7,0x6f,0x3e,0x6c,0x2d,0xb4,0x3d,0x58,0xc7,0xe6,0xbd,
  0x8a,0x73,0x8a,0xbe,0xd2,0x93,0x4a,0xbe,0x99,0x73,0x8b,0xbe,
  0xcc,0xf7,0x9e,0xbd,0x19,0x54,0x9f,0x3e,0x17,0xdf,0xbb,0xbe,
  0x71,0xee,0x07,0xbe,0x00,0x96,0x69,0xbd,0x14,0x04,0x95,0xbd,
  0xe2,0x71,0x06,0x3e,0x4f,0x9e,0x85,0x3e,0xf9,0xaf,0xa4,0xbe,
  0x19,0x2f,0xbb,0xbe,0x38,0xfa,0x27,0xbe,0xf8,0x1b,0xd9,0x3d,
  0x9e,0xe3,0x6d,0x3e,0xb0,0x81,0x95,0x3d,0xb8,0x77,0xb9,0xbe,
  0xd8,0x00,0x36,0x3d,0x5c,0xb2,0xc3,0xbd,0x61,0xaa,0x6a,0xbe,
  0x60,0x97,0xc5,0x3c,0x94,0x14,0x54,0xbe,0x6e,0x92,0x53,0x3e,
  0x40,0xf9,0xaa,0xbe,0x7e,0x5d,0x22,0x3e,0x96,0x27,0x2a,0x3e,
  0x08,0xae,0xa8,0xbd,0x00,0x49,0xae,0x3a,0x0f,0xf1,0x52,0xbe,
  0xd4,0x97,0xbb,0xbd,0x80,0xd5,0xe3,0xbb,0xa1,0x9b,0x79,0xbd,
  0x71,0xb7,0xe1,0xbd,0x93,0x86,0x3a,0x3f,0xe5,0x44,0x1a,0x3f,
  0xd6,0x4d,0x61,0x3e,0x48,0x3a,0xbc,0xbe,0x09,0x97,0x82,0xbe,
  0x7b,0xa9,0x39,0x3c,0x55,0x72,0x95,0x3e,0xa2,0x7a,0x30,0x3f,
  0xe3,0x93,0x96,0xbe,0x12,0xc3,0x1a,0x3d,0x51,0x4e,0xb9,0x3e,
  0xe0,0xf9,0x29,0x3c,0xfa,0x70,0x6e,0xbe,0xf8,0xe0,0x40,0xbd,
  0xe8,0x90,0xfe,0x3d,0x85,0x32,0x73,0xbe,0xb5,0xae,0xb7,0xbe,
  0x68,0x5d,0x89,0xbe,0x6c,0x14,0xa7,0x3d,0x43,0x83,0xb0,0x3e,
  0x40,0xd2,0x0b,0xbd,0x2c,0x27,0x03,0x3e,0xe0,0x22,0x99,0x3d,
  0x1b,0x7f,0xb9,0xbe,0x16,0xc0,0x5d,0x3e,0xed,0x89,0x90,0xbe,
  0xdc,0x38,0xd9,0x3d,0xd5,0x9e,0xa8,0x3e,0x54,0xaf,0xa7,0xbd,
  0x6e,0xf6,0x23,0x3e,0x7a,0x0b,0x85,0xbe,0xc0,0x55,0x5d,0xbe,
  0x3f,0xf4,0xb6,0xbe,0x31,0x0d,0x94,0x3e,0xc4,0xcd,0x90,0xbe,
  0xe3,0x41,0x9d,0x3c,0xc7,0xda,0x30,0x3f,0x77,0x25,0xe5,0x3e,
  0x59,0x4a,0x45,0xbe,0x17,0x73,0x9e,0x3d,0x73,0x47,0xc0,0x3e,
  0xda,0x45,0xb2,0xbe,0xd2,0x33,0x40,0xbc,0x04,0xf7,0x26,0x3f,
  0xbe,0x35,0x2e,0x3c,0x7f,0xbc,0xc8,0x3d,0x76,0xfe,0xff,0xff,
  0x04,0x00,0x00,0x00,0x80,0x00,0x00,0x00,0x6a,0x62,0x5a,0x3e,
  0xae,0x0c,0x9e,0x3d,0x8d,0x53,0x38,0x3e,0xc3,0x74,0xe7,0x3d,
  0xe4,0xe5,0x18,0xbc,0x9b,0xc3,0x7b,0xbe,0x00,0x00,0x00,0x00,
  0x8b,0xf7,0x36,0x3e,0x2a,0x60,0x0d,0xbd,0x0e,0x73,0x74,0x3e,
  0x3d,0xa0,0xab,0xbd,0x19,0x40,0x94,0x3e,0xb9,0x38,0x94,0xbe,
  0x3c,0x7e,0x69,0x3e,0x27,0x5a,0x66,0x3e,0x47,0x5d,0x02,0xbd,
  0x70,0xcd,0xaf,0xbb,0xc3,0xd9,0xb3,0x3c,0xe4,0xe0,0xc1,0x3d,
  0x00,0x00,0x00,0x00,0xc0,0x4b,0x90,0x3e,0x0a,0x81,0x67,0xbe,
  0xb3,0x47,0xef,0xbc,0xbd,0x62,0xd8,0x3d,0x00,0x00,0x00,0x00,
  0x00,0x00,0x00,0x00,0x00,0x00,0x00,0x00,0x00,0x00,0x00,0x00,
  0xc9,0xf9,0x39,0xbe,0x00,0x00,0x00,0x00,0x00,0x00,0x00,0x00,
  0x76,0xd2,0xae,0xbd,0x02,0xff,0xff,0xff,0x04,0x00,0x00,0x00,
  0x10,0x00,0x00,0x00,0x5c,0x02,0x05,0xbe,0xe8,0xfc,0x1c,0x3e,
  0xd7,0x50,0x6b,0x3c,0xbe,0x13,0x64,0x3b,0x1e,0xff,0xff,0xff,
  0x04,0x00,0x00,0x00,0x40,0x00,0x00,0x00,0x00,0x01,0x53,0x3e,
  0x0b,0x64,0x85,0x3e,0x7c,0x0f,0x70,0x3e,0x93,0x8e,0xae,0x3e,
  0xa6,0x52,0x84,0x3e,0x2b,0x9d,0x26,0x3e,0xf0,0x4d,0x1d,0xbe,
  0x95,0xf9,0xce,0x3c,0x62,0x70,0x28,0xbd,0x28,0xcd,0x08,0x3e,
  0xb9,0x1f,0x50,0x3e,0x51,0x19,0xdf,0x3d,0x04,0x4e,0x3a,0xbd,
  0x42,0xff,0x25,0x3d,0x89,0xda,0x14,0x3d,0x2d,0x86,0x65,0x3e,
  0x4c,0xfa,0xff,0xff,0x50,0xfa,0xff,0xff,0x0f,0x00,0x00,0x00,
  0x4d,0x4c,0x49,0x52,0x20,0x43,0x6f,0x6e,0x76,0x65,0x72,0x74,
  0x65,0x64,0x2e,0x00,0x01,0x00,0x00,0x00,0x14,0x00,0x00,0x00,
  0x00,0x00,0x0e,0x00,0x18,0x00,0x14,0x00,0x10,0x00,0x0c,0x00,
  0x08,0x00,0x04,0x00,0x0e,0x00,0x00,0x00,0x14,0x00,0x00,0x00,
  0x1c,0x00,0x00,0x00,0x34,0x01,0x00,0x00,0x38,0x01,0x00,0x00,
  0x3c,0x01,0x00,0x00,0x04,0x00,0x00,0x00,0x6d,0x61,0x69,0x6e,
  0x00,0x00,0x00,0x00,0x04,0x00,0x00,0x00,0xdc,0x00,0x00,0x00,
  0x94,0x00,0x00,0x00,0x50,0x00,0x00,0x00,0x14,0x00,0x00,0x00,
  0x00,0x00,0x0e,0x00,0x1a,0x00,0x14,0x00,0x10,0x00,0x0c,0x00,
  0x0b,0x00,0x04,0x00,0x0e,0x00,0x00,0x00,0x1c,0x00,0x00,0x00,
  0x00,0x00,0x00,0x09,0x1c,0x00,0x00,0x00,0x20,0x00,0x00,0x00,
  0x01,0x00,0x00,0x00,0x00,0x00,0x06,0x00,0x08,0x00,0x04,0x00,
  0x06,0x00,0x00,0x00,0x00,0x00,0x80,0x3f,0x01,0x00,0x00,0x00,
  0x0a,0x00,0x00,0x00,0x01,0x00,0x00,0x00,0x09,0x00,0x00,0x00,
  0xce,0xff,0xff,0xff,0x10,0x00,0x00,0x00,0x00,0x00,0x00,0x08,
  0x0c,0x00,0x00,0x00,0x10,0x00,0x00,0x00,0x14,0xfb,0xff,0xff,
  0x01,0x00,0x00,0x00,0x09,0x00,0x00,0x00,0x03,0x00,0x00,0x00,
  0x08,0x00,0x00,0x00,0x06,0x00,0x00,0x00,0x02,0x00,0x00,0x00,
  0x00,0x00,0x0e,0x00,0x14,0x00,0x00,0x00,0x10,0x00,0x0c,0x00,
  0x0b,0x00,0x04,0x00,0x0e,0x00,0x00,0x00,0x10,0x00,0x00,0x00,
  0x00,0x00,0x00,0x08,0x10,0x00,0x00,0x00,0x14,0x00,0x00,0x00,
  0xba,0xff,0xff,0xff,0x00,0x00,0x00,0x01,0x01,0x00,0x00,0x00,
  0x08,0x00,0x00,0x00,0x03,0x00,0x00,0x00,0x07,0x00,0x00,0x00,
  0x05,0x00,0x00,0x00,0x01,0x00,0x00,0x00,0x00,0x00,0x0e,0x00,
  0x16,0x00,0x00,0x00,0x10,0x00,0x0c,0x00,0x0b,0x00,0x04,0x00,
  0x0e,0x00,0x00,0x00,0x18,0x00,0x00,0x00,0x00,0x00,0x00,0x08,
  0x18,0x00,0x00,0x00,0x1c,0x00,0x00,0x00,0x00,0x00,0x06,0x00,
  0x08,0x00,0x07,0x00,0x06,0x00,0x00,0x00,0x00,0x00,0x00,0x01,
  0x01,0x00,0x00,0x00,0x07,0x00,0x00,0x00,0x03,0x00,0x00,0x00,
  0x00,0x00,0x00,0x00,0x04,0x00,0x00,0x00,0x03,0x00,0x00,0x00,
  0x01,0x00,0x00,0x00,0x0a,0x00,0x00,0x00,0x01,0x00,0x00,0x00,
  0x00,0x00,0x00,0x00,0x0b,0x00,0x00,0x00,0x04,0x04,0x00,0x00,
  0x94,0x03,0x00,0x00,0x24,0x03,0x00,0x00,0xd0,0x02,0x00,0x00,
  0x88,0x02,0x00,0x00,0x3c,0x02,0x00,0x00,0xf0,0x01,0x00,0x00,
  0x68,0x01,0x00,0x00,0xd8,0x00,0x00,0x00,0x60,0x00,0x00,0x00,
  0x04,0x00,0x00,0x00,0x3e,0xfc,0xff,0xff,0x00,0x00,0x00,0x01,
  0x14,0x00,0x00,0x00,0x1c,0x00,0x00,0x00,0x1c,0x00,0x00,0x00,
  0x0b,0x00,0x00,0x00,0x34,0x00,0x00,0x00,0x02,0x00,0x00,0x00,
  0xff,0xff,0xff,0xff,0x04,0x00,0x00,0x00,0x28,0xfc,0xff,0xff,
  0x19,0x00,0x00,0x00,0x53,0x74,0x61,0x74,0x65,0x66,0x75,0x6c,
  0x50,0x61,0x72,0x74,0x69,0x74,0x69,0x6f,0x6e,0x65,0x64,0x43,
  0x61,0x6c,0x6c,0x3a,0x30,0x00,0x00,0x00,0x02,0x00,0x00,0x00,
  0x01,0x00,0x00,0x00,0x04,0x00,0x00,0x00,0x96,0xfc,0xff,0xff,
  0x00,0x00,0x00,0x01,0x14,0x00,0x00,0x00,0x1c,0x00,0x00,0x00,
  0x1c,0x00,0x00,0x00,0x0a,0x00,0x00,0x00,0x50,0x00,0x00,0x00,
  0x02,0x00,0x00,0x00,0xff,0xff,0xff,0xff,0x04,0x00,0x00,0x00,
  0x80,0xfc,0xff,0xff,0x34,0x00,0x00,0x00,0x73,0x65,0x71,0x75,
  0x65,0x6e,0x74,0x69,0x61,0x6c,0x2f,0x64,0x65,0x6e,0x73,0x65,
  0x5f,0x32,0x2f,0x4d,0x61,0x74,0x4d,0x75,0x6c,0x3b,0x73,0x65,
  0x71,0x75,0x65,0x6e,0x74,0x69,0x61,0x6c,0x2f,0x64,0x65,0x6e,
  0x73,0x65,0x5f,0x32,0x2f,0x42,0x69,0x61,0x73,0x41,0x64,0x64,
  0x00,0x00,0x00,0x00,0x02,0x00,0x00,0x00,0x01,0x00,0x00,0x00,
  0x04,0x00,0x00,0x00,0x0a,0xfd,0xff,0xff,0x00,0x00,0x00,0x01,
  0x14,0x00,0x00,0x00,0x1c,0x00,0x00,0x00,0x1c,0x00,0x00,0x00,
  0x09,0x00,0x00,0x00,0x68,0x00,0x00,0x00,0x02,0x00,0x00,0x00,
  0xff,0xff,0xff,0xff,0x10,0x00,0x00,0x00,0xf4,0xfc,0xff,0xff,
  0x4c,0x00,0x00,0x00,0x73,0x65,0x71,0x75,0x65,0x6e,0x74,0x69,
  0x61,0x6c,0x2f,0x64,0x65,0x6e,0x73,0x65,0x5f,0x31,0x2f,0x4d,
  0x61,0x74,0x4d,0x75,0x6c,0x3b,0x73,0x65,0x71,0x75,0x65,0x6e,
  0x74,0x69,0x61,0x6c,0x2f,0x64,0x65,0x6e,0x73,0x65,0x5f,0x31,
  0x2f,0x52,0x65,0x6c,0x75,0x3b,0x73,0x65,0x71,0x75,0x65,0x6e,
  0x74,0x69,0x61,0x6c,0x2f,0x64,0x65,0x6e,0x73,0x65,0x5f,0x31,
  0x2f,0x42,0x69,0x61,0x73,0x41,0x64,0x64,0x00,0x00,0x00,0x00,
  0x02,0x00,0x00,0x00,0x01,0x00,0x00,0x00,0x10,0x00,0x00,0x00,
  0x96,0xfd,0xff,0xff,0x00,0x00,0x00,0x01,0x14,0x00,0x00,0x00,
  0x1c,0x00,0x00,0x00,0x1c,0x00,0x00,0x00,0x08,0x00,0x00,0x00,
  0x60,0x00,0x00,0x00,0x02,0x00,0x00,0x00,0xff,0xff,0xff,0xff,
  0x20,0x00,0x00,0x00,0x80,0xfd,0xff,0xff,0x46,0x00,0x00,0x00,
  0x73,0x65,0x71,0x75,0x65,0x6e,0x74,0x69,0x61,0x6c,0x2f,0x64,
  0x65,0x6e,0x73,0x65,0x2f,0x4d,0x61,0x74,0x4d,0x75,0x6c,0x3b,
  0x73,0x65,0x71,0x75,0x65,0x6e,0x74,0x69,0x61,0x6c,0x2f,0x64,
  0x65,0x6e,0x73,0x65,0x2f,0x52,0x65,0x6c,0x75,0x3b,0x73,0x65,
  0x71,0x75,0x65,0x6e,0x74,0x69,0x61,0x6c,0x2f,0x64,0x65,0x6e,
  0x73,0x65,0x2f,0x42,0x69,0x61,0x73,0x41,0x64,0x64,0x00,0x00,
  0x02,0x00,0x00,0x00,0x01,0x00,0x00,0x00,0x20,0x00,0x00,0x00,
  0x86,0xfe,0xff,0xff,0x00,0x00,0x00,0x01,0x10,0x00,0x00,0x00,
  0x10,0x00,0x00,0x00,0x07,0x00,0x00,0x00,0x28,0x00,0x00,0x00,
  0xf4,0xfd,0xff,0xff,0x19,0x00,0x00,0x00,0x73,0x65,0x71,0x75,
  0x65,0x6e,0x74,0x69,0x61,0x6c,0x2f,0x64,0x65,0x6e,0x73,0x65,
  0x5f,0x32,0x2f,0x4d,0x61,0x74,0x4d,0x75,0x6c,0x00,0x00,0x00,
  0x02,0x00,0x00,0x00,0x04,0x00,0x00,0x00,0x10,0x00,0x00,0x00,
  0xce,0xfe,0xff,0xff,0x00,0x00,0x00,0x01,0x10,0x00,0x00,0x00,
  0x10,0x00,0x00,0x00,0x06,0x00,0x00,0x00,0x28,0x00,0x00,0x00,
  0x3c,0xfe,0xff,0xff,0x19,0x00,0x00,0x00,0x73,0x65,0x71,0x75,
  0x65,0x6e,0x74,0x69,0x61,0x6c,0x2f,0x64,0x65,0x6e,0x73,0x65,
  0x5f,0x31,0x2f,0x4d,0x61,0x74,0x4d,0x75,0x6c,0x00,0x00,0x00,
  0x02,0x00,0x00,0x00,0x10,0x00,0x00,0x00,0x20,0x00,0x00,0x00,
  0x16,0xff,0xff,0xff,0x00,0x00,0x00,0x01,0x10,0x00,0x00,0x00,
  0x10,0x00,0x00,0x00,0x05,0x00,0x00,0x00,0x24,0x00,0x00,0x00,
  0x84,0xfe,0xff,0xff,0x17,0x00,0x00,0x00,0x73,0x65,0x71,0x75,
  0x65,0x6e,0x74,0x69,0x61,0x6c,0x2f,0x64,0x65,0x6e,0x73,0x65,
  0x2f,0x4d,0x61,0x74,0x4d,0x75,0x6c,0x00,0x02,0x00,0x00,0x00,
  0x20,0x00,0x00,0x00,0x0c,0x00,0x00,0x00,0x5a,0xff,0xff,0xff,
  0x00,0x00,0x00,0x01,0x10,0x00,0x00,0x00,0x10,0x00,0x00,0x00,
  0x04,0x00,0x00,0x00,0x34,0x00,0x00,0x00,0xc8,0xfe,0xff,0xff,
  0x27,0x00,0x00,0x00,0x73,0x65,0x71,0x75,0x65,0x6e,0x74,0x69,
  0x61,0x6c,0x2f,0x64,0x65,0x6e,0x73,0x65,0x2f,0x42,0x69,0x61,
  0x73,0x41,0x64,0x64,0x2f,0x52,0x65,0x61,0x64,0x56,0x61,0x72,
  0x69,0x61,0x62,0x6c,0x65,0x4f,0x70,0x00,0x01,0x00,0x00,0x00,
  0x20,0x00,0x00,0x00,0xaa,0xff,0xff,0xff,0x00,0x00,0x00,0x01,
  0x10,0x00,0x00,0x00,0x10,0x00,0x00,0x00,0x03,0x00,0x00,0x00,
  0x38,0x00,0x00,0x00,0x18,0xff,0xff,0xff,0x29,0x00,0x00,0x00,
  0x73,0x65,0x71,0x75,0x65,0x6e,0x74,0x69,0x61,0x6c,0x2f,0x64,
  0x65,0x6e,0x73,0x65,0x5f,0x32,0x2f,0x42,0x69,0x61,0x73,0x41,
  0x64,0x64,0x2f,0x52,0x65,0x61,0x64,0x56,0x61,0x72,0x69,0x61,
  0x62,0x6c,0x65,0x4f,0x70,0x00,0x00,0x00,0x01,0x00,0x00,0x00,
  0x04,0x00,0x00,0x00,0x00,0x00,0x16,0x00,0x18,0x00,0x14,0x00,
  0x00,0x00,0x10,0x00,0x0c,0x00,0x08,0x00,0x00,0x00,0x00,0x00,
  0x00,0x00,0x07,0x00,0x16,0x00,0x00,0x00,0x00,0x00,0x00,0x01,
  0x10,0x00,0x00,0x00,0x10,0x00,0x00,0x00,0x02,0x00,0x00,0x00,
  0x38,0x00,0x00,0x00,0x84,0xff,0xff,0xff,0x29,0x00,0x00,0x00,
  0x73,0x65,0x71,0x75,0x65,0x6e,0x74,0x69,0x61,0x6c,0x2f,0x64,
  0x65,0x6e,0x73,0x65,0x5f,0x31,0x2f,0x42,0x69,0x61,0x73,0x41,
  0x64,0x64,0x2f,0x52,0x65,0x61,0x64,0x56,0x61,0x72,0x69,0x61,
  0x62,0x6c,0x65,0x4f,0x70,0x00,0x00,0x00,0x01,0x00,0x00,0x00,
  0x10,0x00,0x00,0x00,0x00,0x00,0x16,0x00,0x1c,0x00,0x18,0x00,
  0x00,0x00,0x14,0x00,0x10,0x00,0x0c,0x00,0x00,0x00,0x00,0x00,
  0x08,0x00,0x07,0x00,0x16,0x00,0x00,0x00,0x00,0x00,0x00,0x01,
  0x14,0x00,0x00,0x00,0x20,0x00,0x00,0x00,0x20,0x00,0x00,0x00,
  0x01,0x00,0x00,0x00,0x3c,0x00,0x00,0x00,0x02,0x00,0x00,0x00,
  0xff,0xff,0xff,0xff,0x0c,0x00,0x00,0x00,0x04,0x00,0x04,0x00,
  0x04,0x00,0x00,0x00,0x1d,0x00,0x00,0x00,0x73,0x65,0x72,0x76,
  0x69,0x6e,0x67,0x5f,0x64,0x65,0x66,0x61,0x75,0x6c,0x74,0x5f,
  0x64,0x65,0x6e,0x73,0x65,0x5f,0x69,0x6e,0x70,0x75,0x74,0x3a,
  0x30,0x00,0x00,0x00,0x02,0x00,0x00,0x00,0x01,0x00,0x00,0x00,
  0x0c,0x00,0x00,0x00,0x02,0x00,0x00,0x00,0x20,0x00,0x00,0x00,
  0x04,0x00,0x00,0x00,0xf4,0xff,0xff,0xff,0x19,0x00,0x00,0x00,
  0x00,0x00,0x00,0x19,0x0c,0x00,0x0c,0x00,0x0b,0x00,0x00,0x00,
  0x00,0x00,0x04,0x00,0x0c,0x00,0x00,0x00,0x09,0x00,0x00,0x00,
  0x00,0x00,0x00,0x09
};

const int g_model_data_len = 6160;

#endif  // MODEL_DATA_H
