const unsigned char model_tflite[] = {32,0,0,0,84,70,76,51,0,0,0,0,20,0,32,0,28,0,24,0,20,0,16,0,12,0,0,0,8,0,4,0,20,0,0,0,28,0,0,0,144,0,0,0,232,0,0,0,92,55,0,0,108,55,0,0,184,62,0,0,3,0,0,0,1,0,0,0,16,0,0,0,0,0,10,0,16,0,12,0,8,0,4,0,10,0,0,0,12,0,0,0,28,0,0,0,56,0,0,0,15,0,0,0,115,101,114,118,105,110,103,95,100,101,102,97,117,108,116,0,1,0,0,0,4,0,0,0,152,255,255,255,10,0,0,0,4,0,0,0,7,0,0,0,100,101,110,115,101,95,50,0,1,0,0,0,4,0,0,0,134,200,255,255,4,0,0,0,11,0,0,0,100,101,110,115,101,95,105,110,112,117,116,0,2,0,0,0,52,0,0,0,4,0,0,0,220,255,255,255,13,0,0,0,4,0,0,0,19,0,0,0,67,79,78,86,69,82,83,73,79,78,95,77,69,84,65,68,65,84,65,0,8,0,12,0,8,0,4,0,8,0,0,0,12,0,0,0,4,0,0,0,19,0,0,0,109,105,110,95,114,117,110,116,105,109,101,95,118,101,114,115,105,111,110,0,14,0,0,0,112,54,0,0,104,54,0,0,60,54,0,0,108,52,0,0,92,51,0,0,76,19,0,0,60,17,0,0,172,0,0,0,164,0,0,0,156,0,0,0,148,0,0,0,140,0,0,0,108,0,0,0,4,0,0,0,54,201,255,255,4,0,0,0,88,0,0,0,12,0,0,0,8,0,14,0,8,0,4,0,8,0,0,0,16,0,0,0,40,0,0,0,0,0,6,0,8,0,4,0,6,0,0,0,4,0,0,0,1,0,0,0,235,3,0,0,0,0,10,0,16,0,12,0,8,0,4,0,10,0,0,0,2,0,0,0,2,0,0,0,4,0,0,0,6,0,0,0,50,46,49,51,46,49,0,0,154,201,255,255,4,0,0,0,16,0,0,0,49,46,49,52,46,48,0,0,0,0,0,0,0,0,0,0,132,201,255,255,136,201,255,255,140,201,255,255,144,201,255,255,198,201,255,255,4,0,0,0,128,16,0,0,214,34,47,244,226,16,24,198,216,236,50,4,77,39,2,17,252,23,2,202,34,6,19,244,41,68,232,253,243,11,158,181,27,222,228,40,22,228,19,227,32,228,12,0,248,252,25,241,23,16,238,8,226,236,227,26,228,225,217,13,243,252,252,210,246,37,236,248,16,41,237,247,10,0,218,52,33,239,238,20,26,3,229,25,2,6,224,83,14,61,16,54,245,37,228,230,220,254,15,236,247,51,27,220,3,218,166,207,52,43,32,43,247,254,231,207,255,253,14,4,68,19,242,40,22,49,218,216,57,176,225,71,236,27,30,254,28,59,17,22,52,30,243,219,245,12,16,32,249,246,215,1,18,44,19,212,150,62,199,39,48,244,18,88,183,26,208,231,231,33,189,206,58,21,4,208,11,248,254,219,18,255,239,56,195,65,236,38,197,54,17,39,43,17,222,247,19,31,196,35,27,207,31,56,42,253,48,10,15,64,58,56,245,26,255,18,194,218,210,86,251,221,21,10,16,248,205,220,174,213,39,190,231,2,228,33,39,244,57,231,196,14,6,5,208,253,240,57,19,217,226,226,164,61,174,240,67,236,17,113,253,34,65,62,4,246,0,209,225,242,228,64,45,246,46,56,254,232,41,213,40,254,250,24,242,78,208,7,225,15,70,12,232,252,235,54,231,35,233,236,213,16,0,219,0,214,3,235,210,236,248,241,21,247,18,2,252,213,210,4,243,226,245,21,27,5,230,240,41,18,30,2,238,219,5,68,73,73,55,17,255,25,48,51,25,212,56,217,178,62,180,160,20,45,224,233,214,233,226,15,14,228,179,21,13,63,59,25,35,37,221,48,22,38,241,30,50,232,7,226,26,33,26,224,211,197,242,226,249,182,46,231,245,3,229,241,240,56,19,99,189,223,41,33,222,22,40,177,223,210,223,30,240,247,0,9,5,45,58,81,13,62,17,20,204,195,212,22,243,236,254,248,27,245,214,221,1,218,211,238,12,32,16,9,217,3,217,254,242,29,231,29,222,17,241,253,235,8,18,253,223,233,233,2,215,225,64,255,26,20,36,221,248,8,53,17,216,9,22,233,249,204,30,190,242,15,70,254,221,242,74,61,37,25,55,242,23,57,26,1,10,28,221,238,236,49,255,37,8,42,17,245,13,63,9,193,3,2,215,39,28,233,244,89,225,104,210,17,240,32,239,30,12,249,252,239,10,251,213,237,22,242,40,226,39,234,251,243,250,235,20,25,11,214,215,213,11,250,216,23,213,237,226,30,74,192,40,34,225,18,234,66,244,199,229,249,13,56,37,195,61,24,76,6,42,187,54,219,241,5,219,12,64,202,72,217,4,248,50,203,247,207,13,231,221,219,2,9,0,15,33,8,49,56,212,215,195,110,21,224,88,22,21,19,19,235,246,51,17,12,236,66,232,45,236,10,3,214,70,20,47,6,216,38,202,11,34,56,56,87,240,1,220,0,36,191,205,30,3,225,230,214,43,63,198,14,231,26,60,27,5,45,71,54,0,221,223,21,235,57,220,8,235,79,38,65,226,5,8,205,11,5,12,186,12,8,24,4,237,38,247,55,24,241,127,251,17,238,1,29,203,53,226,15,30,10,209,219,227,12,163,238,16,200,241,2,24,217,16,226,230,246,236,25,16,14,223,244,242,29,235,40,224,211,225,20,248,44,215,14,248,0,229,212,246,223,245,34,17,227,241,213,214,244,222,11,45,47,43,11,245,45,29,4,235,7,48,29,203,233,21,209,220,115,20,13,30,13,33,250,221,1,212,234,21,9,196,225,229,59,250,30,40,212,19,26,235,7,252,38,246,9,251,213,22,5,22,242,250,19,53,42,29,236,250,24,3,34,246,39,0,46,15,28,45,247,17,35,10,45,26,55,218,24,33,34,49,15,58,228,218,49,227,196,35,242,9,215,41,23,23,228,65,246,224,183,218,209,191,5,230,216,227,40,31,27,208,167,25,254,25,165,27,11,45,49,20,82,199,60,78,57,224,68,45,8,212,208,222,208,230,69,6,249,246,216,240,64,37,30,239,247,108,53,34,54,15,10,38,163,211,184,38,20,35,206,179,242,37,39,247,72,238,222,206,56,16,34,220,235,20,221,34,254,0,204,228,253,250,1,235,35,52,240,29,47,219,250,58,11,239,181,217,19,43,51,240,45,249,191,49,252,36,249,206,235,77,73,104,42,74,254,0,21,234,204,189,13,245,27,34,2,234,199,3,36,242,8,11,36,190,7,14,16,245,239,190,38,33,44,8,201,164,25,90,245,28,35,36,18,91,208,30,34,34,8,5,22,39,46,240,230,233,248,231,43,16,32,218,56,53,16,235,201,183,6,161,252,41,225,55,36,0,38,20,79,203,14,208,18,42,42,38,37,3,10,12,235,217,17,212,218,64,241,223,193,44,188,66,205,200,24,242,42,27,18,59,60,219,237,2,247,4,246,25,241,21,229,248,237,12,28,235,27,226,214,237,252,23,32,236,24,18,6,0,238,242,234,244,221,15,228,5,214,203,215,27,3,31,49,215,2,216,30,2,213,229,11,229,251,237,234,10,176,224,253,40,177,55,38,69,63,92,25,60,21,235,12,34,55,239,28,87,43,204,203,247,18,211,227,253,244,238,222,16,11,221,8,235,250,16,222,239,47,209,95,93,206,224,27,222,216,228,8,14,4,215,24,0,230,243,16,25,230,245,3,238,253,11,238,214,219,209,248,255,243,14,40,26,5,6,8,248,57,15,212,250,223,17,64,246,73,20,224,25,241,19,33,35,247,53,14,93,47,39,218,13,217,4,253,2,240,254,1,35,28,19,0,36,255,24,80,62,249,207,50,4,37,39,252,215,9,212,53,169,212,169,249,4,219,13,199,90,229,110,249,193,43,219,243,63,193,210,252,57,43,250,53,10,61,244,248,39,3,253,47,18,1,79,11,82,23,25,57,250,202,244,232,236,4,15,239,210,239,241,43,223,49,13,22,235,82,30,18,27,4,21,247,45,252,252,197,234,219,6,255,25,26,1,243,13,242,253,186,234,245,243,33,52,231,255,252,35,57,216,44,231,33,237,255,232,234,182,33,233,44,24,85,73,220,230,72,233,200,255,52,230,14,24,254,11,212,41,236,254,30,39,7,21,215,24,44,243,2,237,233,251,11,7,20,228,235,248,239,215,224,15,225,35,216,218,235,233,228,237,221,18,254,236,7,244,250,226,223,21,246,245,216,255,29,44,32,252,215,232,211,9,233,241,33,223,236,60,43,224,35,201,0,227,58,42,11,230,68,4,16,248,235,243,7,245,54,35,63,0,56,239,241,69,195,213,228,225,239,240,229,12,244,24,10,2,254,249,31,246,43,235,63,62,232,226,213,67,27,248,36,67,208,39,41,47,9,1,197,2,216,181,61,253,219,36,4,31,13,37,233,31,25,253,57,63,5,248,37,13,53,20,201,247,33,208,255,77,26,49,229,249,54,26,219,33,14,230,234,233,26,225,231,5,8,212,211,210,214,216,42,244,32,5,9,33,221,3,45,15,35,218,238,217,31,233,14,15,232,14,240,46,54,1,38,26,12,231,227,63,175,233,2,245,30,60,223,254,76,59,56,37,242,135,12,234,14,186,227,39,10,253,180,232,26,63,35,34,15,32,46,222,220,23,24,62,6,37,21,253,216,243,202,249,32,225,32,11,17,183,45,184,89,9,234,215,1,226,32,239,31,213,226,34,241,0,234,247,212,246,251,36,242,226,11,217,42,1,232,18,233,211,225,14,18,26,39,219,237,210,249,244,247,252,33,226,44,20,227,253,229,234,248,0,237,236,235,253,34,245,237,226,43,232,215,226,1,243,16,26,250,32,236,191,192,55,49,239,20,10,242,234,35,214,5,223,228,185,1,236,253,7,174,5,234,32,245,253,42,87,68,99,216,20,12,31,249,216,251,38,35,25,201,225,26,210,188,29,20,23,93,218,204,32,41,12,34,21,166,228,26,66,213,23,211,82,13,215,251,254,245,7,226,6,51,23,237,224,70,40,227,10,246,32,218,28,54,225,250,19,49,239,23,17,32,36,227,16,14,239,230,29,61,18,250,34,237,239,221,243,55,243,228,52,9,6,252,58,227,179,3,234,43,190,252,77,166,49,42,3,32,52,15,75,29,221,238,27,232,248,208,231,3,206,20,16,1,10,19,196,19,233,58,240,220,198,235,43,184,17,39,33,55,73,204,38,210,254,0,233,12,253,206,14,249,236,37,79,70,37,7,20,231,8,37,188,7,30,33,149,43,26,77,53,36,224,226,194,29,25,249,9,219,38,237,24,235,12,2,204,251,16,235,15,37,249,38,57,208,193,252,195,234,57,39,1,42,68,12,82,224,51,54,252,18,16,251,252,237,46,59,241,16,11,8,247,242,240,48,234,254,19,207,18,234,207,96,202,80,248,5,247,208,195,233,213,231,246,34,9,234,237,245,253,30,247,231,18,229,5,17,250,255,10,213,224,28,223,255,39,8,247,24,210,253,224,218,12,25,54,41,3,222,47,53,227,23,11,28,228,4,219,11,23,68,11,215,25,205,249,89,230,157,47,198,9,217,11,216,76,225,76,48,196,217,45,226,221,59,38,250,225,88,45,245,44,7,213,194,28,14,15,221,253,8,74,226,89,217,254,231,44,211,222,24,19,229,14,208,241,214,78,19,43,30,75,235,23,2,35,24,229,9,56,34,28,234,19,36,32,254,15,194,239,203,37,239,9,207,248,28,224,12,24,18,4,235,0,235,61,34,37,32,11,45,49,45,26,34,212,102,28,56,252,253,238,216,225,228,245,24,199,224,244,42,205,226,254,2,26,221,222,198,238,235,253,69,223,223,225,87,27,15,175,240,249,38,39,231,75,216,37,67,35,249,22,22,252,32,231,7,214,244,14,20,213,241,43,246,236,7,215,239,45,218,43,5,217,230,213,211,30,217,251,237,13,218,51,234,5,77,51,23,209,238,63,225,45,71,68,238,6,216,59,172,236,242,18,9,63,242,27,231,22,238,251,188,182,45,38,194,255,191,30,235,195,59,0,205,224,214,203,235,2,3,72,30,230,235,98,105,48,220,218,47,27,33,186,38,223,50,15,22,236,0,17,24,234,216,217,225,252,254,14,21,19,18,221,6,250,213,215,212,43,38,213,238,224,210,247,252,246,13,229,223,23,209,9,38,24,246,235,58,14,251,26,11,224,218,229,24,40,250,40,223,247,36,253,234,210,19,50,35,57,216,14,254,32,232,19,214,66,243,225,19,77,14,242,0,41,26,14,14,213,13,5,19,18,224,252,186,13,230,225,249,211,49,0,68,28,198,29,207,213,228,44,38,239,68,27,41,29,43,214,238,38,220,40,228,224,3,28,240,239,51,232,11,18,4,240,23,24,50,206,6,14,219,240,45,2,30,66,46,1,252,20,253,17,215,254,218,202,251,229,244,214,192,223,223,32,189,227,56,39,88,1,252,48,223,3,167,68,27,223,45,226,10,202,245,255,233,251,255,252,217,28,221,11,29,46,229,235,194,50,3,9,77,238,61,19,59,244,215,64,237,248,7,9,69,238,58,69,55,252,10,11,37,245,235,83,255,18,14,126,11,242,75,249,206,209,249,21,186,215,15,250,2,229,13,234,21,3,228,216,9,10,252,219,9,215,237,215,40,10,3,2,212,14,0,27,16,237,229,230,7,233,21,232,18,13,232,22,245,39,250,246,46,231,34,223,5,30,249,9,220,218,9,53,48,5,176,48,221,30,31,235,20,46,222,52,216,237,2,12,233,232,75,54,17,214,51,0,218,254,225,2,224,52,42,223,7,245,44,74,212,65,0,209,3,222,15,240,196,21,14,72,213,56,69,5,34,12,24,219,250,31,236,30,62,217,11,244,24,248,43,24,185,251,229,12,218,230,17,64,198,43,39,13,63,41,224,239,48,23,250,23,50,3,42,33,35,246,246,231,17,204,3,225,39,82,213,55,242,215,221,217,26,16,3,40,23,254,246,38,39,203,237,18,223,213,200,249,18,250,23,48,251,218,46,8,57,155,167,229,194,240,68,9,79,58,14,226,219,9,202,236,59,21,39,244,2,58,217,176,246,43,252,55,239,0,11,58,50,240,12,177,26,163,227,20,60,50,49,7,191,219,236,5,27,14,39,21,29,6,24,54,33,224,241,210,28,250,245,10,47,41,24,210,16,251,39,43,23,62,17,68,253,24,4,60,31,250,33,39,209,26,227,40,220,29,43,43,19,47,255,214,249,47,244,68,19,6,27,201,33,238,253,207,0,51,249,242,252,254,14,211,28,45,23,239,243,230,26,237,41,35,10,212,233,235,238,246,227,225,252,10,44,220,0,222,0,215,250,9,45,250,19,253,236,222,7,216,236,37,224,22,211,17,211,211,16,231,239,224,16,29,213,223,247,219,253,214,241,218,46,13,211,236,19,246,6,14,255,38,223,14,219,220,1,233,213,247,239,34,208,243,40,249,1,2,74,239,49,22,250,53,248,252,61,24,230,5,253,212,16,18,18,54,217,9,56,20,25,218,39,13,55,22,206,206,231,32,48,80,69,45,42,254,243,194,215,223,29,232,43,251,43,196,5,253,241,4,217,61,7,41,0,2,30,16,16,77,253,245,26,75,39,191,69,229,19,10,7,2,203,8,223,232,250,250,22,234,231,24,212,251,64,22,26,40,15,47,41,17,210,33,243,32,212,45,238,233,236,28,53,252,246,255,76,226,216,213,29,2,232,22,32,237,215,29,222,249,6,2,224,15,43,244,34,186,12,16,6,200,26,47,12,31,43,49,8,86,209,208,202,248,228,193,4,245,0,4,29,228,11,17,27,37,216,0,74,55,17,24,97,90,237,28,225,13,22,53,196,40,228,26,23,248,242,27,220,211,25,251,239,197,248,29,3,253,14,51,241,10,25,55,248,32,36,17,196,7,27,60,237,12,20,34,221,232,178,1,42,12,242,234,33,213,57,221,212,11,18,4,217,231,38,79,40,36,4,42,185,40,199,31,60,90,211,42,224,22,48,28,224,217,4,245,3,219,252,216,37,229,33,36,247,31,52,249,230,205,9,212,63,22,2,3,47,13,23,225,0,212,246,65,36,206,19,69,16,250,243,6,2,212,53,218,237,48,16,199,53,50,87,69,57,205,85,23,238,213,197,198,73,209,45,247,30,249,236,36,240,245,3,227,226,210,255,218,29,7,235,21,251,213,214,229,39,44,253,226,16,222,214,242,42,18,215,243,227,11,3,27,13,240,229,242,36,239,215,238,20,230,221,22,251,14,19,232,222,13,28,227,243,23,250,232,229,15,26,249,211,25,218,222,221,29,221,64,23,248,253,72,42,224,230,222,229,36,53,33,14,22,216,4,62,42,46,1,34,44,190,27,225,21,20,26,252,33,254,46,238,236,219,237,27,4,224,34,245,40,233,249,240,1,25,32,204,185,60,9,45,50,11,10,70,214,245,213,36,224,237,218,3,219,254,11,19,243,251,241,220,45,255,243,214,224,240,27,248,239,212,43,6,33,17,238,219,214,0,36,220,12,215,228,14,249,35,46,29,20,31,232,233,33,37,7,208,248,202,61,226,240,161,2,228,82,222,211,221,40,21,220,217,46,217,247,41,238,7,3,241,236,212,244,242,226,9,9,17,19,45,250,241,44,213,20,15,216,248,249,38,238,248,217,213,190,8,240,226,19,32,39,28,8,27,54,246,60,39,238,44,45,226,215,152,18,28,216,140,71,28,28,23,254,192,195,248,28,211,226,27,209,20,210,233,1,245,17,207,238,226,218,238,246,33,22,225,224,36,238,10,23,252,223,37,20,36,21,211,210,31,215,213,10,5,222,236,238,19,253,39,61,11,21,37,245,0,23,224,49,74,72,255,230,52,9,43,67,207,201,248,217,15,198,251,28,225,213,252,235,208,15,12,221,188,73,48,6,241,216,214,51,5,57,7,206,232,68,27,164,98,61,0,24,22,11,54,34,51,47,41,25,13,14,216,21,208,48,13,33,231,19,221,239,49,4,194,232,248,205,223,228,48,14,229,253,240,249,233,215,221,246,255,239,238,240,216,17,5,245,238,17,240,242,229,248,223,21,216,231,254,32,238,241,214,213,233,45,223,31,225,234,235,18,47,243,24,44,45,49,57,15,0,219,43,206,224,238,10,64,204,13,196,250,229,79,197,227,2,226,215,20,243,25,92,202,219,50,19,43,204,14,49,224,61,253,55,248,69,50,37,5,210,12,228,86,213,67,249,85,38,67,234,233,220,229,186,214,250,54,217,244,253,239,237,236,64,196,180,250,192,201,211,40,21,91,17,204,175,255,41,71,145,27,35,0,11,26,198,250,27,62,204,205,206,11,17,10,13,87,56,43,27,252,40,249,34,245,38,29,230,250,214,3,206,52,8,231,3,30,36,17,66,1,227,239,227,249,255,31,246,218,63,12,182,242,38,12,208,210,33,35,2,245,206,57,250,196,230,41,209,25,222,241,47,59,40,255,225,65,229,102,231,244,49,25,71,247,9,49,46,23,38,22,14,30,204,48,220,181,38,227,213,215,231,227,42,171,113,229,253,23,235,5,3,4,238,28,214,36,16,32,215,29,212,36,4,210,0,230,21,213,29,221,233,239,219,26,28,242,202,37,232,8,29,226,248,34,236,21,249,248,20,14,41,64,240,249,1,218,20,243,203,30,47,32,4,52,254,182,246,55,224,36,223,252,223,4,198,2,60,222,194,189,69,24,244,14,23,1,219,33,15,54,215,64,189,48,240,59,204,35,26,220,213,16,252,4,238,242,230,7,197,190,18,205,226,66,229,255,7,206,14,187,31,7,82,245,0,245,255,40,76,26,10,63,245,230,29,248,234,20,48,230,241,43,28,42,225,56,208,237,227,251,207,247,230,6,228,68,53,205,41,246,9,250,40,203,63,8,239,0,34,197,38,55,34,61,21,5,27,241,45,10,33,210,7,219,224,11,255,6,62,234,1,13,3,231,75,250,150,249,232,249,252,187,43,20,231,42,214,255,234,11,223,14,217,24,227,223,244,246,16,255,28,246,255,236,249,223,8,249,221,33,210,218,9,44,214,216,11,33,253,14,38,216,20,244,44,15,250,210,236,229,10,2,253,39,53,21,56,180,23,192,240,215,61,8,239,36,34,63,234,229,249,32,13,234,29,1,218,33,216,33,250,45,13,239,243,11,221,1,211,238,220,13,10,246,6,16,224,215,223,19,8,7,224,226,16,235,205,17,0,8,240,82,46,233,186,69,251,223,31,37,5,197,25,223,20,205,231,9,229,29,32,222,61,47,73,8,236,253,35,243,40,22,224,39,48,245,233,1,57,218,237,37,216,10,232,218,26,202,226,65,41,26,239,74,251,197,14,29,53,210,214,221,33,4,22,242,215,218,244,221,42,17,25,34,215,8,219,213,231,237,17,248,228,210,214,251,214,211,252,38,221,218,34,82,218,255,255,4,0,0,0,0,2,0,0,132,2,0,0,140,251,255,255,110,246,255,255,111,254,255,255,124,254,255,255,129,24,0,0,53,254,255,255,164,17,0,0,238,16,0,0,0,0,0,0,45,254,255,255,95,246,255,255,61,1,0,0,0,0,0,0,255,13,0,0,59,255,255,255,0,0,0,0,202,246,255,255,154,249,255,255,242,254,255,255,142,1,0,0,80,10,0,0,14,254,255,255,123,14,0,0,215,4,0,0,23,4,0,0,130,14,0,0,167,3,0,0,107,9,0,0,244,3,0,0,118,12,0,0,219,4,0,0,177,13,0,0,124,253,255,255,237,21,0,0,5,12,0,0,49,255,255,255,246,253,255,255,6,255,255,255,45,3,0,0,135,16,0,0,17,16,0,0,0,0,0,0,0,0,0,0,188,254,255,255,195,9,0,0,15,16,0,0,0,0,0,0,252,254,255,255,216,245,255,255,0,0,0,0,0,0,0,0,69,24,0,0,238,13,0,0,187,11,0,0,41,0,0,0,144,12,0,0,175,14,0,0,111,4,0,0,102,12,0,0,0,0,0,0,21,252,255,255,45,15,0,0,36,4,0,0,70,246,255,255,11,25,0,0,0,0,0,0,69,245,255,255,216,29,0,0,0,0,0,0,249,6,0,0,17,249,255,255,105,12,0,0,0,5,0,0,68,21,0,0,178,255,255,255,0,0,0,0,7,254,255,255,122,13,0,0,117,252,255,255,123,10,0,0,169,8,0,0,221,9,0,0,85,19,0,0,70,244,255,255,0,0,0,0,0,0,0,0,250,5,0,0,216,6,0,0,10,1,0,0,161,11,0,0,66,24,0,0,103,16,0,0,168,5,0,0,228,8,0,0,228,253,255,255,170,3,0,0,160,254,255,255,0,0,0,0,135,14,0,0,221,8,0,0,0,0,0,0,97,9,0,0,0,0,0,0,60,7,0,0,43,252,255,255,138,7,0,0,199,16,0,0,22,232,255,255,0,0,0,0,60,5,0,0,56,255,255,255,159,22,0,0,58,19,0,0,194,6,0,0,86,239,255,255,233,247,255,255,219,10,0,0,215,18,0,0,101,18,0,0,212,2,0,0,245,245,255,255,0,0,0,0,65,10,0,0,0,0,0,0,171,7,0,0,2,0,0,0,0,0,0,0,94,220,255,255,4,0,0,0,0,32,0,0,45,5,252,47,242,8,62,251,0,247,48,239,21,8,248,250,243,240,16,8,22,10,15,12,13,15,14,16,245,10,11,240,231,12,234,244,11,255,15,25,18,252,6,247,20,7,16,5,244,240,252,8,252,245,15,237,5,28,254,36,0,6,0,10,5,11,2,52,251,3,243,4,11,237,246,4,13,254,37,253,23,225,6,16,251,245,11,2,34,9,11,239,18,9,233,10,2,4,255,2,253,4,46,252,49,10,35,5,7,2,235,37,14,3,252,253,249,17,30,10,249,229,4,5,240,252,2,254,245,7,244,252,10,0,236,11,242,14,232,7,10,16,250,248,251,251,10,251,242,237,251,251,236,16,8,240,251,246,240,244,12,251,21,250,7,1,255,251,249,15,10,13,10,255,244,6,5,237,244,5,29,12,250,246,22,251,4,6,249,9,245,242,1,21,7,14,0,7,14,248,9,248,3,239,0,255,8,249,6,5,12,9,254,3,13,248,254,252,13,18,247,251,9,0,14,4,14,3,6,0,231,246,0,246,242,2,253,255,12,239,242,5,14,12,6,246,242,7,1,1,249,6,242,248,245,15,2,244,254,5,242,4,13,10,245,243,5,250,247,8,5,249,245,251,15,243,244,16,254,3,2,14,10,1,15,13,247,253,16,10,243,255,248,15,4,247,251,4,248,4,253,8,255,244,249,244,248,1,2,12,12,6,252,249,11,14,248,8,2,8,2,247,7,253,3,0,250,250,247,243,255,250,16,245,244,247,14,252,252,13,240,1,15,240,250,253,15,240,0,241,248,250,244,16,240,253,249,252,0,6,17,251,250,2,249,9,249,240,254,241,7,251,244,4,8,244,1,1,249,253,245,254,245,12,14,254,250,250,249,11,7,9,248,244,9,13,250,241,10,240,254,15,3,10,12,242,248,252,1,6,243,2,242,242,251,11,253,8,1,237,10,247,240,1,244,253,1,0,247,10,239,251,251,248,254,12,255,0,2,253,239,3,11,249,253,5,240,3,9,4,240,8,0,7,239,7,252,6,2,248,240,250,6,249,241,2,243,243,247,243,1,249,253,254,247,5,245,7,5,11,5,11,1,252,2,247,2,11,3,245,246,253,13,17,243,248,248,0,14,5,245,3,252,253,13,246,240,241,242,251,7,7,57,18,9,0,253,5,47,230,245,252,65,24,44,3,252,247,3,13,17,252,24,38,242,249,19,17,240,254,1,15,8,4,11,4,249,1,242,255,20,9,244,13,249,247,28,32,1,15,14,22,254,248,238,233,5,250,244,16,7,25,247,251,252,15,1,240,248,57,252,250,15,11,12,13,245,32,2,12,17,22,2,229,247,5,251,9,243,247,255,13,240,231,1,3,237,5,19,252,1,6,248,13,48,8,42,254,45,238,252,250,252,58,0,13,243,18,250,248,22,245,251,237,8,1,7,12,19,242,48,5,3,32,240,43,44,240,29,241,30,239,1,2,254,245,251,0,49,16,246,22,6,247,1,16,25,63,245,29,254,242,228,15,243,219,16,4,223,35,7,248,251,11,31,24,251,5,7,236,17,2,239,32,244,233,3,255,244,20,5,5,27,19,11,33,6,34,54,252,254,236,3,245,10,31,10,236,31,241,17,243,1,20,11,1,252,14,5,6,249,250,42,17,27,247,15,5,0,0,6,243,10,248,9,15,46,29,246,246,255,21,21,253,1,223,17,23,38,47,21,242,1,0,240,236,16,243,24,8,248,6,7,39,46,2,248,249,32,229,9,254,0,6,253,241,251,249,10,31,251,246,10,9,20,12,255,250,244,251,14,242,245,237,243,6,8,10,13,9,241,251,248,255,14,247,250,240,247,242,247,26,241,238,247,3,6,25,16,242,12,5,255,35,241,21,38,15,242,2,245,239,18,9,250,10,16,4,246,240,11,16,6,16,252,249,25,245,15,238,244,1,236,254,245,15,11,15,240,248,25,1,32,250,2,3,11,245,17,4,36,9,3,224,253,1,35,45,10,249,250,9,5,255,18,13,32,5,250,19,247,219,4,25,227,253,249,26,21,0,14,8,247,250,243,13,14,245,15,1,8,253,12,252,237,249,16,19,242,2,242,252,3,17,27,9,6,7,3,0,251,19,25,2,7,30,245,253,237,244,22,25,2,2,9,0,243,13,246,244,7,205,6,4,194,240,9,12,237,13,237,255,3,7,222,6,8,1,239,253,22,241,7,248,7,14,22,227,229,252,227,2,253,13,10,2,13,255,252,243,249,244,236,234,29,2,243,10,248,241,231,48,255,242,238,213,0,23,0,18,249,245,253,7,207,12,9,251,253,2,225,15,11,16,213,245,228,240,248,11,246,237,9,2,10,220,7,18,245,12,252,252,3,22,20,1,12,244,27,20,245,19,5,253,18,236,10,249,14,254,20,253,238,3,254,255,9,247,4,2,9,255,15,22,240,228,31,5,252,250,3,218,23,3,246,18,246,0,13,244,248,238,10,237,4,249,6,2,248,245,5,1,250,0,16,27,3,243,15,0,9,255,15,9,8,245,244,244,223,16,249,255,247,15,251,232,221,252,12,5,240,253,240,244,5,236,253,6,1,11,240,10,245,244,234,253,253,40,252,13,14,244,26,248,242,247,252,239,16,243,37,18,6,31,14,4,245,11,32,239,26,252,8,252,1,240,36,27,249,3,0,5,254,0,244,241,17,249,12,254,9,251,246,247,2,19,15,14,16,14,245,255,240,19,22,254,2,62,255,12,45,14,254,249,27,248,34,12,10,252,7,3,254,0,251,255,2,246,251,248,246,251,3,28,8,252,23,249,252,11,15,1,253,3,40,11,242,20,236,16,246,13,41,232,106,14,11,12,247,32,82,21,13,15,242,243,10,14,31,250,7,240,253,0,255,6,246,3,252,3,243,251,2,251,6,247,250,251,16,5,13,4,0,3,252,9,14,10,16,248,252,242,247,1,12,254,10,250,13,10,11,243,10,248,9,241,6,242,244,243,240,248,9,240,253,2,4,248,248,243,252,14,2,243,240,255,246,1,255,244,242,12,8,248,245,11,10,245,246,243,240,245,11,248,249,15,8,255,247,245,13,242,251,15,5,250,11,250,8,4,3,253,250,2,253,254,4,247,249,12,254,12,3,243,8,6,242,250,247,241,246,248,11,9,0,0,253,240,249,242,246,250,240,37,22,18,3,240,47,8,231,254,15,254,250,237,14,253,11,21,0,32,20,5,7,233,19,237,13,14,13,10,40,14,15,254,52,11,1,13,243,0,242,1,1,9,222,20,10,15,45,224,9,254,26,30,6,17,2,0,31,9,248,1,11,31,252,251,254,24,4,17,247,6,240,247,4,238,17,243,249,247,245,253,11,0,9,3,22,15,4,254,21,245,248,243,239,18,246,2,49,10,18,14,12,39,250,254,249,6,254,31,25,26,247,12,52,7,250,237,14,250,247,25,14,14,243,248,240,10,9,7,244,243,254,242,13,1,1,3,246,0,247,14,246,252,250,242,250,10,240,8,246,9,240,238,239,246,255,10,1,248,248,9,3,239,10,248,244,240,5,238,1,0,243,253,255,240,12,11,8,250,0,254,15,251,251,3,6,5,251,5,8,5,9,16,10,251,3,250,243,246,242,243,246,3,242,7,5,5,250,10,2,244,10,239,7,245,8,242,255,255,9,254,1,13,8,4,250,245,13,9,239,11,245,244,242,255,247,14,8,255,9,7,250,10,0,248,245,10,253,246,248,246,241,10,5,3,253,238,240,7,248,248,1,241,2,245,7,0,15,2,4,3,253,249,4,14,1,254,253,5,7,9,6,242,245,246,255,3,246,7,5,250,3,253,250,7,9,12,14,10,240,6,13,16,242,240,238,239,250,6,239,254,254,6,5,10,254,253,5,242,7,9,240,247,12,11,13,242,5,9,10,254,244,8,9,252,5,2,252,243,6,246,0,248,242,2,249,252,243,244,1,12,246,250,9,243,244,14,243,254,4,241,10,250,11,13,249,14,238,9,252,241,4,252,243,244,242,14,242,3,19,241,253,2,233,38,228,1,9,255,250,8,240,253,26,9,244,246,20,255,14,220,3,22,16,250,18,247,255,252,29,14,238,6,42,237,252,247,20,249,29,12,245,9,13,8,13,245,228,252,240,242,33,252,11,17,34,18,31,23,6,217,29,246,21,254,6,20,255,2,0,251,18,0,25,6,16,3,35,245,23,247,239,3,16,12,4,13,24,4,10,21,43,4,32,10,225,11,255,23,249,241,25,239,252,8,6,29,1,0,227,240,245,4,5,248,246,249,30,236,1,230,13,6,2,5,244,246,252,253,253,249,1,2,253,15,3,0,252,234,255,13,3,240,1,6,238,4,245,3,252,12,4,8,9,252,6,249,252,0,249,6,19,14,11,240,251,4,247,250,6,253,235,239,245,243,10,249,5,16,13,6,242,9,241,250,244,234,0,1,0,245,9,250,242,0,4,13,254,4,245,251,244,248,244,1,3,254,254,17,253,249,244,6,16,2,253,250,3,0,246,14,16,252,246,243,241,7,245,1,0,8,253,13,249,248,234,240,14,246,11,11,245,251,246,242,250,255,243,4,249,250,16,9,7,16,254,10,7,20,243,249,239,236,8,3,223,8,0,240,17,13,250,2,249,18,2,191,242,5,10,19,13,22,245,14,6,9,252,5,6,4,254,23,237,6,7,11,249,242,5,24,251,250,12,229,246,254,251,249,246,15,9,14,1,15,240,247,246,246,4,7,10,233,246,13,4,236,3,7,19,248,245,250,242,253,244,12,250,5,20,0,4,254,250,243,250,4,255,16,20,13,244,0,245,242,17,11,227,242,234,238,14,249,251,244,231,6,220,0,3,241,0,241,203,236,4,242,254,255,1,240,249,1,25,252,239,238,244,221,47,232,0,4,70,31,10,3,21,239,2,12,19,10,248,84,2,251,254,17,245,248,8,0,5,244,238,6,250,1,254,0,22,247,255,14,254,245,244,0,2,250,0,23,240,2,6,9,13,240,2,248,5,237,0,248,19,241,10,214,240,63,228,14,245,13,16,35,240,15,9,230,9,3,2,229,10,247,11,254,2,1,248,1,251,251,18,251,9,234,246,4,240,0,238,254,15,247,250,2,16,11,249,243,233,28,226,24,233,23,244,254,9,13,21,244,246,9,253,8,12,254,229,245,12,216,32,233,232,33,24,255,36,5,24,250,6,8,243,23,229,23,17,245,250,253,14,10,5,231,20,32,254,0,26,15,4,50,14,20,27,10,1,239,252,6,14,242,2,8,48,29,3,249,255,43,14,15,239,233,6,227,254,23,240,15,248,10,6,228,41,15,2,20,28,15,8,251,9,27,229,29,13,25,34,22,250,248,5,253,237,14,245,244,236,248,21,246,27,252,243,243,17,8,220,15,236,249,3,225,248,5,31,6,253,10,18,42,7,4,1,251,13,35,14,246,253,32,2,6,252,6,243,251,245,11,242,9,249,10,249,254,1,1,255,254,243,13,252,252,252,254,6,244,7,249,241,244,2,5,9,253,242,255,5,245,253,239,11,246,6,12,245,13,4,252,0,1,255,4,16,249,1,251,6,10,253,2,254,11,244,0,12,245,249,5,249,254,6,10,5,15,8,11,12,6,248,243,240,11,4,240,14,243,240,13,254,253,253,14,244,3,241,245,243,254,250,8,14,241,11,243,15,251,5,255,239,15,13,11,252,4,11,246,13,16,6,1,0,249,252,3,246,9,1,2,255,0,11,6,1,246,11,8,255,13,4,249,9,4,234,6,238,246,6,242,0,246,239,255,0,250,249,8,253,249,4,15,238,241,8,9,255,255,4,0,11,11,249,8,10,10,243,238,14,1,239,2,0,2,232,246,14,2,242,250,247,239,3,249,10,247,255,252,8,239,14,4,9,6,240,241,245,247,244,241,13,7,243,11,11,255,7,4,8,0,250,255,253,247,252,247,248,8,251,14,1,253,251,2,254,8,251,1,249,253,14,249,8,6,13,12,10,7,255,249,11,14,252,247,255,14,241,245,240,254,229,244,243,220,11,6,18,248,20,251,43,17,20,253,11,17,240,23,247,19,249,39,11,246,3,247,238,4,4,2,11,20,6,6,251,39,238,12,37,11,255,228,16,252,21,233,0,3,19,33,253,1,240,252,10,255,241,244,13,20,11,21,16,246,2,248,248,4,236,15,16,9,1,1,236,5,9,251,13,18,11,16,252,17,0,253,243,247,12,4,240,241,255,254,237,18,11,255,10,2,13,244,26,3,10,12,13,245,12,11,25,6,17,19,245,53,3,0,55,254,244,14,4,13,9,21,29,243,9,246,8,235,29,238,43,16,9,243,60,253,35,251,255,252,242,28,241,1,29,25,3,6,243,243,3,249,17,13,243,254,254,245,243,27,11,251,15,7,19,17,12,254,10,14,244,16,8,10,4,14,236,19,2,5,224,1,3,2,254,35,246,249,16,234,4,17,253,242,4,26,249,22,239,6,7,24,10,24,11,240,21,1,18,5,1,17,23,0,7,255,230,9,248,11,20,15,12,247,0,15,38,11,26,5,14,238,1,5,18,11,5,255,3,43,5,13,10,20,3,12,15,239,12,15,2,13,229,2,239,244,8,14,219,24,243,253,8,236,208,247,12,3,246,230,21,10,242,248,4,251,253,252,36,222,33,254,29,23,17,246,39,22,10,11,18,244,27,237,5,12,6,233,11,246,247,253,240,252,49,21,251,253,42,10,15,2,245,245,38,234,236,24,12,235,254,240,10,5,254,14,39,7,255,248,3,0,11,35,9,250,12,246,0,25,249,24,0,28,19,16,51,8,232,15,254,10,8,9,5,253,218,251,214,22,237,5,18,227,18,9,18,250,12,5,39,246,237,4,1,16,240,38,27,14,26,2,20,19,3,238,6,21,8,13,225,1,18,250,244,255,11,15,238,248,16,233,12,251,245,1,26,34,12,18,254,17,17,8,228,251,241,7,223,9,0,251,12,5,255,6,1,11,19,243,242,4,225,16,18,3,241,4,248,5,1,25,229,248,3,21,255,13,10,252,3,244,248,241,8,251,247,14,234,5,249,20,249,18,2,255,250,12,21,6,3,243,254,248,228,247,27,1,255,4,15,1,215,243,23,3,252,241,7,16,15,20,3,247,247,8,253,0,222,24,20,30,255,8,255,242,8,9,2,255,0,0,247,8,252,245,13,13,36,235,15,15,11,253,0,4,6,2,252,39,240,244,248,14,246,27,9,29,249,238,3,245,3,5,246,2,245,23,251,239,15,9,21,3,255,241,5,238,11,244,236,27,19,253,3,8,249,20,242,255,28,23,251,45,242,14,31,241,15,13,15,245,19,31,244,8,21,0,24,239,243,246,7,8,0,0,6,19,11,23,11,249,11,236,23,255,241,249,11,14,25,12,7,14,35,21,253,244,4,0,36,239,3,231,252,40,72,24,246,246,1,12,13,251,30,7,244,245,251,5,1,11,14,1,253,241,51,1,0,245,248,8,15,243,2,241,14,24,10,253,246,11,253,240,23,1,246,252,252,3,11,17,10,244,33,6,19,9,8,1,3,247,255,253,236,14,11,255,20,245,1,7,9,21,1,30,254,248,37,16,3,7,4,14,250,16,16,7,8,255,244,15,6,240,8,6,18,255,247,246,237,1,5,2,17,20,250,12,251,1,8,9,7,1,254,255,4,249,60,240,4,0,19,27,4,251,19,0,17,4,5,17,244,0,65,10,247,250,9,17,240,22,3,11,68,15,253,3,248,20,53,7,14,244,32,255,246,0,254,13,17,237,22,249,15,30,5,7,16,250,252,247,9,248,4,254,245,240,6,250,252,17,10,249,23,23,246,6,5,10,14,245,224,249,240,240,13,247,13,14,244,38,255,14,241,237,0,245,248,247,10,64,15,3,17,2,242,15,254,254,253,17,246,255,253,246,243,247,15,4,2,9,14,12,18,3,246,244,243,12,236,1,254,23,13,253,51,242,70,254,24,26,244,252,12,2,250,1,17,252,248,246,50,25,242,221,11,12,2,0,247,16,210,247,18,11,242,3,220,193,9,254,218,12,17,244,235,15,246,253,37,22,249,223,242,254,238,13,15,42,250,10,23,248,218,15,14,232,251,251,22,25,255,192,240,3,30,23,12,10,6,184,8,241,255,13,1,229,27,246,11,21,245,235,10,5,7,26,12,229,13,240,23,243,252,211,18,28,243,246,39,241,40,252,251,245,254,5,250,7,6,31,12,21,22,7,12,10,243,13,242,12,246,246,227,253,129,8,13,26,240,1,227,251,227,255,242,230,2,17,3,241,17,244,16,9,0,240,11,241,250,245,3,254,15,24,254,6,18,250,32,1,10,247,8,4,245,12,238,5,243,33,17,8,7,4,5,1,250,17,248,0,22,17,252,19,246,14,249,244,248,254,255,241,1,242,6,245,248,17,246,249,245,51,13,251,234,249,11,246,11,6,246,21,247,49,9,255,43,255,248,244,15,2,6,15,2,19,8,20,250,255,14,244,16,10,13,9,245,254,4,8,4,1,13,244,28,13,255,4,253,251,46,248,0,5,252,246,242,1,11,242,28,7,19,245,254,15,34,40,248,247,245,15,8,4,11,14,54,3,34,41,1,243,68,229,25,251,29,19,46,248,254,244,244,18,23,253,17,13,4,19,6,248,238,17,254,21,244,251,234,10,224,232,7,23,244,29,2,255,254,3,36,39,15,254,14,4,252,11,233,241,0,11,243,252,247,35,246,241,16,26,5,251,1,48,254,244,254,253,0,252,250,35,15,3,14,252,254,243,247,252,9,0,8,250,24,249,252,238,15,246,242,10,26,14,12,7,7,254,18,7,28,6,65,11,252,251,233,32,249,7,2,248,248,0,32,252,1,227,11,236,7,243,243,255,244,249,252,254,2,250,251,4,254,249,240,246,246,10,14,9,10,246,9,4,246,248,250,11,249,245,245,9,0,253,250,241,243,10,249,1,11,251,10,14,10,8,15,11,253,251,5,15,247,243,253,248,9,3,244,1,254,6,248,250,9,5,241,244,11,239,250,252,243,1,240,238,245,7,9,3,7,247,10,12,253,246,247,243,240,245,4,255,5,240,3,9,1,237,10,12,14,14,1,1,249,16,14,2,10,7,2,242,244,245,7,245,251,11,6,11,247,241,1,243,0,7,5,243,3,250,4,253,237,255,4,0,0,254,9,253,5,0,55,3,9,4,7,5,253,17,2,12,8,43,10,250,12,12,239,255,18,16,11,1,255,13,250,0,248,6,18,14,25,229,249,252,26,6,16,246,2,15,243,240,9,252,248,2,7,245,2,26,243,232,24,9,17,249,3,7,248,10,255,12,0,4,245,4,246,10,23,253,18,229,233,16,243,247,2,0,11,6,9,8,13,252,251,8,6,245,248,17,12,3,43,8,4,252,11,1,248,4,244,17,245,17,15,31,252,18,52,0,250,241,9,254,4,20,27,245,238,5,244,239,10,9,230,21,4,0,37,246,227,254,7,254,252,233,0,13,242,27,241,27,18,247,238,245,35,252,33,0,253,1,52,26,251,11,60,244,11,1,4,13,0,255,16,4,237,17,17,247,62,252,19,239,40,7,20,12,11,232,28,11,2,4,249,9,231,15,4,14,10,22,22,10,16,14,30,234,243,5,2,18,246,14,5,21,252,249,252,33,38,247,18,4,219,252,253,18,248,243,46,245,245,16,244,25,252,248,17,236,248,26,3,47,6,254,59,0,226,223,11,254,253,29,18,3,6,241,21,251,33,223,10,23,16,3,0,4,14,239,246,16,7,21,233,250,16,229,1,240,14,19,246,13,248,7,0,16,14,12,235,24,7,23,3,15,244,10,252,249,12,239,254,16,43,14,15,8,225,17,2,6,224,229,3,221,8,40,236,18,8,254,246,221,6,251,5,11,10,23,11,253,255,33,227,33,3,39,29,18,14,250,242,4,238,238,16,241,228,11,255,10,41,5,12,9,0,2,219,15,30,253,16,234,17,244,25,29,8,17,238,26,12,255,216,0,29,24,248,238,4,244,9,254,15,247,254,10,243,253,241,248,252,12,246,3,244,243,242,253,242,243,12,4,250,242,15,246,242,247,250,252,249,6,9,1,252,3,1,250,247,241,239,253,244,244,244,243,246,15,2,249,13,251,255,5,255,0,248,6,240,10,12,10,4,13,15,251,2,5,14,252,251,2,12,246,253,13,1,11,241,2,4,5,239,13,248,250,4,246,244,6,5,239,244,243,12,246,248,6,242,241,241,4,243,2,1,248,13,253,244,0,10,249,253,248,5,252,9,2,255,6,246,1,10,4,255,239,254,12,1,4,16,251,13,3,249,11,7,245,251,14,6,13,255,247,241,240,5,14,2,253,243,251,250,5,6,251,3,246,1,2,241,247,7,248,7,1,252,8,8,248,2,14,0,249,3,7,240,244,9,242,2,255,240,7,248,8,243,252,241,246,2,246,246,242,254,6,6,251,241,249,15,241,13,13,252,249,253,242,2,10,242,247,246,254,10,247,250,239,242,250,1,12,253,242,255,14,252,239,241,248,254,5,255,7,1,8,8,252,11,11,9,0,7,250,244,248,12,4,5,15,7,249,14,2,252,15,249,2,2,14,15,30,24,246,6,18,253,252,193,9,14,244,17,245,3,23,232,7,250,188,247,4,243,250,4,251,7,10,248,9,20,12,247,234,242,15,231,2,238,17,16,8,243,10,0,5,25,242,14,6,240,28,246,11,240,245,3,227,2,23,231,15,250,11,241,248,31,3,13,245,18,238,13,4,10,14,227,245,248,18,32,16,2,1,9,15,4,1,18,244,245,0,12,237,29,0,250,11,246,7,218,0,13,247,22,244,244,254,4,12,252,13,237,214,240,244,184,14,23,254,8,2,249,240,245,252,247,5,246,1,12,34,43,21,17,252,23,255,15,13,248,249,1,253,238,3,244,29,3,248,249,252,33,4,1,234,235,10,28,241,248,2,249,0,226,1,9,33,242,8,245,245,4,16,253,16,248,4,237,34,10,8,221,255,249,242,14,29,242,245,245,24,241,16,40,242,1,241,17,13,31,236,245,8,1,15,6,15,7,12,14,250,252,252,4,238,249,6,247,246,249,237,5,250,13,23,19,15,49,11,46,3,16,243,5,10,15,237,36,14,8,238,4,13,49,50,21,237,246,5,13,19,2,244,6,4,17,7,255,247,252,4,15,1,13,15,15,252,249,241,8,244,10,239,245,252,247,3,250,250,248,16,6,7,250,240,246,10,252,3,244,250,11,255,244,250,254,252,5,13,255,11,244,241,254,250,3,244,251,246,14,4,9,7,1,254,9,241,243,7,250,255,5,1,242,241,15,1,6,243,9,4,7,11,246,4,239,254,252,248,0,9,251,252,8,240,0,10,240,12,10,249,6,252,243,250,16,16,253,13,245,10,9,250,241,251,6,246,255,0,13,245,14,248,243,7,249,0,251,7,242,4,31,15,244,2,7,243,12,44,239,17,219,14,243,250,22,27,7,250,220,242,15,241,251,250,6,0,19,246,1,213,250,31,6,16,4,15,4,250,243,249,16,22,14,10,231,5,24,8,236,21,16,245,35,245,250,37,9,32,23,234,251,22,238,250,6,7,9,17,224,2,22,15,244,9,239,223,12,16,216,251,247,44,25,20,1,17,251,250,1,251,7,2,222,9,233,254,5,244,10,7,23,9,225,12,12,8,225,246,22,254,24,10,1,13,253,7,253,223,212,9,21,8,10,27,245,1,236,1,5,244,246,12,247,4,30,221,253,241,39,253,225,246,14,245,1,211,21,32,4,48,4,242,238,25,19,12,244,24,249,5,3,5,11,247,12,248,1,253,12,199,243,3,20,13,9,7,253,239,252,4,250,0,236,227,34,4,255,45,240,225,38,11,240,23,247,8,4,9,251,246,245,241,22,27,250,236,31,235,8,244,219,17,4,12,5,3,240,17,9,27,34,239,37,239,223,15,1,253,254,3,242,241,217,5,5,20,10,252,4,252,4,4,20,5,252,32,15,238,236,39,255,17,250,14,21,15,243,4,254,253,237,249,4,243,255,5,8,248,8,247,14,249,14,246,252,244,252,249,11,244,244,245,251,8,239,240,8,7,4,242,3,9,17,238,7,2,7,242,255,253,3,240,244,241,5,2,244,240,249,250,245,247,246,1,2,246,240,4,239,9,241,253,3,243,255,0,2,4,245,244,2,7,0,245,255,4,6,238,246,251,248,14,6,13,9,240,239,14,248,241,6,253,2,1,5,240,243,242,252,2,252,7,255,3,245,9,10,243,245,249,244,12,242,253,3,253,14,5,15,242,11,244,246,246,44,246,253,254,0,31,29,36,252,244,26,238,243,8,22,13,3,244,254,236,242,22,13,19,12,251,16,0,3,225,249,8,24,0,30,9,4,243,254,254,8,25,9,9,253,251,19,16,254,3,253,3,22,240,251,21,2,48,22,251,255,10,250,249,252,243,14,62,235,245,1,255,16,0,16,0,16,2,251,6,0,253,244,18,6,240,13,4,26,6,24,11,252,1,232,26,231,4,255,0,18,253,52,0,50,250,253,16,12,15,12,0,8,9,14,11,7,237,41,17,243,226,247,2,15,6,244,14,225,252,8,237,243,20,236,0,11,255,53,14,255,248,9,22,13,235,30,1,19,6,250,0,22,248,243,242,255,17,40,0,7,247,50,17,248,8,76,19,31,250,6,244,31,242,247,247,233,21,252,241,34,227,9,252,55,249,250,15,4,244,57,5,248,241,247,242,240,1,12,40,19,20,2,12,249,238,42,5,254,0,241,16,0,0,245,244,246,5,6,34,49,7,23,8,226,251,10,253,251,13,30,5,228,0,8,39,245,4,255,8,243,40,7,36,9,18,39,230,236,234,255,248,9,23,6,4,38,242,26,18,5,8,55,247,9,254,22,244,15,253,13,245,253,1,11,240,255,253,10,30,5,14,249,255,255,8,247,249,247,0,241,231,10,12,237,13,15,37,2,3,253,36,15,3,234,240,253,244,244,246,250,252,253,35,17,9,240,241,252,17,19,248,1,34,20,245,12,247,252,253,249,250,254,251,14,249,250,247,6,2,251,10,9,250,10,1,248,249,13,8,230,252,16,244,8,27,13,1,32,7,46,4,23,243,4,255,236,28,13,11,242,216,14,6,16,26,248,225,8,20,247,9,2,6,24,6,21,4,241,244,244,243,16,7,199,10,244,6,252,13,8,252,253,4,4,209,249,10,14,4,255,13,242,1,23,8,233,246,240,237,249,24,232,25,8,11,252,245,243,28,16,2,15,232,240,16,6,3,5,18,6,246,8,255,249,243,253,252,12,250,14,7,5,4,252,251,3,242,251,242,240,252,248,250,14,238,1,253,9,252,15,17,2,15,251,0,19,17,249,4,12,246,242,18,2,1,247,245,8,248,13,11,240,8,226,4,196,2,235,226,10,247,188,9,8,234,250,255,3,241,242,240,253,10,13,3,241,239,250,10,241,255,7,253,243,254,244,240,7,248,243,4,239,248,5,9,254,240,12,6,247,254,251,246,9,241,1,246,7,1,2,5,239,252,243,11,239,12,245,245,254,255,10,0,240,252,252,249,14,11,248,249,251,3,240,252,245,245,254,240,10,13,239,247,238,0,8,242,7,14,13,237,1,9,14,0,10,250,253,4,0,241,7,244,5,250,10,241,8,15,10,2,7,242,246,15,14,5,5,242,253,15,0,253,239,249,254,3,242,1,247,4,4,254,246,249,16,2,254,15,254,243,248,252,241,245,7,251,240,17,1,253,246,248,251,14,7,2,254,244,11,244,14,10,248,15,247,252,3,17,0,239,10,252,15,10,253,4,8,251,241,248,245,0,7,10,6,14,253,14,240,244,245,249,3,12,245,11,238,4,14,246,244,8,1,247,4,6,239,253,14,9,254,253,243,242,248,251,239,14,248,242,251,252,245,12,252,245,238,239,239,4,12,5,239,247,15,249,241,12,254,247,246,7,10,10,239,9,253,243,4,9,250,249,12,244,249,7,11,241,243,0,9,243,10,252,240,12,51,17,13,244,9,246,56,26,246,1,55,28,40,249,249,4,0,6,7,18,250,21,14,1,7,14,22,13,245,4,243,17,25,255,232,15,0,255,243,4,2,253,9,6,20,12,13,4,21,10,4,13,226,17,0,252,228,7,255,9,3,32,19,255,249,1,15,51,247,241,12,242,243,0,4,9,253,18,254,1,22,9,226,243,6,253,251,250,25,20,242,238,217,243,235,249,8,241,0,237,19,7,16,255,34,8,250,248,16,4,23,3,37,252,255,46,8,2,20,2,16,46,4,11,12,247,33,247,240,250,241,236,245,65,245,19,22,16,15,236,240,3,14,252,15,237,7,246,246,2,3,14,251,248,8,241,4,19,18,3,17,242,37,9,14,249,249,253,16,20,3,245,21,255,9,12,11,237,241,244,52,7,16,9,1,8,246,251,14,249,26,1,0,48,241,239,63,249,17,248,30,10,46,246,3,1,33,234,244,247,29,10,242,249,4,13,242,252,16,20,56,252,54,238,241,1,6,27,9,241,17,13,240,15,19,36,248,10,9,226,11,22,37,219,7,26,38,40,7,231,252,251,243,23,255,255,21,5,240,21,13,56,24,22,251,9,252,8,243,248,15,1,12,243,15,7,255,32,14,42,8,6,45,7,26,232,37,6,16,10,72,244,251,246,3,10,19,55,245,242,242,24,14,11,235,252,0,3,55,5,249,3,32,36,1,0,6,238,27,1,255,32,240,67,254,2,2,247,247,13,28,233,241,244,6,236,8,245,14,16,255,11,4,17,12,249,24,11,12,15,9,23,228,253,0,254,4,254,39,255,52,23,251,29,240,16,254,244,4,254,12,241,255,243,59,32,244,231,14,34,5,10,248,240,38,7,20,25,243,24,20,23,240,240,252,19,0,246,11,7,15,4,253,6,254,44,252,15,5,11,3,20,253,246,13,17,242,247,1,243,239,5,5,244,235,47,15,13,238,7,4,2,230,1,10,5,244,236,12,20,242,26,14,0,12,249,250,237,248,233,1,30,221,248,8,244,238,0,230,226,10,253,255,13,246,233,232,16,251,1,252,22,17,252,251,217,230,18,229,29,4,13,251,12,246,245,27,15,31,3,26,247,253,241,250,5,13,8,239,3,247,218,7,10,17,245,6,26,2,252,237,241,250,250,4,8,5,38,17,28,253,4,16,244,235,241,15,236,247,240,16,6,231,18,14,17,254,6,20,7,14,233,12,15,19,246,19,12,15,1,243,239,21,16,255,3,253,232,3,254,252,248,250,4,23,9,8,239,7,28,0,254,241,254,251,6,254,57,254,19,41,7,14,255,22,11,31,244,251,248,27,243,254,0,239,11,239,14,15,0,249,14,10,32,253,255,10,9,252,10,1,9,16,252,24,15,0,250,8,30,246,14,255,226,21,254,4,246,6,4,45,13,249,248,252,4,9,3,14,243,22,250,14,10,4,0,22,39,244,242,234,253,12,7,25,11,245,237,0,252,17,19,14,20,21,253,4,241,1,240,24,253,12,3,250,5,14,238,7,7,18,43,255,13,220,30,22,249,248,12,0,11,28,228,12,9,254,7,252,6,6,243,237,254,14,222,241,8,218,0,11,253,247,8,251,248,14,250,248,254,247,5,250,251,2,254,247,14,12,254,9,233,237,15,238,19,250,4,252,14,10,255,245,245,32,252,242,3,15,7,241,27,242,25,255,12,255,227,239,4,252,252,11,20,5,247,230,1,41,6,8,17,19,248,70,229,11,0,28,22,44,2,232,21,7,30,15,254,19,12,254,10,16,14,220,31,252,41,243,1,3,14,234,19,15,23,12,29,247,3,255,9,26,27,5,9,21,15,6,15,217,245,3,242,245,239,2,255,242,19,2,1,250,232,248,42,231,9,248,247,248,239,233,37,249,21,250,251,21,229,248,251,2,241,16,244,255,3,247,222,6,17,235,0,17,14,6,17,249,7,22,254,29,255,45,250,14,251,8,60,253,18,250,36,12,21,3,4,6,18,248,3,14,4,11,15,240,255,14,225,19,244,250,43,19,255,48,245,245,252,16,5,243,44,228,242,15,12,244,243,7,18,243,224,21,246,249,249,30,245,23,63,15,251,22,243,8,254,241,6,252,239,7,2,28,32,255,253,14,20,10,15,234,237,251,248,1,11,239,7,249,18,14,253,38,11,8,32,27,38,7,8,241,33,240,36,240,54,56,18,2,254,243,247,245,255,255,4,244,14,14,250,20,248,6,13,23,12,13,7,10,247,11,5,253,241,28,236,28,33,2,25,254,12,25,8,245,22,3,5,253,35,8,6,40,252,30,33,255,239,65,17,4,253,27,255,45,245,11,247,1,27,234,26,254,23,244,5,3,20,20,68,242,23,238,8,249,253,218,247,255,20,224,24,252,20,243,253,6,15,3,0,48,241,247,4,221,61,4,23,242,253,242,2,255,40,224,26,6,15,249,39,34,252,11,2,251,239,9,38,2,252,15,12,22,241,238,252,20,12,6,11,9,255,13,227,242,11,239,4,58,240,3,19,8,244,249,4,19,1,19,252,5,252,252,15,78,249,237,248,4,3,5,58,41,19,1,241,247,229,16,251,5,1,4,2,7,14,8,4,2,11,1,3,252,255,252,255,3,11,242,244,246,254,6,244,244,248,255,16,248,255,0,239,11,243,254,249,14,1,9,241,252,238,4,240,8,241,14,0,3,255,16,13,15,2,2,238,4,245,252,3,1,242,15,252,244,252,248,7,243,12,252,242,247,241,253,3,253,248,9,239,15,16,255,255,5,7,12,5,241,9,238,248,245,241,245,1,10,241,240,8,250,0,244,14,255,12,4,7,4,250,255,5,15,253,245,245,16,239,238,249,14,5,8,248,249,6,239,3,251,16,25,5,255,241,42,235,13,247,80,5,47,3,7,14,12,252,43,245,4,32,249,11,245,5,227,14,243,17,12,4,253,7,228,16,251,6,25,39,255,245,1,247,16,8,244,248,16,18,16,247,224,255,7,2,6,4,245,25,250,0,37,18,24,241,16,22,251,16,9,23,4,10,243,51,248,245,29,12,26,226,236,4,4,241,4,9,12,1,240,247,10,244,247,10,8,240,3,22,253,255,31,5,11,15,54,7,11,243,245,28,246,20,245,25,3,15,50,240,248,0,11,250,247,15,33,245,19,15,1,5,1,17,243,18,231,241,14,17,230,247,29,21,15,239,17,247,241,2,247,235,245,254,31,239,2,228,16,30,20,253,18,6,7,8,27,245,21,250,245,13,240,11,246,246,9,23,248,9,34,250,247,20,46,31,25,253,5,6,2,233,2,250,250,11,231,0,246,0,255,19,3,12,247,248,1,251,23,25,237,12,22,12,14,0,12,1,9,7,13,3,12,25,251,244,246,238,1,13,226,250,14,240,232,5,16,9,23,6,243,2,16,32,9,6,240,255,22,28,15,25,253,9,16,248,210,244,6,239,36,223,250,7,2,7,245,20,16,242,252,5,243,42,229,19,252,243,8,239,3,8,248,248,18,29,1,254,13,13,228,20,8,16,8,243,6,14,252,254,14,237,250,255,46,4,11,253,3,10,14,25,245,242,242,208,243,27,233,15,12,8,8,223,30,1,253,6,24,29,0,19,10,20,246,27,242,34,40,12,8,247,251,10,228,10,254,1,246,19,17,8,45,2,244,243,22,245,222,3,230,2,248,246,252,255,40,9,251,27,10,27,11,27,223,20,18,43,11,249,243,5,17,243,43,246,20,30,241,43,13,9,10,249,249,17,250,251,22,10,240,237,48,247,18,10,240,35,9,6,15,8,0,226,44,2,237,250,32,6,13,6,253,255,253,17,248,12,247,12,29,8,230,6,248,241,18,220,14,245,47,21,27,24,253,244,0,11,4,255,15,27,239,244,245,245,240,250,10,231,13,249,3,241,13,2,235,10,5,252,15,21,23,12,5,21,36,18,19,4,232,13,242,8,242,6,7,16,7,19,249,28,5,13,252,6,244,19,12,252,2,255,36,20,14,226,14,5,2,12,236,240,14,2,248,3,10,1,0,249,1,254,16,248,253,12,16,0,2,250,250,246,240,251,243,0,250,251,243,250,249,245,251,245,12,1,9,253,240,243,249,251,240,247,244,248,240,12,2,0,17,243,12,253,241,245,241,10,241,244,255,15,253,6,12,15,8,249,11,255,13,11,244,246,10,3,0,3,14,246,8,252,14,13,7,254,252,12,10,244,11,7,253,253,252,253,253,7,242,240,246,5,2,12,9,17,255,245,4,249,255,12,246,248,249,252,244,12,16,246,8,241,241,251,14,255,253,252,252,252,106,252,255,255,4,0,0,0,0,1,0,0,193,2,0,0,51,255,255,255,0,0,0,0,7,255,255,255,206,0,0,0,87,3,0,0,66,2,0,0,3,0,0,0,99,2,0,0,158,3,0,0,188,255,255,255,177,3,0,0,109,255,255,255,204,254,255,255,22,7,0,0,235,254,255,255,113,1,0,0,163,252,255,255,172,2,0,0,138,255,255,255,252,254,255,255,138,1,0,0,251,1,0,0,178,4,0,0,91,0,0,0,152,2,0,0,11,2,0,0,226,3,0,0,95,3,0,0,146,2,0,0,116,1,0,0,105,254,255,255,205,1,0,0,157,3,0,0,186,0,0,0,51,255,255,255,0,0,0,0,192,0,0,0,173,3,0,0,58,255,255,255,58,3,0,0,150,254,255,255,87,254,255,255,252,2,0,0,156,3,0,0,142,3,0,0,5,2,0,0,144,254,255,255,45,255,255,255,130,0,0,0,223,5,0,0,210,6,0,0,63,2,0,0,140,2,0,0,31,2,0,0,105,255,255,255,148,4,0,0,59,1,0,0,145,255,255,255,151,1,0,0,89,0,0,0,78,2,0,0,24,6,0,0,0,0,0,0,118,253,255,255,4,0,0,0,192,1,0,0,23,248,232,243,18,16,13,235,236,12,19,35,231,242,245,243,219,39,251,231,236,15,24,246,234,30,14,9,222,24,13,255,21,26,250,231,229,231,18,10,250,247,244,7,2,17,225,247,242,14,26,18,254,27,1,2,12,6,14,16,3,248,7,255,15,231,0,7,23,41,239,210,11,220,0,195,24,13,216,7,31,177,7,254,1,239,17,179,21,33,226,215,35,15,38,4,7,220,15,12,24,26,229,254,189,205,26,195,240,24,29,252,12,241,20,188,199,218,228,28,254,28,242,21,181,22,226,14,26,255,8,241,13,11,252,25,193,193,252,3,15,241,9,15,31,243,194,240,236,220,253,206,29,231,224,14,0,245,25,232,226,234,248,10,1,7,245,255,35,180,24,17,212,29,25,247,6,13,218,24,27,231,31,9,206,29,5,245,17,212,34,236,0,19,4,249,239,36,239,188,30,15,245,22,250,16,40,4,19,230,214,0,251,240,186,30,215,30,254,240,45,251,236,22,11,33,191,234,23,194,186,233,199,57,22,236,18,228,5,241,22,240,35,22,225,21,234,213,208,226,233,253,30,201,23,249,217,4,8,239,246,171,214,251,30,235,240,38,255,237,29,20,16,196,3,237,227,248,245,24,159,211,248,2,190,252,193,247,255,45,248,253,247,242,219,249,30,207,248,12,16,255,0,252,255,214,34,35,2,243,32,214,26,146,21,216,26,3,28,9,228,0,20,7,18,227,220,34,218,244,14,226,229,254,156,246,236,3,20,252,240,32,34,230,17,254,248,215,129,6,249,15,10,251,22,18,240,238,230,13,12,24,19,239,248,213,202,255,11,37,204,187,242,220,254,23,12,19,10,23,31,19,192,22,182,22,10,255,216,4,0,195,251,19,11,213,240,240,210,23,7,11,18,17,24,244,252,4,30,9,223,221,169,30,181,253,221,242,14,10,245,31,44,6,20,217,15,249,203,234,224,13,235,8,32,3,188,31,225,206,25,13,247,168,12,24,219,15,66,255,255,255,4,0,0,0,28,0,0,0,122,0,0,0,186,255,255,255,14,255,255,255,186,255,255,255,56,0,0,0,92,255,255,255,7,0,0,0,56,255,255,255,60,255,255,255,15,0,0,0,77,76,73,82,32,67,111,110,118,101,114,116,101,100,46,0,1,0,0,0,20,0,0,0,0,0,14,0,24,0,20,0,16,0,12,0,8,0,4,0,14,0,0,0,20,0,0,0,28,0,0,0,56,1,0,0,60,1,0,0,64,1,0,0,4,0,0,0,109,97,105,110,0,0,0,0,4,0,0,0,224,0,0,0,152,0,0,0,80,0,0,0,20,0,0,0,0,0,14,0,26,0,20,0,16,0,12,0,11,0,4,0,14,0,0,0,28,0,0,0,0,0,0,9,28,0,0,0,32,0,0,0,1,0,0,0,0,0,6,0,8,0,4,0,6,0,0,0,0,0,128,63,1,0,0,0,10,0,0,0,1,0,0,0,9,0,0,0,202,255,255,255,20,0,0,0,0,0,0,8,16,0,0,0,20,0,0,0,4,0,4,0,4,0,0,0,1,0,0,0,9,0,0,0,3,0,0,0,8,0,0,0,2,0,0,0,1,0,0,0,0,0,14,0,20,0,0,0,16,0,12,0,11,0,4,0,14,0,0,0,16,0,0,0,0,0,0,8,16,0,0,0,20,0,0,0,186,255,255,255,0,0,0,1,1,0,0,0,8,0,0,0,3,0,0,0,7,0,0,0,4,0,0,0,3,0,0,0,0,0,14,0,22,0,0,0,16,0,12,0,11,0,4,0,14,0,0,0,24,0,0,0,0,0,0,8,24,0,0,0,28,0,0,0,0,0,6,0,8,0,7,0,6,0,0,0,0,0,0,1,1,0,0,0,7,0,0,0,3,0,0,0,0,0,0,0,6,0,0,0,5,0,0,0,1,0,0,0,10,0,0,0,1,0,0,0,0,0,0,0,11,0,0,0,88,5,0,0,200,4,0,0,68,4,0,0,200,3,0,0,92,3,0,0,232,2,0,0,124,2,0,0,208,1,0,0,28,1,0,0,128,0,0,0,4,0,0,0,234,250,255,255,0,0,0,1,24,0,0,0,32,0,0,0,60,0,0,0,11,0,0,0,0,0,0,9,80,0,0,0,2,0,0,0,255,255,255,255,7,0,0,0,212,250,255,255,8,0,0,0,16,0,0,0,1,0,0,0,128,255,255,255,255,255,255,255,1,0,0,0,0,0,128,59,25,0,0,0,83,116,97,116,101,102,117,108,80,97,114,116,105,116,105,111,110,101,100,67,97,108,108,58,48,0,0,0,2,0,0,0,1,0,0,0,7,0,0,0,98,251,255,255,0,0,0,1,24,0,0,0,32,0,0,0,64,0,0,0,10,0,0,0,0,0,0,9,112,0,0,0,2,0,0,0,255,255,255,255,7,0,0,0,76,251,255,255,8,0,0,0,20,0,0,0,1,0,0,0,39,0,0,0,0,0,0,0,0,0,0,0,1,0,0,0,4,166,82,62,52,0,0,0,115,101,113,117,101,110,116,105,97,108,47,100,101,110,115,101,95,50,47,77,97,116,77,117,108,59,115,101,113,117,101,110,116,105,97,108,47,100,101,110,115,101,95,50,47,66,105,97,115,65,100,100,0,0,0,0,2,0,0,0,1,0,0,0,7,0,0,0,250,251,255,255,0,0,0,1,24,0,0,0,32,0,0,0,64,0,0,0,9,0,0,0,0,0,0,9,136,0,0,0,2,0,0,0,255,255,255,255,64,0,0,0,228,251,255,255,8,0,0,0,20,0,0,0,1,0,0,0,128,255,255,255,255,255,255,255,0,0,0,0,1,0,0,0,45,188,248,60,76,0,0,0,115,101,113,117,101,110,116,105,97,108,47,100,101,110,115,101,95,49,47,77,97,116,77,117,108,59,115,101,113,117,101,110,116,105,97,108,47,100,101,110,115,101,95,49,47,82,101,108,117,59,115,101,113,117,101,110,116,105,97,108,47,100,101,110,115,101,95,49,47,66,105,97,115,65,100,100,0,0,0,0,2,0,0,0,1,0,0,0,64,0,0,0,170,252,255,255,0,0,0,1,24,0,0,0,32,0,0,0,64,0,0,0,8,0,0,0,0,0,0,9,128,0,0,0,2,0,0,0,255,255,255,255,128,0,0,0,148,252,255,255,8,0,0,0,20,0,0,0,1,0,0,0,128,255,255,255,255,255,255,255,0,0,0,0,1,0,0,0,135,77,213,59,70,0,0,0,115,101,113,117,101,110,116,105,97,108,47,100,101,110,115,101,47,77,97,116,77,117,108,59,115,101,113,117,101,110,116,105,97,108,47,100,101,110,115,101,47,82,101,108,117,59,115,101,113,117,101,110,116,105,97,108,47,100,101,110,115,101,47,66,105,97,115,65,100,100,0,0,2,0,0,0,1,0,0,0,128,0,0,0,222,253,255,255,0,0,0,1,20,0,0,0,52,0,0,0,7,0,0,0,0,0,0,9,68,0,0,0,44,253,255,255,8,0,0,0,20,0,0,0,1,0,0,0,0,0,0,0,0,0,0,0,0,0,0,0,1,0,0,0,197,59,137,59,23,0,0,0,115,101,113,117,101,110,116,105,97,108,47,100,101,110,115,101,47,77,97,116,77,117,108,0,2,0,0,0,128,0,0,0,33,0,0,0,70,254,255,255,0,0,0,1,20,0,0,0,48,0,0,0,6,0,0,0,0,0,0,2,80,0,0,0,148,253,255,255,8,0,0,0,16,0,0,0,1,0,0,0,0,0,0,0,0,0,0,0,1,0,0,0,140,197,137,55,39,0,0,0,115,101,113,117,101,110,116,105,97,108,47,100,101,110,115,101,47,66,105,97,115,65,100,100,47,82,101,97,100,86,97,114,105,97,98,108,101,79,112,0,1,0,0,0,128,0,0,0,182,254,255,255,0,0,0,1,20,0,0,0,48,0,0,0,5,0,0,0,0,0,0,9,68,0,0,0,4,254,255,255,8,0,0,0,16,0,0,0,1,0,0,0,0,0,0,0,0,0,0,0,1,0,0,0,84,121,46,60,25,0,0,0,115,101,113,117,101,110,116,105,97,108,47,100,101,110,115,101,95,49,47,77,97,116,77,117,108,0,0,0,2,0,0,0,64,0,0,0,128,0,0,0,30,255,255,255,0,0,0,1,20,0,0,0,52,0,0,0,4,0,0,0,0,0,0,2,88,0,0,0,108,254,255,255,8,0,0,0,20,0,0,0,1,0,0,0,0,0,0,0,0,0,0,0,0,0,0,0,1,0,0,0,201,95,145,56,41,0,0,0,115,101,113,117,101,110,116,105,97,108,47,100,101,110,115,101,95,49,47,66,105,97,115,65,100,100,47,82,101,97,100,86,97,114,105,97,98,108,101,79,112,0,0,0,1,0,0,0,64,0,0,0,150,255,255,255,0,0,0,1,20,0,0,0,48,0,0,0,3,0,0,0,0,0,0,9,68,0,0,0,228,254,255,255,8,0,0,0,16,0,0,0,1,0,0,0,0,0,0,0,0,0,0,0,1,0,0,0,59,122,46,60,25,0,0,0,115,101,113,117,101,110,116,105,97,108,47,100,101,110,115,101,95,50,47,77,97,116,77,117,108,0,0,0,2,0,0,0,7,0,0,0,64,0,0,0,0,0,22,0,28,0,24,0,23,0,16,0,12,0,8,0,0,0,0,0,0,0,7,0,22,0,0,0,0,0,0,1,20,0,0,0,48,0,0,0,2,0,0,0,0,0,0,2,84,0,0,0,100,255,255,255,8,0,0,0,16,0,0,0,1,0,0,0,0,0,0,0,0,0,0,0,1,0,0,0,170,134,169,57,41,0,0,0,115,101,113,117,101,110,116,105,97,108,47,100,101,110,115,101,95,50,47,66,105,97,115,65,100,100,47,82,101,97,100,86,97,114,105,97,98,108,101,79,112,0,0,0,1,0,0,0,7,0,0,0,0,0,22,0,32,0,28,0,27,0,20,0,16,0,12,0,0,0,0,0,8,0,7,0,22,0,0,0,0,0,0,1,24,0,0,0,44,0,0,0,72,0,0,0,1,0,0,0,0,0,0,9,96,0,0,0,2,0,0,0,255,255,255,255,33,0,0,0,12,0,12,0,0,0,0,0,8,0,4,0,12,0,0,0,8,0,0,0,16,0,0,0,1,0,0,0,128,255,255,255,255,255,255,255,1,0,0,0,130,128,128,59,29,0,0,0,115,101,114,118,105,110,103,95,100,101,102,97,117,108,116,95,100,101,110,115,101,95,105,110,112,117,116,58,48,0,0,0,2,0,0,0,1,0,0,0,33,0,0,0,2,0,0,0,36,0,0,0,4,0,0,0,240,255,255,255,25,0,0,0,2,0,0,0,0,0,0,25,12,0,16,0,15,0,0,0,8,0,4,0,12,0,0,0,9,0,0,0,4,0,0,0,0,0,0,9};
const unsigned int model_tflite_len = 16168;
