#ifndef MODEL_DATA_H
#define MODEL_DATA_H
    #include <Arduino.h>
    #include <TensorFlowLite_ESP32.h>
    #include "tensorflow/lite/builtin_ops.h"
    #include "tensorflow/lite/micro/kernels/micro_ops.h"
    #include "tensorflow/lite/micro/micro_error_reporter.h"
    #include "tensorflow/lite/micro/micro_interpreter.h"
    #include "tensorflow/lite/micro/all_ops_resolver.h"
    const unsigned char fault_model[] = {32,0,0,0,84,70,76,51,0,0,0,0,20,0,32,0,28,0,24,0,20,0,16,0,12,0,0,0,8,0,4,0,20,0,0,0,28,0,0,0,144,0,0,0,232,0,0,0,12,11,0,0,28,11,0,0,152,18,0,0,3,0,0,0,1,0,0,0,16,0,0,0,0,0,10,0,16,0,12,0,8,0,4,0,10,0,0,0,12,0,0,0,28,0,0,0,60,0,0,0,15,0,0,0,115,101,114,118,105,110,103,95,100,101,102,97,117,108,116,0,1,0,0,0,4,0,0,0,152,255,255,255,10,0,0,0,4,0,0,0,8,0,0,0,100,101,110,115,101,95,49,49,0,0,0,0,1,0,0,0,4,0,0,0,218,244,255,255,4,0,0,0,7,0,0,0,105,110,112,117,116,95,51,0,2,0,0,0,52,0,0,0,4,0,0,0,220,255,255,255,13,0,0,0,4,0,0,0,19,0,0,0,67,79,78,86,69,82,83,73,79,78,95,77,69,84,65,68,65,84,65,0,8,0,12,0,8,0,4,0,8,0,0,0,12,0,0,0,4,0,0,0,19,0,0,0,109,105,110,95,114,117,110,116,105,109,101,95,118,101,114,115,105,111,110,0,14,0,0,0,32,10,0,0,24,10,0,0,236,9,0,0,108,9,0,0,28,9,0,0,12,7,0,0,124,6,0,0,172,0,0,0,164,0,0,0,156,0,0,0,148,0,0,0,140,0,0,0,108,0,0,0,4,0,0,0,134,245,255,255,4,0,0,0,88,0,0,0,12,0,0,0,8,0,14,0,8,0,4,0,8,0,0,0,16,0,0,0,40,0,0,0,0,0,6,0,8,0,4,0,6,0,0,0,4,0,0,0,1,0,0,0,235,3,0,0,0,0,10,0,16,0,12,0,8,0,4,0,10,0,0,0,2,0,0,0,2,0,0,0,4,0,0,0,6,0,0,0,50,46,49,51,46,49,0,0,234,245,255,255,4,0,0,0,16,0,0,0,49,46,49,52,46,48,0,0,0,0,0,0,0,0,0,0,212,245,255,255,216,245,255,255,220,245,255,255,224,245,255,255,22,246,255,255,4,0,0,0,192,5,0,0,79,230,216,176,234,55,191,204,46,221,70,217,249,235,41,33,28,1,37,223,59,102,1,223,72,7,8,172,39,33,216,251,197,22,78,47,45,206,47,241,3,230,247,224,232,252,159,212,163,194,46,23,73,226,179,179,232,68,219,45,242,196,45,227,81,212,46,214,221,46,202,251,3,25,190,204,236,11,211,24,195,212,234,201,190,17,2,240,248,40,215,212,57,255,90,14,77,44,37,64,241,42,56,44,2,0,255,206,247,50,57,36,60,188,247,244,243,67,5,203,203,203,44,229,233,220,30,212,174,246,201,51,238,232,235,231,246,30,205,197,209,46,17,49,37,13,247,38,3,233,44,222,58,252,229,153,240,30,29,4,51,231,243,16,51,237,188,52,100,88,92,43,34,45,234,25,247,12,33,181,74,237,52,239,233,38,231,6,103,205,244,206,72,225,221,222,9,52,19,255,179,175,237,31,41,43,15,213,248,18,254,17,64,207,27,248,213,56,164,44,227,229,48,24,238,209,190,248,12,56,230,236,69,222,39,180,3,222,30,217,212,16,3,20,202,24,226,20,26,43,65,18,17,34,14,210,17,198,78,28,246,255,40,229,12,208,55,220,13,197,19,43,57,56,254,40,230,54,248,52,228,249,56,68,61,223,201,45,44,211,7,237,217,14,195,201,12,1,238,28,28,203,188,68,4,178,223,47,23,78,63,66,24,169,9,51,195,237,171,21,217,243,254,60,227,65,226,44,52,184,164,192,240,162,36,187,65,24,254,214,75,205,55,218,188,45,47,66,236,213,146,176,28,57,12,245,73,46,63,9,24,2,14,33,89,35,211,239,239,249,220,206,62,31,165,255,188,62,54,206,0,43,68,18,52,35,45,241,0,63,22,214,226,223,18,171,3,169,244,236,59,187,37,6,5,11,164,45,49,201,223,30,2,183,3,28,14,213,196,17,150,70,235,253,157,237,23,98,24,71,82,205,5,20,53,191,5,216,29,47,208,84,241,46,214,253,230,57,60,40,20,201,190,231,179,23,214,227,235,179,68,12,253,254,22,20,234,17,13,56,60,46,192,3,63,32,72,250,16,51,41,38,217,233,16,249,252,7,242,42,21,61,58,34,198,6,221,254,71,236,198,2,40,52,236,22,16,59,223,228,68,12,190,199,211,8,200,88,190,248,129,64,88,51,211,171,242,78,184,185,240,65,219,208,77,239,254,216,52,221,195,239,54,82,199,251,209,65,15,204,175,233,227,73,39,212,52,11,236,71,7,238,244,77,75,38,58,29,207,45,32,74,1,12,35,38,251,32,149,45,211,43,17,5,204,200,225,213,39,39,231,235,15,62,49,73,47,238,199,182,241,61,15,13,171,21,198,2,183,186,230,34,44,30,24,64,230,25,16,216,239,33,0,197,229,247,244,253,44,234,240,249,56,59,64,252,210,6,235,245,42,56,106,50,50,61,188,255,253,51,69,7,52,246,68,20,240,215,234,63,212,220,61,211,54,1,229,46,74,45,61,175,41,15,244,37,12,55,198,226,24,191,29,48,234,228,215,230,30,28,57,204,71,5,70,219,240,35,234,225,35,72,9,10,37,219,55,205,171,63,61,1,244,231,210,248,2,223,235,8,203,66,247,5,179,245,25,197,3,13,201,239,65,226,241,68,197,195,21,244,4,193,34,5,202,241,186,251,231,50,21,59,197,252,5,63,34,220,197,200,39,251,213,48,209,200,201,41,5,18,16,252,253,189,29,251,208,222,53,58,208,233,178,17,240,227,55,245,223,44,27,31,205,69,46,226,200,211,0,175,29,53,182,230,70,51,47,170,244,203,178,235,216,254,76,30,205,7,196,54,46,49,242,53,72,198,222,61,61,160,199,38,0,160,26,57,217,32,219,200,19,48,220,213,103,249,36,233,206,29,38,183,54,54,250,57,71,1,28,212,181,42,212,90,204,233,233,209,210,235,210,42,52,247,42,22,7,74,31,246,180,62,213,246,62,198,63,43,12,71,4,16,235,23,32,44,244,2,46,226,240,216,171,11,56,193,249,28,226,226,42,208,65,202,4,202,218,2,204,202,66,38,7,200,45,46,15,189,19,224,230,37,195,179,201,190,42,235,27,236,3,185,8,248,208,200,205,230,28,209,31,50,189,89,218,33,67,36,213,181,237,25,20,63,199,244,206,237,218,29,247,242,74,186,211,243,40,50,51,33,236,253,183,78,29,252,235,67,24,4,41,1,238,234,27,21,219,223,247,210,6,240,38,6,50,49,101,226,35,6,5,34,217,247,75,28,253,197,11,31,16,222,45,212,104,10,38,224,41,75,68,39,251,70,195,2,192,63,38,34,7,12,48,234,249,227,180,62,0,248,9,174,228,242,199,231,215,71,63,228,251,81,83,215,252,32,0,181,16,21,191,204,10,211,176,224,215,71,254,46,16,236,86,51,57,202,229,10,200,27,204,30,197,195,251,182,242,205,0,12,48,89,18,80,62,192,223,41,228,60,69,246,15,38,68,21,252,30,14,210,0,250,42,78,204,243,210,69,29,163,40,206,224,181,214,254,10,193,21,198,233,235,90,247,226,20,8,67,42,23,221,193,197,53,241,20,12,23,212,5,181,252,65,211,211,184,18,177,223,184,230,246,246,239,184,26,244,248,249,60,15,204,31,37,12,112,231,251,66,50,56,43,165,241,218,201,38,53,47,28,231,208,29,60,27,51,24,226,253,33,124,66,12,243,69,251,198,231,208,236,187,207,198,209,27,177,228,224,179,76,17,24,249,45,1,237,47,153,86,90,216,38,240,188,213,237,214,231,5,230,82,202,29,189,14,179,92,225,217,56,187,50,233,16,26,60,18,42,78,27,181,14,247,178,252,196,41,207,177,201,234,250,197,3,213,49,0,19,205,249,253,10,210,74,229,254,43,51,239,3,3,246,201,212,180,183,60,220,209,242,187,192,255,232,243,40,57,242,207,194,51,205,212,192,248,76,206,40,233,2,251,237,98,199,36,44,28,5,229,47,235,34,253,47,63,198,41,22,239,50,214,74,234,239,59,203,224,186,72,225,250,173,10,3,43,222,196,216,208,37,227,199,245,78,50,3,183,78,183,242,234,63,68,51,22,3,58,70,28,216,219,242,39,37,244,197,206,194,26,1,48,3,1,204,233,13,7,246,24,237,76,75,89,255,15,39,245,4,247,0,29,215,183,218,223,224,45,41,178,16,13,243,171,20,43,239,253,16,176,198,255,220,64,28,254,10,2,200,26,14,35,63,63,99,173,40,32,233,81,51,43,219,193,201,185,35,94,66,243,18,73,39,226,251,255,255,4,0,0,0,128,0,0,0,221,254,255,255,77,2,0,0,79,0,0,0,28,0,0,0,240,255,255,255,178,253,255,255,117,253,255,255,48,1,0,0,119,252,255,255,65,0,0,0,247,251,255,255,164,255,255,255,15,0,0,0,207,254,255,255,16,255,255,255,248,253,255,255,3,0,0,0,21,1,0,0,235,250,255,255,248,255,255,255,97,253,255,255,165,251,255,255,159,254,255,255,148,255,255,255,146,250,255,255,15,1,0,0,148,254,255,255,69,252,255,255,250,254,255,255,106,255,255,255,204,254,255,255,128,0,0,0,110,252,255,255,4,0,0,0,0,2,0,0,172,39,228,173,170,29,248,41,35,220,49,52,198,182,51,242,31,29,197,4,243,248,232,252,20,233,16,3,244,252,15,205,34,243,47,236,248,230,220,191,61,13,53,228,19,21,232,237,12,21,234,46,49,58,200,36,67,226,207,202,15,45,24,17,59,187,200,216,227,3,195,3,37,1,50,4,226,249,38,230,47,57,65,235,192,2,37,178,234,243,2,245,226,43,239,5,242,223,53,25,242,226,1,59,50,200,222,47,196,251,12,222,252,248,18,4,12,25,254,47,193,204,129,63,188,191,35,53,54,28,213,204,74,191,41,223,242,190,210,175,35,250,228,247,26,184,55,224,26,240,249,254,25,208,174,70,228,221,57,244,205,196,231,47,242,45,11,242,202,248,211,211,75,21,203,195,39,3,10,187,71,55,13,219,57,187,238,25,35,49,243,56,49,199,213,188,248,197,28,10,16,58,21,230,230,187,233,5,79,18,220,240,3,7,254,29,230,44,245,72,9,37,248,229,6,233,22,211,211,254,51,236,242,1,210,217,49,189,247,46,207,227,210,212,60,21,12,1,31,49,47,223,245,227,25,82,231,204,4,213,42,252,203,193,231,197,60,37,7,43,7,175,188,39,26,204,74,38,42,208,0,251,32,50,44,21,29,29,211,216,41,26,3,27,10,237,49,203,200,207,242,54,56,207,25,44,48,191,7,230,35,51,39,174,247,207,239,31,239,0,7,202,189,224,194,183,6,216,209,72,235,74,254,208,255,255,235,21,225,221,28,246,253,221,19,210,195,37,248,15,20,31,10,36,62,238,192,242,3,214,47,181,57,53,223,63,44,205,254,19,33,20,18,222,53,181,199,226,230,219,64,21,14,209,66,69,22,19,30,26,227,236,243,196,212,184,227,9,3,251,204,28,33,230,46,246,197,204,175,6,23,20,10,37,49,204,211,168,5,19,233,37,67,200,35,49,30,18,57,64,244,228,54,180,81,46,4,210,31,4,233,194,27,10,203,32,187,186,202,8,44,15,187,13,32,213,76,41,176,254,39,23,64,209,6,207,2,208,56,7,3,172,19,51,226,210,214,83,49,208,33,31,64,67,40,207,236,79,209,255,33,243,214,220,219,17,236,185,234,25,38,237,237,239,2,251,248,66,60,246,10,238,122,254,255,255,4,0,0,0,64,0,0,0,41,254,255,255,157,253,255,255,140,253,255,255,101,255,255,255,210,254,255,255,15,253,255,255,36,0,0,0,16,255,255,255,36,254,255,255,78,255,255,255,220,254,255,255,112,0,0,0,92,1,0,0,81,253,255,255,133,254,255,255,61,0,0,0,198,254,255,255,4,0,0,0,112,0,0,0,238,210,4,188,194,43,254,36,230,67,254,238,209,42,35,15,248,175,183,62,213,30,246,210,190,25,249,82,86,61,49,225,15,174,1,1,210,78,62,64,201,14,129,68,39,25,194,217,57,1,58,207,23,58,238,196,16,184,59,171,91,245,163,65,234,30,179,251,60,129,220,60,14,212,255,206,187,194,6,15,92,196,26,53,231,225,188,62,215,10,186,234,21,81,51,207,198,223,0,17,51,40,34,1,249,209,254,3,249,9,56,226,66,255,255,255,4,0,0,0,28,0,0,0,250,250,255,255,248,255,255,255,147,250,255,255,79,253,255,255,81,5,0,0,75,7,0,0,18,1,0,0,56,255,255,255,60,255,255,255,15,0,0,0,77,76,73,82,32,67,111,110,118,101,114,116,101,100,46,0,1,0,0,0,20,0,0,0,0,0,14,0,24,0,20,0,16,0,12,0,8,0,4,0,14,0,0,0,20,0,0,0,28,0,0,0,56,1,0,0,60,1,0,0,64,1,0,0,4,0,0,0,109,97,105,110,0,0,0,0,4,0,0,0,224,0,0,0,152,0,0,0,80,0,0,0,20,0,0,0,0,0,14,0,26,0,20,0,16,0,12,0,11,0,4,0,14,0,0,0,28,0,0,0,0,0,0,9,28,0,0,0,32,0,0,0,1,0,0,0,0,0,6,0,8,0,4,0,6,0,0,0,0,0,128,63,1,0,0,0,10,0,0,0,1,0,0,0,9,0,0,0,202,255,255,255,20,0,0,0,0,0,0,8,16,0,0,0,20,0,0,0,4,0,4,0,4,0,0,0,1,0,0,0,9,0,0,0,3,0,0,0,8,0,0,0,2,0,0,0,1,0,0,0,0,0,14,0,20,0,0,0,16,0,12,0,11,0,4,0,14,0,0,0,16,0,0,0,0,0,0,8,16,0,0,0,20,0,0,0,186,255,255,255,0,0,0,1,1,0,0,0,8,0,0,0,3,0,0,0,7,0,0,0,4,0,0,0,3,0,0,0,0,0,14,0,22,0,0,0,16,0,12,0,11,0,4,0,14,0,0,0,24,0,0,0,0,0,0,8,24,0,0,0,28,0,0,0,0,0,6,0,8,0,7,0,6,0,0,0,0,0,0,1,1,0,0,0,7,0,0,0,3,0,0,0,0,0,0,0,6,0,0,0,5,0,0,0,1,0,0,0,10,0,0,0,1,0,0,0,0,0,0,0,11,0,0,0,136,5,0,0,240,4,0,0,100,4,0,0,232,3,0,0,116,3,0,0,248,2,0,0,140,2,0,0,216,1,0,0,28,1,0,0,128,0,0,0,4,0,0,0,186,250,255,255,0,0,0,1,24,0,0,0,32,0,0,0,60,0,0,0,11,0,0,0,0,0,0,9,80,0,0,0,2,0,0,0,255,255,255,255,7,0,0,0,164,250,255,255,8,0,0,0,16,0,0,0,1,0,0,0,128,255,255,255,255,255,255,255,1,0,0,0,0,0,128,59,25,0,0,0,83,116,97,116,101,102,117,108,80,97,114,116,105,116,105,111,110,101,100,67,97,108,108,58,48,0,0,0,2,0,0,0,1,0,0,0,7,0,0,0,50,251,255,255,0,0,0,1,24,0,0,0,32,0,0,0,60,0,0,0,10,0,0,0,0,0,0,9,112,0,0,0,2,0,0,0,255,255,255,255,7,0,0,0,28,251,255,255,8,0,0,0,16,0,0,0,1,0,0,0,15,0,0,0,0,0,0,0,1,0,0,0,27,222,28,60,58,0,0,0,115,101,113,117,101,110,116,105,97,108,95,51,47,100,101,110,115,101,95,49,49,47,77,97,116,77,117,108,59,115,101,113,117,101,110,116,105,97,108,95,51,47,100,101,110,115,101,95,49,49,47,66,105,97,115,65,100,100,0,0,2,0,0,0,1,0,0,0,7,0,0,0,202,251,255,255,0,0,0,1,24,0,0,0,32,0,0,0,64,0,0,0,9,0,0,0,0,0,0,9,144,0,0,0,2,0,0,0,255,255,255,255,16,0,0,0,180,251,255,255,8,0,0,0,20,0,0,0,1,0,0,0,128,255,255,255,255,255,255,255,0,0,0,0,1,0,0,0,155,179,1,60,85,0,0,0,115,101,113,117,101,110,116,105,97,108,95,51,47,100,101,110,115,101,95,49,48,47,77,97,116,77,117,108,59,115,101,113,117,101,110,116,105,97,108,95,51,47,100,101,110,115,101,95,49,48,47,82,101,108,117,59,115,101,113,117,101,110,116,105,97,108,95,51,47,100,101,110,115,101,95,49,48,47,66,105,97,115,65,100,100,0,0,0,2,0,0,0,1,0,0,0,16,0,0,0,130,252,255,255,0,0,0,1,24,0,0,0,32,0,0,0,60,0,0,0,8,0,0,0,0,0,0,9,136,0,0,0,2,0,0,0,255,255,255,255,32,0,0,0,108,252,255,255,8,0,0,0,16,0,0,0,1,0,0,0,128,255,255,255,255,255,255,255,1,0,0,0,17,15,146,60,82,0,0,0,115,101,113,117,101,110,116,105,97,108,95,51,47,100,101,110,115,101,95,57,47,77,97,116,77,117,108,59,115,101,113,117,101,110,116,105,97,108,95,51,47,100,101,110,115,101,95,57,47,82,101,108,117,59,115,101,113,117,101,110,116,105,97,108,95,51,47,100,101,110,115,101,95,57,47,66,105,97,115,65,100,100,0,0,2,0,0,0,1,0,0,0,32,0,0,0,198,253,255,255,0,0,0,1,20,0,0,0,48,0,0,0,7,0,0,0,0,0,0,9,68,0,0,0,12,253,255,255,8,0,0,0,16,0,0,0,1,0,0,0,0,0,0,0,0,0,0,0,1,0,0,0,137,126,120,59,27,0,0,0,115,101,113,117,101,110,116,105,97,108,95,51,47,100,101,110,115,101,95,57,47,77,97,116,77,117,108,0,2,0,0,0,32,0,0,0,46,0,0,0,46,254,255,255,0,0,0,1,20,0,0,0,52,0,0,0,6,0,0,0,0,0,0,2,88,0,0,0,116,253,255,255,8,0,0,0,20,0,0,0,1,0,0,0,0,0,0,0,0,0,0,0,0,0,0,0,1,0,0,0,186,176,11,57,43,0,0,0,115,101,113,117,101,110,116,105,97,108,95,51,47,100,101,110,115,101,95,57,47,66,105,97,115,65,100,100,47,82,101,97,100,86,97,114,105,97,98,108,101,79,112,0,1,0,0,0,32,0,0,0,166,254,255,255,0,0,0,1,20,0,0,0,52,0,0,0,5,0,0,0,0,0,0,9,76,0,0,0,236,253,255,255,8,0,0,0,20,0,0,0,1,0,0,0,0,0,0,0,0,0,0,0,0,0,0,0,1,0,0,0,47,106,184,59,28,0,0,0,115,101,113,117,101,110,116,105,97,108,95,51,47,100,101,110,115,101,95,49,48,47,77,97,116,77,117,108,0,0,0,0,2,0,0,0,16,0,0,0,32,0,0,0,22,255,255,255,0,0,0,1,20,0,0,0,48,0,0,0,4,0,0,0,0,0,0,2,88,0,0,0,92,254,255,255,8,0,0,0,16,0,0,0,1,0,0,0,0,0,0,0,0,0,0,0,1,0,0,0,211,110,210,56,44,0,0,0,115,101,113,117,101,110,116,105,97,108,95,51,47,100,101,110,115,101,95,49,48,47,66,105,97,115,65,100,100,47,82,101,97,100,86,97,114,105,97,98,108,101,79,112,0,0,0,0,1,0,0,0,16,0,0,0,142,255,255,255,0,0,0,1,20,0,0,0,52,0,0,0,3,0,0,0,0,0,0,9,76,0,0,0,212,254,255,255,8,0,0,0,20,0,0,0,1,0,0,0,0,0,0,0,0,0,0,0,0,0,0,0,1,0,0,0,132,179,219,59,28,0,0,0,115,101,113,117,101,110,116,105,97,108,95,51,47,100,101,110,115,101,95,49,49,47,77,97,116,77,117,108,0,0,0,0,2,0,0,0,7,0,0,0,16,0,0,0,0,0,22,0,28,0,24,0,23,0,16,0,12,0,8,0,0,0,0,0,0,0,7,0,22,0,0,0,0,0,0,1,20,0,0,0,52,0,0,0,2,0,0,0,0,0,0,2,92,0,0,0,92,255,255,255,8,0,0,0,20,0,0,0,1,0,0,0,0,0,0,0,0,0,0,0,0,0,0,0,1,0,0,0,50,159,94,56,44,0,0,0,115,101,113,117,101,110,116,105,97,108,95,51,47,100,101,110,115,101,95,49,49,47,66,105,97,115,65,100,100,47,82,101,97,100,86,97,114,105,97,98,108,101,79,112,0,0,0,0,1,0,0,0,7,0,0,0,0,0,22,0,32,0,28,0,27,0,20,0,16,0,12,0,0,0,0,0,8,0,7,0,22,0,0,0,0,0,0,1,24,0,0,0,44,0,0,0,76,0,0,0,1,0,0,0,0,0,0,9,96,0,0,0,2,0,0,0,255,255,255,255,46,0,0,0,12,0,12,0,0,0,0,0,8,0,4,0,12,0,0,0,8,0,0,0,20,0,0,0,1,0,0,0,238,255,255,255,255,255,255,255,0,0,0,0,1,0,0,0,223,232,15,61,25,0,0,0,115,101,114,118,105,110,103,95,100,101,102,97,117,108,116,95,105,110,112,117,116,95,51,58,48,0,0,0,2,0,0,0,1,0,0,0,46,0,0,0,2,0,0,0,36,0,0,0,4,0,0,0,240,255,255,255,25,0,0,0,2,0,0,0,0,0,0,25,12,0,16,0,15,0,0,0,8,0,4,0,12,0,0,0,9,0,0,0,4,0,0,0,0,0,0,9};
    const unsigned short int fault_model_len = 4872;
    struct MachineData_s {
        float gforce;
        float gforce_rms;
        float temperature;
        float current;
        float voltage;
        unsigned long pulseCount;
        bool isAnomaly;
        int faultType;
    };
    typedef struct MachineData_s MachineData_t;
    void setupTFLite();
    xQueueHandle get_data_queue();
#endif