const unsigned char model_tflite[] = {28,0,0,0,84,70,76,51,20,0,32,0,28,0,24,0,20,0,16,0,12,0,0,0,8,0,4,0,20,0,0,0,28,0,0,0,144,0,0,0,232,0,0,0,52,4,0,0,68,4,0,0,128,12,0,0,3,0,0,0,1,0,0,0,16,0,0,0,0,0,10,0,16,0,12,0,8,0,4,0,10,0,0,0,12,0,0,0,28,0,0,0,56,0,0,0,15,0,0,0,115,101,114,118,105,110,103,95,100,101,102,97,117,108,116,0,1,0,0,0,4,0,0,0,152,255,255,255,12,0,0,0,4,0,0,0,7,0,0,0,100,101,110,115,101,95,51,0,1,0,0,0,4,0,0,0,98,252,255,255,4,0,0,0,11,0,0,0,100,101,110,115,101,95,105,110,112,117,116,0,2,0,0,0,52,0,0,0,4,0,0,0,220,255,255,255,15,0,0,0,4,0,0,0,19,0,0,0,67,79,78,86,69,82,83,73,79,78,95,77,69,84,65,68,65,84,65,0,8,0,12,0,8,0,4,0,8,0,0,0,14,0,0,0,4,0,0,0,19,0,0,0,109,105,110,95,114,117,110,116,105,109,101,95,118,101,114,115,105,111,110,0,16,0,0,0,72,3,0,0,64,3,0,0,36,3,0,0,220,2,0,0,140,2,0,0,252,1,0,0,204,1,0,0,60,1,0,0,236,0,0,0,172,0,0,0,164,0,0,0,156,0,0,0,148,0,0,0,140,0,0,0,108,0,0,0,4,0,0,0,26,253,255,255,4,0,0,0,88,0,0,0,12,0,0,0,8,0,14,0,8,0,4,0,8,0,0,0,16,0,0,0,40,0,0,0,0,0,6,0,8,0,4,0,6,0,0,0,4,0,0,0,1,0,0,0,235,3,0,0,0,0,10,0,16,0,12,0,8,0,4,0,10,0,0,0,2,0,0,0,2,0,0,0,4,0,0,0,6,0,0,0,50,46,49,51,46,49,0,0,126,253,255,255,4,0,0,0,16,0,0,0,49,46,49,52,46,48,0,0,0,0,0,0,0,0,0,0,252,252,255,255,0,253,255,255,4,253,255,255,8,253,255,255,170,253,255,255,4,0,0,0,48,0,0,0,171,158,148,93,240,230,45,230,200,47,22,206,102,16,114,16,132,64,51,162,19,245,35,11,29,11,231,215,118,11,191,63,69,164,0,129,71,36,95,202,232,158,173,61,237,112,175,56,230,253,255,255,4,0,0,0,64,0,0,0,0,0,0,0,58,12,0,0,133,53,0,0,9,19,0,0,222,7,0,0,96,241,255,255,189,244,255,255,236,251,255,255,65,6,0,0,227,253,255,255,118,16,0,0,0,0,0,0,104,8,0,0,0,0,0,0,68,239,255,255,145,10,0,0,50,254,255,255,4,0,0,0,128,0,0,0,57,51,229,188,45,4,10,101,200,56,60,193,19,73,203,35,2,181,55,14,8,212,234,191,224,65,199,248,174,210,176,39,222,187,35,88,36,50,65,69,208,87,180,248,41,41,185,185,54,19,247,219,50,37,41,179,191,171,226,182,52,240,29,1,37,243,156,240,39,11,2,70,6,63,120,244,64,230,26,18,186,212,250,37,175,60,19,52,213,30,35,236,37,183,238,65,12,83,218,30,51,13,26,207,62,50,51,36,36,3,42,77,191,212,143,217,250,72,11,38,206,211,127,181,40,61,255,23,190,254,255,255,4,0,0,0,32,0,0,0,193,8,0,0,0,0,0,0,164,247,255,255,51,17,0,0,78,5,0,0,71,247,255,255,12,5,0,0,46,31,0,0,234,254,255,255,4,0,0,0,128,0,0,0,56,61,58,4,72,175,47,235,32,6,3,6,27,224,62,21,211,193,167,172,222,38,57,184,202,225,210,83,83,12,249,102,82,236,203,33,71,18,82,168,27,45,72,211,64,35,90,166,70,198,202,220,235,97,31,4,39,88,129,70,224,7,2,87,46,74,30,242,198,207,168,183,247,37,49,39,39,206,58,150,181,170,58,237,187,37,46,15,29,74,59,32,185,215,73,0,220,30,52,249,91,79,7,116,16,199,54,43,8,254,40,183,251,21,248,255,178,238,186,62,29,227,213,102,229,14,45,245,118,255,255,255,4,0,0,0,64,0,0,0,219,10,0,0,167,6,0,0,137,247,255,255,44,248,255,255,146,4,0,0,216,11,0,0,146,244,255,255,150,19,0,0,0,0,0,0,167,252,255,255,128,3,0,0,94,248,255,255,107,245,255,255,161,250,255,255,0,0,0,0,18,248,255,255,194,255,255,255,4,0,0,0,48,0,0,0,248,246,59,31,79,72,54,211,11,89,85,30,175,253,53,87,114,33,200,233,51,52,4,129,231,252,10,207,237,231,58,176,38,38,211,97,47,221,77,228,181,216,83,20,35,190,211,85,0,0,6,0,8,0,4,0,6,0,0,0,4,0,0,0,12,0,0,0,109,252,255,255,115,13,0,0,226,1,0,0,128,255,255,255,132,255,255,255,15,0,0,0,77,76,73,82,32,67,111,110,118,101,114,116,101,100,46,0,1,0,0,0,20,0,0,0,0,0,14,0,24,0,20,0,16,0,12,0,8,0,4,0,14,0,0,0,20,0,0,0,28,0,0,0,36,1,0,0,40,1,0,0,44,1,0,0,4,0,0,0,109,97,105,110,0,0,0,0,4,0,0,0,204,0,0,0,132,0,0,0,60,0,0,0,4,0,0,0,150,255,255,255,20,0,0,0,0,0,0,8,16,0,0,0,20,0,0,0,4,0,4,0,4,0,0,0,1,0,0,0,12,0,0,0,3,0,0,0,11,0,0,0,2,0,0,0,1,0,0,0,202,255,255,255,16,0,0,0,0,0,0,8,16,0,0,0,20,0,0,0,118,255,255,255,0,0,0,1,1,0,0,0,11,0,0,0,3,0,0,0,10,0,0,0,4,0,0,0,3,0,0,0,0,0,14,0,20,0,0,0,16,0,12,0,11,0,4,0,14,0,0,0,16,0,0,0,0,0,0,8,16,0,0,0,20,0,0,0,186,255,255,255,0,0,0,1,1,0,0,0,10,0,0,0,3,0,0,0,9,0,0,0,6,0,0,0,5,0,0,0,0,0,14,0,22,0,0,0,16,0,12,0,11,0,4,0,14,0,0,0,24,0,0,0,0,0,0,8,24,0,0,0,28,0,0,0,0,0,6,0,8,0,7,0,6,0,0,0,0,0,0,1,1,0,0,0,9,0,0,0,3,0,0,0,0,0,0,0,8,0,0,0,7,0,0,0,1,0,0,0,12,0,0,0,1,0,0,0,0,0,0,0,13,0,0,0,88,6,0,0,200,5,0,0,68,5,0,0,200,4,0,0,92,4,0,0,224,3,0,0,116,3,0,0,0,3,0,0,148,2,0,0,232,1,0,0,52,1,0,0,128,0,0,0,4,0,0,0,242,249,255,255,0,0,0,1,24,0,0,0,32,0,0,0,60,0,0,0,13,0,0,0,0,0,0,9,80,0,0,0,2,0,0,0,255,255,255,255,3,0,0,0,220,249,255,255,8,0,0,0,16,0,0,0,1,0,0,0,128,255,255,255,255,255,255,255,1,0,0,0,28,46,129,59,25,0,0,0,83,116,97,116,101,102,117,108,80,97,114,116,105,116,105,111,110,101,100,67,97,108,108,58,48,0,0,0,2,0,0,0,1,0,0,0,3,0,0,0,106,250,255,255,0,0,0,1,24,0,0,0,32,0,0,0,64,0,0,0,12,0,0,0,0,0,0,9,136,0,0,0,2,0,0,0,255,255,255,255,16,0,0,0,84,250,255,255,8,0,0,0,20,0,0,0,1,0,0,0,128,255,255,255,255,255,255,255,0,0,0,0,1,0,0,0,158,82,125,59,76,0,0,0,115,101,113,117,101,110,116,105,97,108,47,100,101,110,115,101,95,50,47,77,97,116,77,117,108,59,115,101,113,117,101,110,116,105,97,108,47,100,101,110,115,101,95,50,47,82,101,108,117,59,115,101,113,117,101,110,116,105,97,108,47,100,101,110,115,101,95,50,47,66,105,97,115,65,100,100,0,0,0,0,2,0,0,0,1,0,0,0,16,0,0,0,26,251,255,255,0,0,0,1,24,0,0,0,32,0,0,0,64,0,0,0,11,0,0,0,0,0,0,9,136,0,0,0,2,0,0,0,255,255,255,255,8,0,0,0,4,251,255,255,8,0,0,0,20,0,0,0,1,0,0,0,128,255,255,255,255,255,255,255,0,0,0,0,1,0,0,0,10,178,139,59,76,0,0,0,115,101,113,117,101,110,116,105,97,108,47,100,101,110,115,101,95,49,47,77,97,116,77,117,108,59,115,101,113,117,101,110,116,105,97,108,47,100,101,110,115,101,95,49,47,82,101,108,117,59,115,101,113,117,101,110,116,105,97,108,47,100,101,110,115,101,95,49,47,66,105,97,115,65,100,100,0,0,0,0,2,0,0,0,1,0,0,0,8,0,0,0,202,251,255,255,0,0,0,1,24,0,0,0,32,0,0,0,64,0,0,0,10,0,0,0,0,0,0,9,128,0,0,0,2,0,0,0,255,255,255,255,16,0,0,0,180,251,255,255,8,0,0,0,20,0,0,0,1,0,0,0,128,255,255,255,255,255,255,255,0,0,0,0,1,0,0,0,3,149,105,59,70,0,0,0,115,101,113,117,101,110,116,105,97,108,47,100,101,110,115,101,47,77,97,116,77,117,108,59,115,101,113,117,101,110,116,105,97,108,47,100,101,110,115,101,47,82,101,108,117,59,115,101,113,117,101,110,116,105,97,108,47,100,101,110,115,101,47,66,105,97,115,65,100,100,0,0,2,0,0,0,1,0,0,0,16,0,0,0,254,252,255,255,0,0,0,1,20,0,0,0,52,0,0,0,9,0,0,0,0,0,0,9,68,0,0,0,76,252,255,255,8,0,0,0,20,0,0,0,1,0,0,0,0,0,0,0,0,0,0,0,0,0,0,0,1,0,0,0,87,11,141,59,23,0,0,0,115,101,113,117,101,110,116,105,97,108,47,100,101,110,115,101,47,77,97,116,77,117,108,0,2,0,0,0,16,0,0,0,3,0,0,0,102,253,255,255,0,0,0,1,20,0,0,0,48,0,0,0,8,0,0,0,0,0,0,2,80,0,0,0,180,252,255,255,8,0,0,0,16,0,0,0,1,0,0,0,0,0,0,0,0,0,0,0,1,0,0,0,240,152,141,55,39,0,0,0,115,101,113,117,101,110,116,105,97,108,47,100,101,110,115,101,47,66,105,97,115,65,100,100,47,82,101,97,100,86,97,114,105,97,98,108,101,79,112,0,1,0,0,0,16,0,0,0,214,253,255,255,0,0,0,1,20,0,0,0,48,0,0,0,7,0,0,0,0,0,0,9,68,0,0,0,36,253,255,255,8,0,0,0,16,0,0,0,1,0,0,0,0,0,0,0,0,0,0,0,1,0,0,0,40,103,196,59,25,0,0,0,115,101,113,117,101,110,116,105,97,108,47,100,101,110,115,101,95,49,47,77,97,116,77,117,108,0,0,0,2,0,0,0,8,0,0,0,16,0,0,0,62,254,255,255,0,0,0,1,20,0,0,0,52,0,0,0,6,0,0,0,0,0,0,2,88,0,0,0,140,253,255,255,8,0,0,0,20,0,0,0,1,0,0,0,0,0,0,0,0,0,0,0,0,0,0,0,1,0,0,0,54,52,179,55,41,0,0,0,115,101,113,117,101,110,116,105,97,108,47,100,101,110,115,101,95,49,47,66,105,97,115,65,100,100,47,82,101,97,100,86,97,114,105,97,98,108,101,79,112,0,0,0,1,0,0,0,8,0,0,0,182,254,255,255,0,0,0,1,20,0,0,0,48,0,0,0,5,0,0,0,0,0,0,9,68,0,0,0,4,254,255,255,8,0,0,0,16,0,0,0,1,0,0,0,0,0,0,0,0,0,0,0,1,0,0,0,214,71,185,59,25,0,0,0,115,101,113,117,101,110,116,105,97,108,47,100,101,110,115,101,95,50,47,77,97,116,77,117,108,0,0,0,2,0,0,0,16,0,0,0,8,0,0,0,30,255,255,255,0,0,0,1,20,0,0,0,52,0,0,0,4,0,0,0,0,0,0,2,88,0,0,0,108,254,255,255,8,0,0,0,20,0,0,0,1,0,0,0,0,0,0,0,0,0,0,0,0,0,0,0,1,0,0,0,185,53,202,55,41,0,0,0,115,101,113,117,101,110,116,105,97,108,47,100,101,110,115,101,95,50,47,66,105,97,115,65,100,100,47,82,101,97,100,86,97,114,105,97,98,108,101,79,112,0,0,0,1,0,0,0,16,0,0,0,150,255,255,255,0,0,0,1,20,0,0,0,48,0,0,0,3,0,0,0,0,0,0,9,68,0,0,0,228,254,255,255,8,0,0,0,16,0,0,0,1,0,0,0,0,0,0,0,0,0,0,0,1,0,0,0,216,86,203,59,25,0,0,0,115,101,113,117,101,110,116,105,97,108,47,100,101,110,115,101,95,51,47,77,97,116,77,117,108,0,0,0,2,0,0,0,3,0,0,0,16,0,0,0,0,0,22,0,28,0,24,0,23,0,16,0,12,0,8,0,0,0,0,0,0,0,7,0,22,0,0,0,0,0,0,1,20,0,0,0,48,0,0,0,2,0,0,0,0,0,0,2,84,0,0,0,100,255,255,255,8,0,0,0,16,0,0,0,1,0,0,0,0,0,0,0,0,0,0,0,1,0,0,0,115,54,201,55,41,0,0,0,115,101,113,117,101,110,116,105,97,108,47,100,101,110,115,101,95,51,47,66,105,97,115,65,100,100,47,82,101,97,100,86,97,114,105,97,98,108,101,79,112,0,0,0,1,0,0,0,3,0,0,0,0,0,22,0,32,0,28,0,27,0,20,0,16,0,12,0,0,0,0,0,8,0,7,0,22,0,0,0,0,0,0,1,24,0,0,0,44,0,0,0,76,0,0,0,1,0,0,0,0,0,0,9,100,0,0,0,2,0,0,0,255,255,255,255,3,0,0,0,12,0,12,0,0,0,0,0,8,0,4,0,12,0,0,0,8,0,0,0,20,0,0,0,1,0,0,0,128,255,255,255,255,255,255,255,0,0,0,0,1,0,0,0,129,128,128,59,29,0,0,0,115,101,114,118,105,110,103,95,100,101,102,97,117,108,116,95,100,101,110,115,101,95,105,110,112,117,116,58,48,0,0,0,2,0,0,0,1,0,0,0,3,0,0,0,1,0,0,0,16,0,0,0,12,0,16,0,15,0,0,0,8,0,4,0,12,0,0,0,9,0,0,0,4,0,0,0,0,0,0,9};
const unsigned int model_tflite_len = 3288;
